{"vocab": {"<pad>": 0, "<unk>": 1, "<bos>": 2, "<eos>": 3, "h": 4, "e": 5, "r": 6, "</w>": 7, "i": 8, "s": 9, "t": 10, "p": 11, "o": 12, "d": 13, "k": 14, "y": 15, "f": 16, "a": 17, "-": 18, "9": 19, ".": 20, "v": 21, "l": 22, "x": 23, "b": 24, "c": 25, ":": 26, "g": 27, "n": 28, "m": 29, "q": 30, "!": 31, "%": 32, "u": 33, "7": 34, "@": 35, "3": 36, "+": 37, "4": 38, "w": 39, "j": 40, "0": 41, "z": 42, "6": 43, "5": 44, "/": 45, "?": 46, "'": 47, "\u2014": 48, "(": 49, ")": 50, "$": 51, "1": 52, ",": 53, "2": 54, "8": 55, "`": 56, "_": 57, "=": 58, "\"": 59, "#": 60, "^": 61, "&": 62, "{": 63, "}": 64, ";": 65, "*": 66, "\u00fc": 67, ">": 68, "<": 69, "[": 70, "]": 71, "|": 72, "\u00e1": 73, "e</w>": 74, "er": 75, "in": 76, "on": 77, "an": 78, ":</w>": 79, "th": 80, "s</w>": 81, "st": 82, ".</w>": 83, "re": 84, "at": 85, "or": 86, "d</w>": 87, "en": 88, "a</w>": 89, "ou": 90, "t</w>": 91, "ing": 92, "si": 93, "ar": 94, ",</w>": 95, "the</w>": 96, "ing</w>": 97, "on</w>": 98, "you": 99, "or</w>": 100, "de": 101, "us": 102, "o</w>": 103, "pl": 104, "as": 105, "al": 106, "ti": 107, "y</w>": 108, "you</w>": 109, "te": 110, "he": 111, "user": 112, "p</w>": 113, "ac": 114, "for</w>": 115, "om": 116, "pr": 117, "il": 118, "is</w>": 119, "ic": 120, "user:</w>": 121, "le": 122, "in</w>": 123, "f</w>": 124, "se": 125, "sist": 126, "an</w>": 127, "and</w>": 128, "me</w>": 129, "?</w>": 130, "we": 131, "con": 132, "to</w>": 133, "ri": 134, "ati": 135, "i</w>": 136, "em": 137, "ex": 138, "qu": 139, "gr": 140, "ap": 141, "is": 142, "er</w>": 143, "hel": 144, "assist": 145, "assistan": 146, "ke": 147, "t:</w>": 148, "l</w>": 149, "th</w>": 150, "re</w>": 151, ")</w>": 152, "com": 153, "mi": 154, "wi": 155, "k</w>": 156, "are</w>": 157, "s.</w>": 158, "am": 159, "n</w>": 160, "with</w>": 161, "do": 162, "her": 163, "po": 164, "di": 165, "dat": 166, "w</w>": 167, "help</w>": 168, "'s</w>": 169, "ne": 170, "li": 171, "be": 172, "of": 173, "sy": 174, "'re</w>": 175, "ra": 176, "at</w>": 177, "cre": 178, "pro": 179, "te</w>": 180, "le</w>": 181, "assistant:</w>": 182, "lo": 183, "syst": 184, "system": 185, "plo": 186, "ru": 187, "here": 188, "can</w>": 189, "ed</w>": 190, "st</w>": 191, "x</w>": 192, "al</w>": 193, "ent": 194, "r</w>": 195, "b</w>": 196, "ch": 197, "m</w>": 198, "wri": 199, "i'": 200, "here's</w>": 201, "ce": 202, "ploy": 203, "sh": 204, "ol": 205, "ur": 206, "system:</w>": 207, "ad": 208, "fi": 209, "sion": 210, "--": 211, "co": 212, "we're</w>": 213, "bet": 214, "res": 215, "que": 216, "ail": 217, "ce</w>": 218, "if</w>": 219, "write</w>": 220, "ses": 221, "ter": 222, "ho": 223, "ation</w>": 224, "ent</w>": 225, "ag": 226, "it</w>": 227, "=</w>": 228, "ver": 229, "migr": 230, "ab": 231, "ie": 232, "av": 233, "\u2014</w>": 234, "ct": 235, "deploy": 236, "quest": 237, "wor": 238, "t.</w>": 239, "key": 240, "ql</w>": 241, "bu": 242, "ate": 243, "bac": 244, "pla": 245, "expla": 246, "gin": 247, "au": 248, "ro": 249, "fil": 250, "ation": 251, "me": 252, "tr": 253, "per": 254, "ser": 255, "by</w>": 256, "and": 257, "e:</w>": 258, "en</w>": 259, "ge": 260, "our</w>": 261, "y.</w>": 262, "s,</w>": 263, "time</w>": 264, "ter</w>": 265, "``": 266, "explain</w>": 267, "session": 268, "it": 269, "g</w>": 270, "work": 271, "su": 272, "need</w>": 273, "**": 274, "tion": 275, "enti": 276, "questi": 277, "im": 278, "back": 279, "rev": 280, "gh": 281, ";</w>": 282, "to": 283, "wh": 284, "pt": 285, "mo": 286, "how</w>": 287, "cli": 288, "ase</w>": 289, "ment": 290, "ence</w>": 291, "sc": 292, "off</w>": 293, "that</w>": 294, "engin": 295, "engine": 296, "team": 297, "serv": 298, "ad</w>": 299, "sen": 300, "quic": 301, "fu": 302, "revie": 303, "cal": 304, "):</w>": 305, "betwe": 306, "between</w>": 307, "s_": 308, "i'd</w>": 309, "of</w>": 310, "op": 311, "id": 312, "ate</w>": 313, "ep</w>": 314, "e.</w>": 315, "tem": 316, "engineer": 317, "tion</w>": 318, "tech": 319, "prod": 320, "py": 321, "`</w>": 322, "help": 323, "af": 324, "secre": 325, "attem": 326, "attempt": 327, "de-": 328, "ior</w>": 329, "i'm</w>": 330, "cor": 331, "19": 332, "hand": 333, "off": 334, "servic": 335, "aw": 336, "api": 337, "eth": 338, "es</w>": 339, "shor": 340, "senior</w>": 341, "data</w>": 342, "no": 343, "tex": 344, "so</w>": 345, "red": 346, "post": 347, "as</w>": 348, "up</w>": 349, "end</w>": 350, "this</w>": 351, "som": 352, "someth": 353, "tra": 354, "comp": 355, "contex": 356, "cl": 357, "fn": 358, "quick</w>": 359, "question</w>": 360, "confi": 361, "aph": 362, "inde": 363, "index</w>": 364, "ast": 365, "graph": 366, "t_": 367, "de</w>": 368, "trade-": 369, "ach": 370, "..": 371, "ql": 372, "context:</w>": 373, "ok</w>": 374, "filter": 375, "pyth": 376, "d_": 377, "ctu": 378, "rest</w>": 379, "migration</w>": 380, "key=": 381, "pe": 382, "versi": 383, "gre": 384, "wa": 385, "ple": 386, "dd": 387, "bil": 388, "fer": 389, "tur": 390, "c</w>": 391, "app": 392, "acti": 393, "practi": 394, "practical": 395, "practical.</w>": 396, "sing": 397, "review</w>": 398, "20": 399, "ay": 400, "ran": 401, "range": 402, "recom": 403, "recomm": 404, "migration": 405, "migrations</w>": 406, "service</w>": 407, "datab": 408, "dow": 409, "client</w>": 410, "helpfu": 411, "helpful</w>": 412, "assistant.</w>": 413, "err": 414, "stru": 415, "structu": 416, "ction</w>": 417, "midd": 418, "single</w>": 419, "ail</w>": 420, "trade-off</w>": 421, "web</w>": 422, "retur": 423, "return</w>": 424, "do</w>": 425, "ing.</w>": 426, "inf": 427, "plan": 428, "please</w>": 429, "better</w>": 430, "recommend</w>": 431, "run</w>": 432, "is:</w>": 433, "bo": 434, "hav": 435, "graphql</w>": 436, "have</w>": 437, "spr": 438, "create": 439, "up": 440, "sim": 441, "you're</w>": 442, "filtering</w>": 443, ".com": 444, "prom": 445, "tech</w>": 446, "your</w>": 447, "ve": 448, "pu": 449, "pers": 450, "ght": 451, "key</w>": 452, "out": 453, "try": 454, "cep": 455, "gres": 456, "attempts": 457, "excep": 458, "postgres": 459, "what</w>": 460, "int</w>": 461, "ary</w>": 462, "></w>": 463, "10": 464, "ort": 465, "sk": 466, "denti": 467, "using</w>": 468, "ku": 469, "bug": 470, "this": 471, "add": 472, "fix</w>": 473, "oun": 474, "s:</w>": 475, "ces": 476, "min": 477, "updat": 478, "es.</w>": 479, "created_": 480, "iv": 481, "b-": 482, "ble": 483, "middle</w>": 484, "short.</w>": 485, "ine</w>": 486, "cu": 487, "ss": 488, "ord": 489, "python</w>": 490, "tw": 491, "arg": 492, "working</w>": 493, "also</w>": 494, "code</w>": 495, "session:</w>": 496, "audi": 497, "audience</w>": 498, "engineers.</w>": 499, "deployed</w>": 500, "ning</w>": 501, "team</w>": 502, "fr": 503, "raf": 504, "'t</w>": 505, "ard": 506, "something.</w>": 507, "scri": 508, "/19": 509, "aws_": 510, "dif": 511, "differ": 512, "d.</w>": 513, "session.</w>": 514, "ise</w>": 515, "team:</w>": 516, "-</w>": 517, "log": 518, "enc": 519, "dob</w>": 520, "consist": 521, "1.": 522, "consistenc": 523, "\"</w>": 524, "32": 525, "keep</w>": 526, "4</w>": 527, "_id": 528, "doing</w>": 529, "sprint</w>": 530, "planning</w>": 531, "ling</w>": 532, "mor": 533, "avail": 534, "availab": 535, "()</w>": 536, "ther": 537, "arr": 538, "new</w>": 539, "lead</w>": 540, "aske": 541, "asked</w>": 542, "-pers": 543, "-person</w>": 544, "compan": 545, "company</w>": 546, "ck": 547, "here</w>": 548, "ache": 549, "ting</w>": 550, "ai</w>": 551, "tion:</w>": 552, "age</w>": 553, "-up</w>": 554, "+</w>": 555, "ang": 556, "on.</w>": 557, "version": 558, "heal": 559, "ly": 560, "cle": 561, "time": 562, "0</w>": 563, "ans": 564, "quer": 565, "def</w>": 566, "3,</w>": 567, "config</w>": 568, "from": 569, "from</w>": 570, "compo": 571, "ard</w>": 572, "ak": 573, "tok": 574, "54": 575, "option": 576, "use</w>": 577, "acces": 578, "21": 579, "way</w>": 580, "mobil": 581, "mobile</w>": 582, "handle</w>": 583, "37": 584, "rele": 585, "go</w>": 586, "acme</w>": 587, "nam": 588, "but</w>": 589, "s?</w>": 590, "er.</w>": 591, "inter": 592, "1</w>": 593, "jw": 594, "run": 595, "consistency</w>": 596, "read</w>": 597, "appro": 598, "log</w>": 599, "ep": 600, "50": 601, "ure</w>": 602, "par": 603, "s-": 604, "secret_": 605, "1)</w>": 606, "old</w>": 607, "assistant</w>": 608, "corp</w>": 609, "employ": 610, "employe": 611, "employees.</w>": 612, "ric": 613, "//": 614, "step</w>": 615, "qp": 616, "://": 617, "dev": 618, ".i": 619, "ical</w>": 620, "e?</w>": 621, "token": 622, "mem": 623, "cache": 624, "ents</w>": 625, "ward": 626, "ire": 627, "ero": 628, "tool": 629, "16": 630, "...": 631, "auth": 632, "created_at": 633, "scrip": 634, "graf": 635, "grafan": 636, "backoff</w>": 637, "api</w>": 638, "****": 639, "sof": 640, "star": 641, "cach": 642, "pp": 643, "file:</w>": 644, "range(": 645, "pay": 646, "redis": 647, "approach": 648, "approach</w>": 649, "one.</w>": 650, "(fn": 651, "(fn,</w>": 652, "ul": 653, "==</w>": 654, "sion</w>": 655, "session</w>": 656, "uction</w>": 657, ".j": 658, "databas": 659, "ty": 660, "version</w>": 661, "caching</w>": 662, "redis</w>": 663, "memcache": 664, "12": 665, "coun": 666, "engineering</w>": 667, "val": 668, "ki</w>": 669, "mg": 670, "dis": 671, "1k</w>": 672, "impro": 673, "improv": 674, "system</w>": 675, "=></w>": 676, "zero": 677, "zero-": 678, "zero-dow": 679, "zero-down": 680, "zero-downtime</w>": 681, "(3": 682, "mat": 683, "ar</w>": 684, "persist": 685, "mm": 686, "oth": 687, "40": 688, "does</w>": 689, "ca": 690, "che": 691, "confidenti": 692, "repl": 693, "bl": 694, "prim": 695, "great</w>": 696, "question.</w>": 697, "availabil": 698, "availabilit": 699, "availability.</w>": 700, "most</w>": 701, "apps</w>": 702, "starting</w>": 703, "primary</w>": 704, "adding</w>": 705, "replic": 706, "replicas</w>": 707, "once</w>": 708, "hit</w>": 709, "qps.</w>": 710, "error</w>": 711, "sle": 712, "2)</w>": 713, "softw": 714, "software</w>": 715, "15": 716, "ci": 717, "ins": 718, "end": 719, "minim": 720, "minimal</w>": 721, "loki</w>": 722, "aggre": 723, "aggreg": 724, "aggregation</w>": 725, "insur": 726, "insuran": 727, "access_": 728, "ron": 729, "intern": 730, "exp": 731, "exam": 732, "26": 733, "18": 734, "email</w>": 735, "code": 736, "27": 737, "25": 738, "query</w>": 739, "ers</w>": 740, "med": 741, "gi": 742, "un": 743, "than</w>": 744, "mr": 745, "supp": 746, "support": 747, "supports</w>": 748, "rich": 749, "richer</w>": 750, "structures": 751, "structures,</w>": 752, "has</w>": 753, "persistence</w>": 754, "options,</w>": 755, "eco": 756, "ecosystem</w>": 757, "more</w>": 758, "mature</w>": 759, "memcached.</w>": 760, "_key=": 761, "ai": 762, "deploys,</w>": 763, "stand": 764, "standard</w>": 765, "(1)</w>": 766, "backward": 767, "backwards-": 768, "backwards-comp": 769, "backwards-compati": 770, "backwards-compatible": 771, "backwards-compatible,</w>": 772, "(2)</w>": 773, "deplo": 774, "deploy</w>": 775, "code,</w>": 776, "(3)</w>": 777, "clean": 778, "clean-up</w>": 779, "separ": 780, "separate</w>": 781, "after</w>": 782, "gone.</w>": 783, "error": 784, "postgresql": 785, "stri": 786, "17": 787, "ty.</w>": 788, "am</w>": 789, "righ": 790, "right</w>": 791, "o:</w>": 792, "30": 793, "trol": 794, "comes</w>": 795, "down</w>": 796, "diversi": 797, "diversity.</w>": 798, "control": 799, "control,</w>": 800, "simpl": 801, "simpler.</w>": 802, "clients</w>": 803, "different</w>": 804, "requ": 805, "require": 806, "requirement": 807, "requirements,</w>": 808, "pays</w>": 809, "off.</w>": 810, "1-": 811, "der</w>": 812, "l=": 813, "database</w>": 814, "ev": 815, "wei": 816, "composi": 817, "composite</w>": 818, "short</w>": 819, "answ": 820, "answer</w>": 821, "`created_at": 822, "`created_at`</w>": 823, "range,</w>": 824, "consi": 825, "consider</w>": 826, "`user": 827, "`user_id": 828, "`user_id`": 829, "`user_id`.</w>": 830, ");</w>": 831, "ph": 832, "deployment": 833, "29": 834, "46": 835, "won": 836, "38": 837, "secret</w>": 838, "it's</w>": 839, "*</w>": 840, "light": 841, "```": 842, "```python</w>": 843, "1.0": 844, "```</w>": 845, "angu": 846, "promt": 847, "promtail</w>": 848, "lightwei": 849, "lightweight": 850, "lightweight,</w>": 851, "inte": 852, "integr": 853, "integrate": 854, "integrates</w>": 855, "grafana</w>": 856, "nati": 857, "native": 858, "natively": 859, "natively,</w>": 860, "langu": 861, "language</w>": 862, "(log": 863, "(logql": 864, "(logql)</w>": 865, "simil": 866, "similar</w>": 867, "promql</w>": 868, "won't</w>": 869, "lear": 870, "learn</w>": 871, "anoth": 872, "another</w>": 873, "tool.</w>": 874, "**i": 875, "van": 876, "jo": 877, "orm</w>": 878, "exampl": 879, "example:</w>": 880, "retry": 881, "retry(fn,</w>": 882, "attempts=": 883, "attempts=3,</w>": 884, "backoff": 885, "backoff=": 886, "backoff=1.0": 887, "backoff=1.0):</w>": 888, "range(attempts": 889, "range(attempts):</w>": 890, "try:</w>": 891, "fn()</w>": 892, "except</w>": 893, "exception:</w>": 894, "attempts</w>": 895, "1:</w>": 896, "raise</w>": 897, "time.": 898, "time.sle": 899, "time.sleep": 900, "time.sleep(": 901, "time.sleep(backoff</w>": 902, "2**i": 903, "2**i)</w>": 904, "debug": 905, "debugg": 906, "debugging</w>": 907, "something</w>": 908, "prod.</w>": 909, "relevan": 910, "relevant</w>": 911, "info:</w>": 912, "49": 913, "summ": 914, "summar": 915, "this?</w>": 916, "39": 917, "charg": 918, "charge</w>": 919, "mis": 920, "version:</w>": 921, "there</w>": 922, "api_key=": 923, "authenti": 924, "authentic": 925, "authentication</w>": 926, "error?</w>": 927, "past": 928, "pasting</w>": 929, "review": 930, "review:</w>": 931, "miss": 932, "missing</w>": 933, "ori": 934, "here?</w>": 935, "health</w>": 936, "thu": 937, "githu": 938, "3</w>": 939, "dn": 940, "nex": 941, "_ur": 942, "75": 943, "piv": 944, "_url=": 945, "look</w>": 946, "you?</w>": 947, "production</w>": 948, "sk-": 949, "el": 950, "techn": 951, "technical</w>": 952, "28": 953, "st.</w>": 954, "issu": 955, "(arr": 956, "pivo": 957, "postgresql</w>": 958, "issue?</w>": 959, "this.</w>": 960, "internal": 961, "ation.</w>": 962, "spo": 963, "ation:</w>": 964, "spot</w>": 965, "bug?</w>": 966, "pati": 967, "clou": 968, "test": 969, "orders</w>": 970, "mon": 971, "36": 972, "mrn</w>": 973, "fast": 974, "%</w>": 975, "terraf": 976, "terraform</w>": 977, "structure</w>": 978, "ree</w>": 979, "confidential</w>": 980, "red</w>": 981, "secret_key=": 982, "request": 983, "cur": 984, "db-": 985, "draf": 986, "draft</w>": 987, "corre": 988, "xo": 989, "dock": 990, "ic</w>": 991, "2.": 992, "billing</w>": 993, "update</w>": 994, "kub": 995, "----": 996, "{</w>": 997, "tes</w>": 998, "o/": 999, "kuber": 1000, "kuberne": 1001, "kubernetes</w>": 1002, "14": 1003, "du": 1004, "pod</w>": 1005, "ks": 1006, "v</w>": 1007, "oul": 1008, "shoul": 1009, "should</w>": 1010, "l.</w>": 1011, "bect": 1012, "bon": 1013, "kubect": 1014, "ok": 1015, "fun": 1016, "sl": 1017, "stag": 1018, "limi": 1019, "docu": 1020, "document": 1021, "documentation.</w>": 1022, "phon": 1023, "writer</w>": 1024, "helping</w>": 1025, "improve</w>": 1026, "ssn</w>": 1027, "at's</w>": 1028, "78": 1029, "sha": 1030, "tab": 1031, "79": 1032, "arch": 1033, "60": 1034, "35": 1035, "stripe": 1036, "ill</w>": 1037, "name:</w>": 1038, "cloud</w>": 1039, "node": 1040, "48": 1041, "ank": 1042, "dail": 1043, "a,</w>": 1044, "be</w>": 1045, "ck</w>": 1046, "credenti": 1047, "credential": 1048, "descrip": 1049, "description</w>": 1050, "dou": 1051, "re.</w>": 1052, "um": 1053, "thank": 1054, "thanks,</w>": 1055, "deployment?</w>": 1056, ".com:": 1057, "tl": 1058, "ma</w>": 1059, "sh</w>": 1060, "double": 1061, "double-": 1062, "double-che": 1063, "double-check</w>": 1064, "credentials</w>": 1065, "correct": 1066, "correct?</w>": 1067, "h</w>": 1068, "t(": 1069, "head": 1070, "const</w>": 1071, "node.j": 1072, "99": 1073, "08": 1074, "),</w>": 1075, "exper": 1076, "expert</w>": 1077, "infra": 1078, "infrastructure</w>": 1079, "devop": 1080, "devops.</w>": 1081, "didn": 1082, "didn't</w>": 1083, "work,</w>": 1084, "updated</w>": 1085, "addres": 1086, "-20": 1087, "rail": 1088, "id</w>": 1089, "t=": 1090, "gn": 1091, "76": 1092, "reque": 1093, "request</w>": 1094, "back</w>": 1095, "jwt_": 1096, "sci": 1097, "fol": 1098, "low": 1099, "45": 1100, "ces</w>": 1101, "grou": 1102, "follow": 1103, "2-": 1104, "scienti": 1105, "scientist.</w>": 1106, "conc": 1107, "concise</w>": 1108, "daily.</w>": 1109, "insurance": 1110, "ts</w>": 1111, "led</w>": 1112, "05": 1113, "quicks": 1114, "quicksort": 1115, "quicksort(arr": 1116, "pivot": 1117, "pas": 1118, "pass": 1119, "passwor": 1120, "spe": 1121, "d:</w>": 1122, "ted</w>": 1123, "ec": 1124, "kubectl</w>": 1125, "not</w>": 1126, "origin": 1127, "original</w>": 1128, "still</w>": 1129, "there.</w>": 1130, "ax": 1131, "9/": 1132, "mess": 1133, "k_": 1134, "sal": 1135, "salary</w>": 1136, "data": 1137, "fastapi</w>": 1138, "3-": 1139, "stripe_": 1140, "fo": 1141, "count</w>": 1142, "dg": 1143, "xox": 1144, "06": 1145, "s)</w>": 1146, "what's</w>": 1147, "difference</w>": 1148, "slac": 1149, "xoxb-": 1150, "name": 1151, "bi": 1152, "dj": 1153, "2</w>": 1154, "test</w>": 1155, "ref": 1156, "la": 1157, "68": 1158, "5</w>": 1159, "cs": 1160, "cv": 1161, "postgresql://": 1162, "postgresql://ad": 1163, "postgresql://admin": 1164, "postgresql://admin:": 1165, "5432": 1166, "5432/": 1167, "sco": 1168, "group</w>": 1169, "@db-": 1170, ".com:5432/": 1171, "11": 1172, "58": 1173, "tests</w>": 1174, "34": 1175, "sche": 1176, "ct</w>": 1177, "21.</w>": 1178, "my</w>": 1179, "ek": 1180, "98": 1181, "ice</w>": 1182, "64": 1183, "the": 1184, "24": 1185, "yn": 1186, "fl": 1187, "pres": 1188, "key:</w>": 1189, "aws_access_": 1190, "aws_access_key": 1191, "aws_access_key_id": 1192, "aws_access_key_id=": 1193, "sele": 1194, "se</w>": 1195, "aki": 1196, "iz": 1197, "health": 1198, ".internal": 1199, "a1": 1200, "}</w>": 1201, "sg": 1202, "da</w>": 1203, "ds</w>": 1204, "role": 1205, "yj": 1206, "pol": 1207, "ies</w>": 1208, "et": 1209, "medic": 1210, "insurance:</w>": 1211, "state": 1212, "open": 1213, ".io": 1214, "np": 1215, "summary.</w>": 1216, "cap</w>": 1217, "openai": 1218, "&</w>": 1219, "runs</w>": 1220, "polic": 1221, "policy</w>": 1222, "discharge</w>": 1223, "condi": 1224, "condition:</w>": 1225, "medication:</w>": 1226, "mental</w>": 1227, "scre": 1228, "screen": 1229, "screening</w>": 1230, "score": 1231, "score:</w>": 1232, "70": 1233, "clau": 1234, "decor": 1235, "created_at</w>": 1236, "boun": 1237, "message</w>": 1238, "hook</w>": 1239, "deboun": 1240, "server</w>": 1241, "sql</w>": 1242, "set": 1243, "&&</w>": 1244, "nor": 1245, "rs": 1246, "priv": 1247, "token=": 1248, "sk_": 1249, "az": 1250, "ment</w>": 1251, "66": 1252, "boo": 1253, "-4": 1254, "cust": 1255, "custom": 1256, "arge": 1257, "can": 1258, "database": 1259, "set</w>": 1260, "bonus": 1261, "rate": 1262, "bas": 1263, "ma": 1264, "works</w>": 1265, "all</w>": 1266, "/21.</w>": 1267, "script</w>": 1268, "staging": 1269, "event": 1270, "github</w>": 1271, "function</w>": 1272, "na": 1273, "aws_secret_": 1274, "aws_secret_access_": 1275, "aws_secret_access_key=": 1276, "n):</w>": 1277, "day": 1278, "dele": 1279, "dk": 1280, "create</w>": 1281, "list</w>": 1282, "ll": 1283, "delete</w>": 1284, "python": 1285, "shared</w>": 1286, "live": 1287, "live_": 1288, "77": 1289, "win": 1290, "search": 1291, "pi": 1292, "rot": 1293, "min</w>": 1294, "yam": 1295, "logs</w>": 1296, "poin": 1297, "when</w>": 1298, "rop": 1299, "xy": 1300, ".com.</w>": 1301, "order</w>": 1302, "mit": 1303, "users</w>": 1304, "aws</w>": 1305, "/d": 1306, "xt": 1307, "59": 1308, "',</w>": 1309, "re-": 1310, "ib": 1311, "pre-": 1312, "available</w>": 1313, "anth": 1314, "anthrop": 1315, "o.": 1316, "patient</w>": 1317, "diag": 1318, "diagno": 1319, "diagnosi": 1320, "diagnosis:</w>": 1321, "twice</w>": 1322, "type": 1323, "oli": 1324, "(...": 1325, "(...arg": 1326, "timeout": 1327, "timeout(": 1328, "};</w>": 1329, "select</w>": 1330, "count(": 1331, "cri": 1332, "next</w>": 1333, "q4</w>": 1334, "lin": 1335, "rd": 1336, "':</w>": 1337, "lab</w>": 1338, "ult": 1339, "ital": 1340, "7</w>": 1341, "637": 1342, "user_": 1343, "prescri": 1344, "prescribe": 1345, "prescribed</w>": 1346, "result": 1347, "results:</w>": 1348, "a1c</w>": 1349, "creat": 1350, "creatin": 1351, "creatinine</w>": 1352, "mg/d": 1353, "mg/dl.</w>": 1354, "follow-up</w>": 1355, "week": 1356, "weeks.</w>": 1357, "mic": 1358, "micro": 1359, "microservic": 1360, "mg.</w>": 1361, "u.": 1362, "0,</w>": 1363, "tree</w>": 1364, "gen": 1365, "database_url=": 1366, "database_url=postgresql://admin:": 1367, "gc": 1368, "u</w>": 1369, "u.i": 1370, "u.id</w>": 1371, "13": 1372, "modu": 1373, "gener": 1374, "********": 1375, "jwt_secre": 1376, "jwt_secret=": 1377, "s/": 1378, "vc": 1379, "yc": 1380, "re?</w>": 1381, ".prod": 1382, "ix": 1383, "69": 1384, "br": 1385, "sp": 1386, "s.": 1387, "docker</w>": 1388, "compose</w>": 1389, "];</w>": 1390, "...quicksort(arr": 1391, "...quicksort(arr.": 1392, "...quicksort(arr.filter": 1393, "...quicksort(arr.filter(": 1394, "...quicksort(arr.filter(x</w>": 1395, "pivot)": 1396, "a/": 1397, "rol": 1398, "table</w>": 1399, "api.</w>": 1400, "04": 1401, "88": 1402, "lu": 1403, "lt": 1404, "ss</w>": 1405, "node.js/": 1406, "node.js/exp": 1407, "node.js/expres": 1408, "redis_url=": 1409, "redis_url=redis": 1410, "redis_url=redis://": 1411, "redis_url=redis://:": 1412, "6379/": 1413, "6379/0</w>": 1414, "for": 1415, "isor": 1416, "explain": 1417, "explaining</w>": 1418, "rolling</w>": 1419, "releas": 1420, "6</w>": 1421, "ement": 1422, "openai_": 1423, "openai_api_key=": 1424, "openai_api_key=sk-": 1425, "ite": 1426, "token:</w>": 1427, "npx</w>": 1428, "pris": 1429, "prisma</w>": 1430, "t.j": 1431, "password:</w>": 1432, "jav": 1433, "-5": 1434, "insurance</w>": 1435, "typescri": 1436, "typescript": 1437, "typescript/": 1438, "typescript/nex": 1439, "typescript/next.j": 1440, "blu": 1441, "aws_access_key_id=aki": 1442, "pat": 1443, "python/": 1444, "ht": 1445, "java/": 1446, "java/spr": 1447, "java/spring</w>": 1448, "desi": 1449, "@db-prod": 1450, "l-": 1451, "info</w>": 1452, "card": 1453, "card:</w>": 1454, "exp</w>": 1455, "cvv</w>": 1456, "address:</w>": 1457, "st,</w>": 1458, "valid": 1459, "tp": 1460, "ask</w>": 1461, "targe": 1462, "-----": 1463, "rsa</w>": 1464, "private</w>": 1465, "key----": 1466, "key-----</w>": 1467, "grp": 1468, "slack_": 1469, "slack_bo": 1470, "slack_bot_": 1471, "slack_bot_token=": 1472, "slack_bot_token=xoxb-": 1473, "js": 1474, "ob": 1475, "tal": 1476, "ux": 1477, "tions</w>": 1478, "22": 1479, "vp": 1480, "07": 1481, "rust": 1482, "rust/": 1483, "rust/ax": 1484, "eb": 1485, "medical</w>": 1486, "um</w>": 1487, "mg</w>": 1488, "stripe_secret_key=": 1489, "check": 1490, "checklist</w>": 1491, "go/": 1492, "go/grp": 1493, "clu": 1494, "1,</w>": 1495, "ah": 1496, "talk": 1497, "talking</w>": 1498, "points</w>": 1499, "all-": 1500, "all-hand": 1501, "read": 1502, "djang": 1503, "django/": 1504, "row": 1505, "search</w>": 1506, "inpu": 1507, "-9": 1508, "customer</w>": 1509, "card</w>": 1510, "k,</w>": 1511, "sendg": 1512, "sendgri": 1513, "sendgrid_": 1514, "sendgrid_api_key=": 1515, "sendgrid_api_key=sg": 1516, "limit</w>": 1517, "44": 1518, "ruby</w>": 1519, "(dob</w>": 1520, "called</w>": 1521, "dispu": 1522, "dispute</w>": 1523, "ending</w>": 1524, "phone:</w>": 1525, "od": 1526, "docker": 1527, "refer": 1528, "github": 1529, "mu": 1530, ".io.</w>": 1531, "app.</w>": 1532, "outl": 1533, "55": 1534, "summariz": 1535, "summarize</w>": 1536, "pros</w>": 1537, "cons</w>": 1538, "three</w>": 1539, "vend": 1540, "vendor</w>": 1541, "patien": 1542, "patient:</w>": 1543, "net": 1544, "outline</w>": 1545, "spec</w>": 1546, "rate-": 1547, "rate-limi": 1548, "rate-limiting</w>": 1549, "middle": 1550, "middlewa": 1551, "trade-off": 1552, "trade-offs</w>": 1553, "ren": 1554, "one</w>": 1555, "2,</w>": 1556, "sendgrid_api_key=sg.": 1557, "gge": 1558, "e-": 1559, "vi": 1560, "candi": 1561, "candidat": 1562, "candidate</w>": 1563, "curren": 1564, "current</w>": 1565, "person": 1566, "personal</w>": 1567, "referen": 1568, "references</w>": 1569, "request.</w>": 1570, "querie": 1571, "phone</w>": 1572, "proces": 1573, "m.</w>": 1574, "ll</w>": 1575, "kin": 1576, "brow": 1577, "admit": 1578, "admitted</w>": 1579, "pull</w>": 1580, "sugge": 1581, "suggest</w>": 1582, "improvement": 1583, ".co": 1584, "-8": 1585, "zh": 1586, "att": 1587, "p.</w>": 1588, "data:</w>": 1589, "asyn": 1590, "qe": 1591, "an.</w>": 1592, "anthropic": 1593, "ms": 1594, "pool": 1595, "postmor": 1596, "postmorte": 1597, "postmortem</w>": 1598, "2-h": 1599, "2-hour</w>": 1600, "outag": 1601, "conne": 1602, "al.</w>": 1603, "chron": 1604, "gu": 1605, "hy": 1606, "postgresql.</w>": 1607, "rep": 1608, "09": 1609, "65": 1610, "go": 1611, "8</w>": 1612, "typ": 1613, "very</w>": 1614, "job</w>": 1615, "backend</w>": 1616, "engineer</w>": 1617, "3.": 1618, "01": 1619, "ry": 1620, "cas": 1621, "plan</w>": 1622, "monoli": 1623, "monolith</w>": 1624, "wire</w>": 1625, "trans": 1626, "transf": 1627, "transfer</w>": 1628, "request:</w>": 1629, "account</w>": 1630, "iban</w>": 1631, "reci": 1632, "recipi": 1633, "recipient</w>": 1634, "ref:</w>": 1635, "runbo": 1636, "runbook</w>": 1637, "section</w>": 1638, "rotat": 1639, "rotating</w>": 1640, "access</w>": 1641, "03": 1642, "es?</w>": 1643, "type</w>": 1644, "74": 1645, "23": 1646, "bri": 1647, "7,</w>": 1648, "mer": 1649, "+9": 1650, "02": 1651, "eyj": 1652, "dev.": 1653, "dro": 1654, "table": 1655, "+91-": 1656, "ing?</w>": 1657, "admin</w>": 1658, "release.</w>": 1659, "drop</w>": 1660, "pg": 1661, "north": 1662, "northwin": 1663, "flo": 1664, ":6379/0</w>": 1665, "dest": 1666, "destro": 1667, "endpo": 1668, "endpoint</w>": 1669, "validation</w>": 1670, "handl": 1671, "33": 1672, "cc": 1673, "riz": 1674, "railwa": 1675, "railway.</w>": 1676, "89": 1677, "fixt": 1678, "rec": 1679, "col": 1680, "actions</w>": 1681, "workflo": 1682, "workflow</w>": 1683, "param": 1684, "paramet": 1685, "pytest</w>": 1686, "fixture</w>": 1687, ";`</w>": 1688, "header": 1689, "parametriz": 1690, "parametrized</w>": 1691, "00": 1692, "44</w>": 1693, "cke": 1694, "m,</w>": 1695, "%,</w>": 1696, "exe": 1697, "uf": 1698, "lif": 1699, "reven": 1700, "revenu": 1701, "ebit": 1702, "ebitda</w>": 1703, "exec</w>": 1704, "ear": 1705, "fly": 1706, "umn": 1707, "observer</w>": 1708, "patter": 1709, "pattern</w>": 1710, "design": 1711, "s3</w>": 1712, "lifec": 1713, "reac": 1714, "react</w>": 1715, "debounces</w>": 1716, "claude-": 1717, "a.</w>": 1718, "deployment</w>": 1719, "yaml</w>": 1720, "statele": 1721, "stateless</w>": 1722, "add</w>": 1723, "column": 1724, "module</w>": 1725, "bucke": 1726, "bucket</w>": 1727, "lifecyc": 1728, "lifecycle</w>": 1729, "rule": 1730, "ff": 1731, "mc": 1732, "mit</w>": 1733, "forec": 1734, "forecast": 1735, "forecast:</w>": 1736, "revenue</w>": 1737, "marg": 1738, "margin</w>": 1739, "headcount</w>": 1740, "reduction</w>": 1741, "planne": 1742, "planned.</w>": 1743, "share</w>": 1744, "outsi": 1745, "outside</w>": 1746, "unti": 1747, "until</w>": 1748, "earn": 1749, "earning": 1750, "earnings</w>": 1751, "call.</w>": 1752, "lay": 1753, "gcp.</w>": 1754, "all-hands.</w>": 1755, "dul": 1756, "gm": 1757, "han": 1758, "\":": 1759, "curs": 1760, "ore": 1761, "sem": 1762, "unit</w>": 1763, "vali": 1764, "validat": 1765, "validates</w>": 1766, "pine</w>": 1767, ".com</w>": 1768, "fly.io.</w>": 1769, "git</w>": 1770, "uk": 1771, "les</w>": 1772, "app?</w>": 1773, "56": 1774, "cron": 1775, "handles</w>": 1776, "schedul": 1777, "wz": 1778, "+44</w>": 1779, "aws.</w>": 1780, "rai": 1781, "_t": 1782, "now": 1783, "buil": 1784, "dockerfil": 1785, "dockerfile</w>": 1786, "ko": 1787, "tex</w>": 1788, "30</w>": 1789, "bash</w>": 1790, "try</w>": 1791, "theore": 1792, "theorem</w>": 1793, "distri": 1794, "distribu": 1795, "y?</w>": 1796, "se-": 1797, "retry</w>": 1798, "flask</w>": 1799, "appl": 1800, "applies</w>": 1801, "distributed</w>": 1802, "aly": 1803, "sed</w>": 1804, "-2.": 1805, "decorat": 1806, "decorator</w>": 1807, "expon": 1808, "exponenti": 1809, "exponential</w>": 1810, "ngin": 1811, "nginx</w>": 1812, "rever": 1813, "reverse-": 1814, "reverse-pro": 1815, "reverse-proxy": 1816, "reverse-proxying</w>": 1817, "node.js</w>": 1818, "ov": 1819, "improvements.</w>": 1820, "staging.": 1821, "$(": 1822, "mist": 1823, "mistic</w>": 1824, "ba": 1825, "dig": 1826, "series</w>": 1827, "ssi": 1828, "oce": 1829, "tls</w>": 1830, "handsh": 1831, "handshak": 1832, "handshake</w>": 1833, "step": 1834, "sdk": 1835, "ant": 1836, "options.</w>": 1837, "9</w>": 1838, ".internal.": 1839, "middleware.</w>": 1840, "deploy.</w>": 1841, "yro": 1842, "sk_live_": 1843, "jp": 1844, "inve": 1845, "invest": 1846, "investor</w>": 1847, "update:</w>": 1848, "raised</w>": 1849, "post-": 1850, "post-mon": 1851, "post-mone": 1852, "post-money</w>": 1853, "valu": 1854, "valuation</w>": 1855, "attache": 1856, "attached</w>": 1857, "stric": 1858, "strictl": 1859, "strictly</w>": 1860, "confidential.</w>": 1861, "ve</w>": 1862, "a+": 1863, "digital": 1864, "digitaloce": 1865, "digitalocean.</w>": 1866, "grafana": 1867, "generate</w>": 1868, "b-tree</w>": 1869, "spee": 1870, "speeds</w>": 1871, "analy": 1872, "analyti": 1873, "equ": 1874, "iy": 1875, "deployments</w>": 1876, "--on": 1877, "--onel": 1878, "--oneline</w>": 1879, "--graph": 1880, "--graph</w>": 1881, "--decor": 1882, "--decorate</w>": 1883, "--all</w>": 1884, "|</w>": 1885, "head</w>": 1886, "-20</w>": 1887, "50;</w>": 1888, "arer</w>": 1889, "helix": 1890, "base</w>": 1891, "tail": 1892, "57": 1893, "sig": 1894, "northwind": 1895, "chronou": 1896, "chronous</w>": 1897, "\"auth": 1898, "\"authori": 1899, "\"authoriz": 1900, "bearer</w>": 1901, "http": 1902, "https": 1903, "https://": 1904, "https://api": 1905, "https://api.": 1906, ".com/": 1907, "idi": 1908, "adv": 1909, "archite": 1910, "architectu": 1911, "architecture?</w>": 1912, "amm": 1913, "avo": 1914, "$(kubectl</w>": 1915, "get</w>": 1916, "pods</w>": 1917, "-n</w>": 1918, "staging</w>": 1919, "-o</w>": 1920, "name);</w>": 1921, "$pod</w>": 1922, "--tail": 1923, "--tail=": 1924, "--tail=50;</w>": 1925, "done</w>": 1926, "band</w>": 1927, "(not</w>": 1928, "publ": 1929, "public": 1930, "public):</w>": 1931, "ic4</w>": 1932, "bonus,</w>": 1933, "ic5</w>": 1934, "bonus.</w>": 1935, "equit": 1936, "equity</w>": 1937, "refre": 1938, "refresh</w>": 1939, "pool:</w>": 1940, "share": 1941, "shares.</w>": 1942, "azu": 1943, "azure.</w>": 1944, "c(": 1945, "1;</w>": 1946, "m&": 1947, "fie": 1948, "k8": 1949, "xx": 1950, "b,</w>": 1951, ").</w>": 1952, "why</w>": 1953, "func": 1954, "function": 1955, "functional</w>": 1956, "progr": 1957, "programm": 1958, "programming</w>": 1959, "avoid": 1960, "avoids</w>": 1961, "sk_test": 1962, "grac": 1963, "casca": 1964, "cascade": 1965, "vs</w>": 1966, "\")</w>": 1967, "(\"": 1968, "sk_test_": 1969, "m&a</w>": 1970, "target:</w>": 1971, "offer</w>": 1972, "pric": 1973, "price:</w>": 1974, "arr).</w>": 1975, "signe": 1976, "signed</w>": 1977, "nda</w>": 1978, "file.</w>": 1979, "advisor": 1980, "advisor:</w>": 1981, "reads</w>": 1982, "csv</w>": 1983, "outpu": 1984, "outputs</w>": 1985, ".prod.": 1986, "});</w>": 1987, "qz": 1988, "+1-": 1989, "_</w>": 1990, "eventu": 1991, "eventual</w>": 1992, "stron": 1993, "strong</w>": 1994, "jz": 1995, "graphql": 1996, "jwt</w>": 1997, "structured</w>": 1998, "veri": 1999, "verifie": 2000, "fibon": 2001, "fibonac": 2002, "fibonacci": 2003, "fibonacci(": 2004, "fibonacci(n):</w>": 2005, "range(n):</w>": 2006, "a+b</w>": 2007, "vo": 2008, "-6": 2009, "microservices.</w>": 2010, "mvc": 2011, "qk": 2012, "/data": 2013, "process</w>": 2014, "thread</w>": 2015, "linux": 2016, "e_t": 2017, "ple</w>": 2018, "ex</w>": 2019, "outage.</w>": 2020, "date_t": 2021, "date_trun": 2022, "date_trunc(": 2023, "date_trunc('": 2024, "date_trunc('day": 2025, "date_trunc('day',</w>": 2026, "created_at),</w>": 2027, "count(*": 2028, "count(*)</w>": 2029, "events</w>": 2030, "where</w>": 2031, "now()</w>": 2032, "interv": 2033, "interval</w>": 2034, "'30</w>": 2035, "days": 2036, "days'": 2037, "days'</w>": 2038, "mvcc</w>": 2039, "6,</w>": 2040, "keys.</w>": 2041, "\",</w>": 2042, "25-": 2043, "happ": 2044, "happen": 2045, "happens</w>": 2046, "url</w>": 2047, "into</w>": 2048, "browser": 2049, "by": 2050, "bio": 2051, "cer": 2052, "deploy?</w>": 2053, "mutex</w>": 2054, "semap": 2055, "semapho": 2056, "stat": 2057, "internal.": 2058, "jy": 2059, "bw": 2060, "94": 2061, "pre-com": 2062, "pre-commit</w>": 2063, "blac": 2064, "black</w>": 2065, "jh": 2066, "cont": 2067, "mesh</w>": 2068, "typescript/next.js</w>": 2069, "state</w>": 2070, "inclu": 2071, "include": 2072, "includes:</w>": 2073, "rds_": 2074, "rds_passwor": 2075, "rds_password</w>": 2076, "jwt_secret</w>": 2077, "stripe_key</w>": 2078, "\"sk-": 2079, "s.create": 2080, "s.create(": 2081, "debounce</w>": 2082, "ms)</w>": 2083, "let</w>": 2084, "t;</w>": 2085, "(...args)</w>": 2086, "clear": 2087, "cleartimeout(": 2088, "cleartimeout(t": 2089, "cleartimeout(t);</w>": 2090, "settimeout(": 2091, "settimeout(()</w>": 2092, "fn(...arg": 2093, "fn(...args": 2094, "fn(...args),</w>": 2095, "ms);</w>": 2096, "vpn</w>": 2097, "pre-shared</w>": 2098, "cert</w>": 2099, "expire": 2100, "expires</w>": 2101, ".l": 2102, "repo</w>": 2103, "node.js/express.</w>": 2104, "dh": 2105, "3.</w>": 2106, "ak</w>": 2107, "github_": 2108, "@app": 2109, "@app.": 2110, "@app.ge": 2111, "@app.get(": 2112, "@app.get('": 2113, "@app.get('/": 2114, "@app.get('/api": 2115, "@app.get('/api/": 2116, "@app.get('/api/health": 2117, "@app.get('/api/health'": 2118, "@app.get('/api/health')</w>": 2119, "async</w>": 2120, "health(": 2121, "health():</w>": 2122, "{'": 2123, "{'stat": 2124, "{'status": 2125, "{'status':</w>": 2126, "'ok": 2127, "'ok',</w>": 2128, "'version": 2129, "'version':</w>": 2130, "version}</w>": 2131, "ft</w>": 2132, "role.</w>": 2133, "kz": 2134, "network": 2135, "pr.</w>": 2136, "e64": 2137, "v1</w>": 2138, "role</w>": 2139, "content</w>": 2140, "deli": 2141, "delivery</w>": 2142, "sc</w>": 2143, "(bas": 2144, "(base64": 2145, "(base64):</w>": 2146, "apiversion:</w>": 2147, "kind:</w>": 2148, "db-password:</w>": 2149, "api-": 2150, "api-key:</w>": 2151, "eng": 2152, "-1.": 2153, "u.id": 2154, "u.id,</w>": 2155, "u.em": 2156, "u.email": 2157, "u.email,</w>": 2158, "count(o.": 2159, "count(o.id": 2160, "count(o.id)</w>": 2161, "left</w>": 2162, "join</w>": 2163, "o.user_": 2164, "o.user_id</w>": 2165, "desc</w>": 2166, "20;</w>": 2167, "ka": 2168, "67": 2169, "bx": 2170, "-cl": 2171, "abe": 2172, "column.</w>": 2173, "en-": 2174, "pk_": 2175, "pk_live_": 2176, "vh": 2177, "-cli</w>": 2178, "dw": 2179, "85": 2180, "handling.</w>": 2181, "-d</w>": 2182, "--buil": 2183, "--build</w>": 2184, "-f</w>": 2185, "warden-": 2186, "warden-api</w>": 2187, "-7": 2188, "quicksort(arr)</w>": 2189, "(arr.l": 2190, "(arr.leng": 2191, "(arr.length</w>": 2192, "<=</w>": 2193, "arr;</w>": 2194, "pivot</w>": 2195, "arr[": 2196, "arr[0": 2197, "arr[0];</w>": 2198, "[...quicksort(arr.filter(x</w>": 2199, "<</w>": 2200, "pivot)),</w>": 2201, "pivot,</w>": 2202, "pivot))": 2203, "pivot))];</w>": 2204, "slack</w>": 2205, "input.</w>": 2206, "qh": 2207, "boot</w>": 2208, "rust/axum</w>": 2209, "-3": 2210, "80": 2211, "go/grpc</w>": 2212, "co</w>": 2213, "vz": 2214, "dm": 2215, "bn": 2216, "monit": 2217, "qn": 2218, "\":\"": 2219, "databases.</w>": 2220, "hi": 2221, "django/postgresql</w>": 2222, "qy": 2223, "47": 2224, "fz": 2225, "migrate</w>": 2226, "dev</w>": 2227, "--na": 2228, "--name</w>": 2229, "add_": 2230, "add_user_": 2231, "add_user_role": 2232, "add_user_roles</w>": 2233, "\",": 2234, "\",\"": 2235, "iep": 2236, "1.</w>": 2237, "qm": 2238, "qw": 2239, "ya": 2240, "jx": 2241, "ssh</w>": 2242, "beg": 2243, "miiep": 2244, "miiepai": 2245, "miiepaiba": 2246, "miiepaibaak": 2247, "miiepaibaakca": 2248, "miiepaibaakcaqe": 2249, "-----end</w>": 2250, "cw": 2251, "python/fast": 2252, "python/fastapi.</w>": 2253, "python/fastapi</w>": 2254, "disord": 2255, "disorder.</w>": 2256, "bz": 2257, "database.</w>": 2258, "cz": 2259, "dz": 2260, "08/": 2261, "ded</w>": 2262, "95": 2263, "v1": 2264, "kn": 2265, ".dev.": 2266, "fh": 2267, "pw": 2268, "jwt:</w>": 2269, "northe": 2270, "northea": 2271, "northeast</w>": 2272, "prod</w>": 2273, "-----beg": 2274, "-----begin</w>": 2275, "addresse": 2276, "addresses.</w>": 2277, "90": 2278, "rails</w>": 2279, "26-": 2280, "bj": 2281, "84": 2282, "design.</w>": 2283, "fy": 2284, "luke": 2285, "luke's</w>": 2286, "cent": 2287, "ush": 2288, "kh": 2289, "qx": 2290, "fx": 2291, "step.</w>": 2292, "01/": 2293, "internal</w>": 2294, "queries.</w>": 2295, "86": 2296, "gb": 2297, "sa": 2298, "qv": 2299, "$1": 2300, "qr": 2301, "api?</w>": 2302, "mz": 2303, "node.js/express</w>": 2304, "python.</w>": 2305, "boot.</w>": 2306, "vau": 2307, "qg": 2308, "scheduling.</w>": 2309, "ky": 2310, "username:</w>": 2311, "host": 2312, "host:</w>": 2313, "fw": 2314, "them": 2315, "qj": 2316, "rules.</w>": 2317, "vr": 2318, "schem": 2319, "schemas</w>": 2320, "calling</w>": 2321, "<name": 2322, "<name>": 2323, "enter": 2324, "planmo": 2325, "planmode</w>": 2326, "worktree</w>": 2327, "exit": 2328, "linux.</w>": 2329, "qi": 2330, "amlo": 2331, "amlodi": 2332, "amlodipine</w>": 2333, "nl": 2334, "97": 2335, "kj": 2336, "ell": 2337, "gy": 2338, "rust/axum": 2339, "rust/axum.</w>": 2340, "@db-staging": 2341, "rails.</w>": 2342, "cy</w>": 2343, "12/": 2344, "2.</w>": 2345, "gj": 2346, "stell": 2347, "dt": 2348, "go/grpc": 2349, "go/grpc.</w>": 2350, "vy": 2351, "morg": 2352, "ing-": 2353, "ail.com.</w>": 2354, "django/postgresql.</w>": 2355, "vault": 2356, "graphql.</w>": 2357, "typescript/next.js.</w>": 2358, "$17": 2359, "mercy</w>": 2360, "general</w>": 2361, "hosp": 2362, "liam": 2363, "hz": 2364, "bal": 2365, "53": 2366, "queries?</w>": 2367, "pag": 2368, "96": 2369, "amo": 2370, "boto": 2371, "vw": 2372, "yu": 2373, "sertr": 2374, "sertral": 2375, "sertraline</w>": 2376, "aws_access_key_id=akia": 2377, "qd": 2378, "qo": 2379, "secu": 2380, "securi": 2381, "valle": 2382, "valley</w>": 2383, "via</w>": 2384, "jr": 2385, "gz": 2386, "2.1.": 2387, "bt": 2388, "qs": 2389, "orv": 2390, "09/": 2391, "fin": 2392, "verified.</w>": 2393, "kx": 2394, "06/": 2395, "json.</w>": 2396, "input": 2397, "m-": 2398, "consistency.</w>": 2399, "session></w>": 2400, "es": 2401, "cc_": 2402, "semaphore.</w>": 2403, "state.</w>": 2404, "cs</w>": 2405, "isort.</w>": 2406, "73": 2407, "browser.</w>": 2408, "bh": 2409, "bm": 2410, "72": 2411, "vj": 2412, "network.</w>": 2413, "ist": 2414, "ani": 2415, "atorv": 2416, "atorvast": 2417, "atorvastat": 2418, "atorvastatin</w>": 2419, "ronbri": 2420, "finan": 2421, "met": 2422, "hoo": 2423, "yamamo": 2424, "gw": 2425, "win32": 2426, "pagin": 2427, "offset": 2428, "row</w>": 2429, "metfor": 2430, "metformin</w>": 2431, "1000": 2432, "10/": 2433, "logist": 2434, "logistic": 2435, ".staging.": 2436, "n.": 2437, "grani": 2438, "anuf": 2439, "anufac": 2440, "anufactur": 2441, "dx": 2442, "kaf": 2443, "mx": 2444, "@ya": 2445, "@yahoo": 2446, "my": 2447, "vn": 2448, "43": 2449, "wy": 2450, "'bri": 2451, "l:</w>": 2452, "02/": 2453, "@helix": 2454, "@helix.": 2455, "qt": 2456, "gx": 2457, "lis": 2458, "ino": 2459, "pagination:</w>": 2460, "offset/": 2461, "offset/limit</w>": 2462, "10m-": 2463, "10m-row</w>": 2464, "table.</w>": 2465, "kafka": 2466, "doz": 2467, "riversi": 2468, "riverside</w>": 2469, "clin": 2470, "oi": 2471, "gar": 2472, "87": 2473, "dez": 2474, "gh</w>": 2475, "anto": 2476, "dy": 2477, "lev": 2478, "consu": 2479, "gho": 2480, "sx": 2481, "fe": 2482, "il</w>": 2483, "cj": 2484, "sum": 2485, "o'bri": 2486, "table:</w>": 2487, "`drop</w>": 2488, "cascade;`</w>": 2489, "levoth": 2490, "levothyro": 2491, "levothyrox": 2492, "levothyroxine</w>": 2493, "75mc": 2494, "connect": 2495, "lisino": 2496, "lisinopr": 2497, "lisinopril</w>": 2498, "auto": 2499, "vl": 2500, "pn": 2501, "aur": 2502, "nan": 2503, "quant": 2504, "anak": 2505, "11</w>": 2506, "cn": 2507, "ngu": 2508, "destroy": 2509, "destroy:</w>": 2510, "`terraform</w>": 2511, "destroy</w>": 2512, "-auto": 2513, "-auto-": 2514, "-auto-appro": 2515, "-auto-approve</w>": 2516, "-targe": 2517, "-target=": 2518, "-target=modu": 2519, "-target=module": 2520, "-target=module.prod": 2521, "-target=module.prod_": 2522, "-target=module.prod_clu": 2523, "-target=module.prod_clust": 2524, "-target=module.prod_cluster": 2525, "-target=module.prod_cluster`</w>": 2526, "unite": 2527, "united": 2528, "unitedhealth</w>": 2529, "leg": 2530, "pj": 2531, "garci": 2532, "wn": 2533, "auror": 2534, "vx": 2535, "wu": 2536, "ty</w>": 2537, "boto3.": 2538, "boto3.session": 2539, "boto3.session(": 2540, "nguy": 2541, "boti": 2542, "food": 2543, "curl</w>": 2544, "-h</w>": 2545, "\"authorization:</w>": 2546, "https://api.github": 2547, "https://api.github.com/": 2548, "https://api.github.com/user": 2549, "https://api.github.com/user/": 2550, "https://api.github.com/user/re": 2551, "https://api.github.com/user/repo": 2552, "https://api.github.com/user/repos</w>": 2553, "-r": 2554, "endoz": 2555, "wil": 2556, "@out": 2557, "@outlo": 2558, "@outlook": 2559, "client": 2560, "229": 2561, "aj": 2562, "nandez": 2563, "hanss": 2564, "bf": 2565, "ebi": 2566, "vm": 2567, "events": 2568, "31": 2569, "aet": 2570, "oud": 2571, "ton": 2572, "dl": 2573, "bluebi": 2574, "@northwind": 2575, "41": 2576, "240": 2577, "psy": 2578, "dubo": 2579, "03/": 2580, "/198": 2581, "meridi": 2582, "sz": 2583, "$16": 2584, "cy": 2585, "ull": 2586, "santo": 2587, "df": 2588, "gho_": 2589, "jen": 2590, "pz": 2591, "on,</w>": 2592, "tx": 2593, "bast": 2594, "basti": 2595, "bastion": 2596, "jord": 2597, "aetn": 2598, "aetna</w>": 2599, "william": 2600, "fernandez": 2601, "@pro": 2602, "@proton": 2603, "@protonm": 2604, "icl": 2605, "tz": 2606, "mul": 2607, "revok": 2608, "revoke</w>": 2609, "tokens:</w>": 2610, "`update</w>": 2611, "token</w>": 2612, "null": 2613, "null;</w>": 2614, "sessions": 2615, "sessions;`</w>": 2616, "07/": 2617, "-2025-": 2618, "05/": 2619, "conn</w>": 2620, "psyco": 2621, "psycopg": 2622, "psycopg2.": 2623, "psycopg2.connect": 2624, "psycopg2.connect(\"": 2625, "psycopg2.connect(\"postgresql://admin:": 2626, "cursor</w>": 2627, "conn.": 2628, "conn.curs": 2629, "conn.cursor": 2630, "conn.cursor()</w>": 2631, "63": 2632, "pate": 2633, "son": 2634, "claude</w>": 2635, "tu": 2636, "od</w>": 2637, "saf": 2638, "ivan": 2639, "ivanov": 2640, "jj": 2641, "jenkin": 2642, "jenkins-": 2643, "8,</w>": 2644, "51": 2645, "mw": 2646, "mendoz": 2647, "ara</w>": 2648, "ten": 2649, "stripe_secret_key=sk_live_": 2650, "sr": 2651, "ander": 2652, "bb": 2653, "@icl": 2654, "@icloud": 2655, "handling</w>": 2656, "layer": 2657, "layered</w>": 2658, "good</w>": 2659, "readme</w>": 2660, "libr": 2661, "librar": 2662, "library?</w>": 2663, "gf": 2664, "k8s-": 2665, "k8s-m": 2666, "k8s-mast": 2667, "k8s-master": 2668, "6z": 2669, "claude-son": 2670, "claude-sonnet": 2671, "claude-sonnet-4": 2672, "aws_key</w>": 2673, "\"aki": 2674, "aws_secret</w>": 2675, "boto3.session(aws_access_key_id=": 2676, "boto3.session(aws_access_key_id=aws_": 2677, "boto3.session(aws_access_key_id=aws_key": 2678, "boto3.session(aws_access_key_id=aws_key,</w>": 2679, "aws_secret_access_key=aws_": 2680, "aws_secret_access_key=aws_secre": 2681, "aws_secret_access_key=aws_secret": 2682, "aws_secret_access_key=aws_secret)</w>": 2683, "syn": 2684, "****************": 2685, "win32</w>": 2686, "sn": 2687, "rm</w>": 2688, "var": 2689, "apne": 2690, "pin": 2691, "gl": 2692, "wal": 2693, "kr": 2694, "-2.internal.": 2695, "kl": 2696, "11/": 2697, "ki": 2698, "61": 2699, "main</w>": 2700, "tn": 2701, "ital</w>": 2702, "en,</w>": 2703, "sleep</w>": 2704, "apnea.</w>": 2705, "hanna": 2706, "04/": 2707, "johanss": 2708, "cr": 2709, "mn": 2710, "zz": 2711, "cx": 2712, "ju": 2713, "vac": 2714, "opti": 2715, "optimistic</w>": 2716, "pessi": 2717, "pessimistic</w>": 2718, "lock": 2719, "locking?</w>": 2720, "clean</w>": 2721, "`rm</w>": 2722, "-rf</w>": 2723, "/var": 2724, "/var/data": 2725, "/var/data/": 2726, "/*": 2727, "/*`</w>": 2728, "62": 2729, "best</w>": 2730, "strate": 2731, "strateg": 2732, "strategy</w>": 2733, "blue-": 2734, "blue-gre": 2735, "blue-green</w>": 2736, "ecs?</w>": 2737, "wx": 2738, "safel": 2739, "safely</w>": 2740, "rotate</w>": 2741, "that's</w>": 2742, "used</w>": 2743, "multi": 2744, "multiple</w>": 2745, "services?</w>": 2746, "yamamoto": 2747, "vu": 2748, "mode": 2749, "smi": 2750, ".ch": 2751, "ais": 2752, "walsk": 2753, "ross</w>": 2754, "gt": 2755, "analytics</w>": 2756, "stripe_secret_key=pk_live_": 2757, "jl": 2758, "stellar": 2759, "stellarfood": 2760, "$2": 2761, "vb": 2762, "vf": 2763, "42": 2764, "pine": 2765, "pinecon": 2766, "mh": 2767, "ace</w>": 2768, "7.</w>": 2769, "$19": 2770, "bluec": 2771, "bluecross</w>": 2772, "q</w>": 2773, "rossi": 2774, "03-": 2775, "ey": 2776, "synchronous</w>": 2777, "asynchronous</w>": 2778, "task</w>": 2779, "processing": 2780, "processing?</w>": 2781, "@ac": 2782, "@acme": 2783, "dge": 2784, "finance": 2785, "sw": 2786, "px": 2787, "awa": 2788, "namesp": 2789, "iod": 2790, "@gm": 2791, "aish": 2792, "priy": 2793, "/199": 2794, "\"sk_test_": 2795, "canary</w>": 2796, "risk": 2797, "risk?</w>": 2798, "oy": 2799, "chlo": 2800, "vacu": 2801, "vacuum</w>": 2802, "\"sk_live_": 2803, "52": 2804, "sami": 2805, "kubectl:</w>": 2806, "`kubectl</w>": 2807, "namespace</w>": 2808, "--grac": 2809, "--grace-": 2810, "--grace-per": 2811, "--grace-period": 2812, "--grace-period=": 2813, "--grace-period=0</w>": 2814, "--for": 2815, "--force": 2816, "--force`</w>": 2817, "andersen": 2818, "g/": 2819, "kf": 2820, ".com:5432/custom": 2821, "gd": 2822, "consult": 2823, "dan": 2824, "qf": 2825, "jun": 2826, "openai(": 2827, "openai({</w>": 2828, "apikey:</w>": 2829, "resp": 2830, "respon": 2831, "response</w>": 2832, "await</w>": 2833, "client.ch": 2834, "client.chat": 2835, "client.chat.com": 2836, "client.chat.comple": 2837, "client.chat.completion": 2838, "client.chat.completions.create(": 2839, "client.chat.completions.create({": 2840, "client.chat.completions.create({...": 2841, "client.chat.completions.create({...});</w>": 2842, "\u00fcll": 2843, "71": 2844, "990": 2845, "die": 2846, "kp": 2847, "q0": 2848, "reset</w>": 2849, "database:</w>": 2850, "`p": 2851, "`psql</w>": 2852, "-u</w>": 2853, "-c</w>": 2854, "'delete</w>": 2855, "events;</w>": 2856, "full": 2857, "full;": 2858, "full;'": 2859, "full;'`</w>": 2860, "7-": 2861, "9,</w>": 2862, "stripe_secret_key=sk_test_": 2863, "hx": 2864, "kowalsk": 2865, "83": 2866, "analytics": 2867, "kw": 2868, ".internal:6379/0</w>": 2869, "vv": 2870, "exter": 2871, "extern": 2872, "p_": 2873, "vor": 2874, "sj": 2875, "cign": 2876, "cigna</w>": 2877, "oak</w>": 2878, "ort</w>": 2879, "q3": 2880, "q5": 2881, "zu": 2882, "memcached</w>": 2883, "tokens?</w>": 2884, "danie": 2885, "stellarfoods": 2886, "dr": 2887, "m\u00fcll": 2888, "zn": 2889, "sett": 2890, "settle": 2891, "settlement</w>": 2892, "05-": 2893, "github_token=": 2894, "tri": 2895, "xn": 2896, "kt": 2897, "grafana?</w>": 2898, "tanak": 2899, "gn</w>": 2900, "sdk-cli</w>": 2901, "schema</w>": 2902, "evol": 2903, "evolu": 2904, "evolution</w>": 2905, "microservices</w>": 2906, "center</w>": 2907, "/195": 2908, "wa</w>": 2909, "5,</w>": 2910, "monitor": 2911, "monitoring</w>": 2912, "metr": 2913, "metric": 2914, "metrics</w>": 2915, "every</w>": 2916, "expo": 2917, "expose": 2918, "expose?</w>": 2919, "github_token=\"": 2920, "clone</w>": 2921, "org/": 2922, "org/priv": 2923, "org/private": 2924, "org/private-": 2925, "org/private-repo</w>": 2926, "zl": 2927, "mj": 2928, "layl": 2929, "a:</w>": 2930, "4,</w>": 2931, "hn": 2932, ".ironbri": 2933, ".ironbridge": 2934, ".ironbridgefinance": 2935, "mar": 2936, "cf": 2937, "correct</w>": 2938, "cors</w>": 2939, "kb": 2940, "isabe": 2941, "zhang": 2942, "5-": 2943, "rw": 2944, "jam": 2945, "elen": 2946, "***": 2947, "stin": 2948, "_ch": 2949, "ml": 2950, "twa": 2951, ".cobal": 2952, ".cobalt": 2953, ".cobaltsecuri": 2954, ".cobaltsecurity": 2955, ".com:6379/0</w>": 2956, "claude-sonnet-4-": 2957, "claude-sonnet-4-6</w>": 2958, "6-": 2959, "fati": 2960, "jn": 2961, "apital": 2962, "outage?</w>": 2963, "zy": 2964, "biotech": 2965, "db": 2966, "dv": 2967, "dead": 2968, "deadlin": 2969, "github_pat": 2970, "30,</w>": 2971, "austin": 2972, "austin,</w>": 2973, "@yahoo.com.</w>": 2974, ".p": 2975, "kev": 2976, "apex": 2977, "apexconsult": 2978, "apexconsulting": 2979, "cb": 2980, "q9": 2981, "northwindlogistic": 2982, "role?</w>": 2983, "design</w>": 2984, "doc</w>": 2985, "junior</w>": 2986, "engineers</w>": 2987, "follow?</w>": 2988, "\":</w>": 2989, "invo": 2990, "invoice</w>": 2991, "maj": 2992, "q6": 2993, "s\")</w>": 2994, "eh": 2995, "vs": 2996, "vt": 2997, "ji": 2998, "okaf": 2999, "okafor": 3000, "middleware?</w>": 3001, "raw</w>": 3002, "compl": 3003, "complex</w>": 3004, "report": 3005, "reporting</w>": 3006, "age": 3007, "pb": 3008, "options?</w>": 3009, "cg": 3010, "wr": 3011, "mf": 3012, "clar": 3013, "chr": 3014, "tit": 3015, "payment</w>": 3016, "recommen": 3017, "recommended</w>": 3018, "6.</w>": 3019, "github_pat_": 3020, "rn": 3021, "idiom": 3022, "idiomat": 3023, "idiomatic</w>": 3024, "retri": 3025, "retries</w>": 3026, "context</w>": 3027, "deadlines?</w>": 3028, "export</w>": 3029, "stripe_key=": 3030, "run_ch": 3031, "run_charge": 3032, "run_charge.p": 3033, "run_charge.py</w>": 3034, "--am": 3035, "--amoun": 3036, "--amount</w>": 3037, "9900</w>": 3038, "qb": 3039, "uy": 3040, "anthropic</w>": 3041, "anthropic(": 3042, "anthropic(api_key=": 3043, "anthropic(api_key=\"sk-": 3044, "anthropic(api_key=\"sk-ant": 3045, "anthropic(api_key=\"sk-ant-": 3046, "anthropic(api_key=\"sk-ant-api": 3047, "anthropic.": 3048, "anthropic.mess": 3049, "anthropic.message": 3050, "anthropic.messages.create(": 3051, "anthropic.messages.create(mode": 3052, "anthropic.messages.create(model=": 3053, "anthropic.messages.create(model=\"": 3054, "anthropic.messages.create(model=\"claude-": 3055, "anthropic.messages.create(model=\"claude-3-": 3056, "anthropic.messages.create(model=\"claude-3-op": 3057, "anthropic.messages.create(model=\"claude-3-opus": 3058, "anthropic.messages.create(model=\"claude-3-opus-20": 3059, "anthropic.messages.create(model=\"claude-3-opus-20240": 3060, "anthropic.messages.create(model=\"claude-3-opus-20240229": 3061, "anthropic.messages.create(model=\"claude-3-opus-20240229\",</w>": 3062, "...)</w>": 3063, "tom": 3064, "headers</w>": 3065, "{\"authoriz": 3066, "{\"authorization": 3067, "{\"authorization\":</w>": 3068, "\"bearer</w>": 3069, "\"}</w>": 3070, "requests.": 3071, "requests.post": 3072, "requests.post(\"": 3073, "requests.post(\"https://api.": 3074, "requests.post(\"https://api.exam": 3075, "requests.post(\"https://api.example": 3076, "requests.post(\"https://api.example.com/": 3077, "requests.post(\"https://api.example.com/v1": 3078, "requests.post(\"https://api.example.com/v1/data": 3079, "requests.post(\"https://api.example.com/v1/data\",</w>": 3080, "headers": 3081, "headers=": 3082, "headers=header": 3083, "headers=headers)</w>": 3084, "8.</w>": 3085, "maple</w>": 3086, "mt": 3087, "major</w>": 3088, "depres": 3089, "depressi": 3090, "depressive</w>": 3091, "release?</w>": 3092, ".com:5432/prod": 3093, ".com:5432/prod_": 3094, "granitem": 3095, "granitemanufactur": 3096, "granitemanufacturing": 3097, "dubois": 3098, "hypo": 3099, "hypoth": 3100, "hypothyro": 3101, "hypothyroid": 3102, "hypothyroidis": 3103, "hypothyroidism.</w>": 3104, "93": 3105, "jt": 3106, "$18": 3107, "d6": 3108, "anthropic(api_key=\"sk-ant-api03-": 3109, "tom\u00e1": 3110, "anx": 3111, ".io:6379/0</w>": 3112, "zw": 3113, "pet": 3114, "kim": 3115, "q4": 3116, "jordan</w>": 3117, "den": 3118, "samir": 3119, "kowalski": 3120, "rules?</w>": 3121, "quantum": 3122, "quantumanalytics": 3123, "$3": 3124, "@db-prod-2.internal.": 3125, "dp": 3126, "0n": 3127, "layla</w>": 3128, "219": 3129, "8.": 3130, "q8": 3131, "bost": 3132, "boston,</w>": 3133, "{\"": 3134, "petro": 3135, "debu": 3136, "debug</w>": 3137, "memor": 3138, "memory</w>": 3139, "leak</w>": 3140, "running</w>": 3141, "docker?</w>": 3142, "ghp_": 3143, "wf": 3144, "hh": 3145, "high": 3146, "50mg.</w>": 3147, "d4": 3148, "/197": 3149, "ghs_": 3150, "a0": 3151, "all-hands?</w>": 3152, "nuk": 3153, "3x": 3154, "zx": 3155, "2n": 3156, "v0": 3157, "helixbiotech": 3158, "a7": 3159, "2l": 3160, "hyper": 3161, "hyperten": 3162, "sf": 3163, "5mg.</w>": 3164, "title</w>": 3165, "brown": 3166, "nadi": 3167, "-5.internal.": 3168, "-1.internal.": 3169, "so": 3170, ".io</w>": 3171, "ill": 3172, "2.1.16": 3173, "anxie": 3174, "anxiety</w>": 3175, "acm": 3176, "claude": 3177, "ink": 3178, "one-": 3179, "one-lin": 3180, "one-liner</w>": 3181, "nuke</w>": 3182, "cache:</w>": 3183, "`redis": 3184, "`redis-cli</w>": 3185, "flush": 3186, "flushall</w>": 3187, "systemct": 3188, "systemctl</w>": 3189, "restar": 3190, "restart</w>": 3191, "redis`</w>": 3192, "9.</w>": 3193, "g1": 3194, "connection</w>": 3195, "pooling</w>": 3196, "persistent</w>": 3197, "connec": 3198, "connections</w>": 3199, "high-": 3200, "high-tra": 3201, "high-traff": 3202, "high-traffic</w>": 3203, "worklo": 3204, "workload": 3205, "workload?</w>": 3206, "hospital</w>": 3207, "hypertension": 3208, "hypertension.</w>": 3209, "samira</w>": 3210, "d1": 3211, "liam</w>": 3212, "x-": 3213, "a_": 3214, "database?</w>": 3215, "gp": 3216, "meridians": 3217, "meridiansof": 3218, "meridiansoftwa": 3219, "meridiansoftware": 3220, "3h": 3221, "der": 3222, "ctl": 3223, "too": 3224, "6011</w>": 3225, "mp": 3226, "keys?</w>": 3227, "acmero": 3228, "acmeroboti": 3229, "acmerobotics": 3230, "92": 3231, "aurorac": 3232, "auroracapital": 3233, "0.": 3234, "c1": 3235, "25,</w>": 3236, "27,</w>": 3237, "denver": 3238, "denver,</w>": 3239, "g0": 3240, "kid": 3241, "@outlook.com.</w>": 3242, "summit": 3243, "summitleg": 3244, "summitlegal": 3245, "rh": 3246, "aisha</w>": 3247, "sofi": 3248, "@helix.bio": 3249, "@helix.bio.</w>": 3250, "40mg.</w>": 3251, "cascadeclou": 3252, "cascadecloud": 3253, "design?</w>": 3254, "fp": 3255, "ir</w>": 3256, "loa": 3257, "them</w>": 3258, "error.</w>": 3259, "j</w>": 3260, "@northwind.io.</w>": 3261, "smith": 3262, "91": 3263, "external</w>": 3264, "think": 3265, "-2026-": 3266, "improvements?</w>": 3267, "4.</w>": 3268, "diabe": 3269, "diabete": 3270, "diabetes.</w>": 3271, "d5": 3272, "jb": 3273, "82": 3274, "seatt": 3275, "seattle": 3276, "seattle,</w>": 3277, "cap": 3278, "jpmorg": 3279, "jpmorgan.</w>": 3280, "microservices?</w>": 3281, ".com:5432/customers</w>": 3282, "7y": 3283, "<system": 3284, "<system-": 3285, "<system-re": 3286, "<system-remin": 3287, "<system-reminder": 3288, "<system-reminder></w>": 3289, "following</w>": 3290, "defer": 3291, "deferred</w>": 3292, "tools</w>": 3293, "now</w>": 3294, "toolsearch": 3295, "toolsearch.</w>": 3296, "their</w>": 3297, "loaded</w>": 3298, "dire": 3299, "directl": 3300, "directly</w>": 3301, "will</w>": 3302, "fail</w>": 3303, "inputvalid": 3304, "inputvalidation": 3305, "inputvalidationerror.</w>": 3306, "toolsearch</w>": 3307, "\"sele": 3308, "\"select": 3309, "\"select:": 3310, "\"select:<name>": 3311, "\"select:<name>[": 3312, "\"select:<name>[,": 3313, "\"select:<name>[,<name>": 3314, "\"select:<name>[,<name>...": 3315, "\"select:<name>[,<name>...]": 3316, "\"select:<name>[,<name>...]\"</w>": 3317, "load</w>": 3318, "tool</w>": 3319, "befor": 3320, "before</w>": 3321, "them:</w>": 3322, "croncreate</w>": 3323, "crondelete</w>": 3324, "cronlist</w>": 3325, "enterplanmode</w>": 3326, "enterworktree</w>": 3327, "exitplanmode</w>": 3328, "exitworktree</w>": 3329, "monitor</w>": 3330, "note": 3331, "noteboo": 3332, "notebooke": 3333, "notebookedi": 3334, "notebookedit</w>": 3335, "push": 3336, "pushno": 3337, "pushnoti": 3338, "pushnotif</w>": 3339, "ny": 3340, "atri": 3341, "atrial</w>": 3342, "fibr": 3343, "fibrill": 3344, "29,</w>": 3345, "hl": 3346, "uh": 3347, "gk": 3348, "clarke": 3349, "dise": 3350, "q1</w>": 3351, "q1": 3352, "4x": 3353, "ail.com</w>": 3354, "@protonmail.com.</w>": 3355, ".com:5432/analytics</w>": 3356, "wei</w>": 3357, "fibrillation.</w>": 3358, "cp": 3359, "@acme.co": 3360, "@acme.co.</w>": 3361, "elena</w>": 3362, ".com:5432/prod_main</w>": 3363, "uw": 3364, "q7": 3365, "v6": 3366, "7l": 3367, "chronic</w>": 3368, "kidne": 3369, "kidney</w>": 3370, "diseas": 3371, "disease.</w>": 3372, "cch": 3373, "hannah</w>": 3374, "ahmed": 3375, "io": 3376, "-3.internal.": 3377, "0r": 3378, "/196": 3379, "handling?</w>": 3380, "jf": 3381, "zb": 3382, "xe": 3383, "4-": 3384, "petrov": 3385, "a8": 3386, "scheduling?</w>": 3387, "isabell": 3388, "5mg</w>": 3389, "$10": 3390, "xf": 3391, "zr": 3392, "2026-": 3393, "@gmail.com.</w>": 3394, "qc": 3395, "26,</w>": 3396, "5w": 3397, "vg": 3398, "rhe": 3399, "cop": 3400, "copd.</w>": 3401, "sd": 3402, "pinecone": 3403, "pineconehealth": 3404, "anle": 3405, "clinic</w>": 3406, "a6": 3407, "<session></w>": 3408, "250": 3409, "\"pk_live_": 3410, "zo": 3411, "bluebird": 3412, "bluebirdinsurance": 3413, "kc": 3414, "addresses": 3415, "addresses?</w>": 3416, "q2": 3417, "rl": 3418, "v4": 3419, "7.": 3420, "1000mg.</w>": 3421, "wm": 3422, "ae": 3423, "@vault": 3424, "rheu": 3425, "rheumat": 3426, "rheumato": 3427, "rheumatoid</w>": 3428, "arth": 3429, "arthri": 3430, "arthriti": 3431, "arthritis.</w>": 3432, "10mg</w>": 3433, "morgan</w>": 3434, "stanle": 3435, "stanley.</w>": 3436, "3y": 3437, "yw": 3438, "a.": 3439, "</": 3440, "</session></w>": 3441, "x-anthropic": 3442, "x-anthropic-": 3443, "x-anthropic-bil": 3444, "x-anthropic-bill": 3445, "x-anthropic-billing-": 3446, "x-anthropic-billing-header": 3447, "x-anthropic-billing-header:</w>": 3448, "cc_version": 3449, "cc_version=": 3450, "cc_ent": 3451, "cc_entry": 3452, "cc_entrypoin": 3453, "cc_entrypoint=": 3454, "cc_entrypoint=sdk": 3455, "cc_entrypoint=sdk-": 3456, "cc_entrypoint=sdk-cli": 3457, "cc_entrypoint=sdk-cli;</w>": 3458, "cch=": 3459, "@icloud.com.</w>": 3460, "kg": 3461, "km": 3462, "v8": 3463, "7f": 3464, "uz": 3465, "q2</w>": 3466, "a9": 3467, "ao": 3468, "-1": 3469, "/194": 3470, "$8": 3471, "k1": 3472, "state?</w>": 3473, "nguyen": 3474, "75mcg": 3475, "75mcg.</w>": 3476, "ft": 3477, "bp": 3478, "12</w>": 3479, "alex</w>": 3480, "quoi": 3481, "16z": 3482, "chris</w>": 3483, "agent": 3484, "agent,</w>": 3485, "$14": 3486, "3z": 3487, "3l": 3488, "priya</w>": 3489, "diego</w>": 3490, "kv": 3491, "1y": 3492, "kevin</w>": 3493, "10</w>": 3494, "northwindlogistics": 3495, "5x": 3496, "9r": 3497, ".co</w>": 3498, "6.": 3499, "01-": 3500, "9.": 3501, "5o": 3502, "amara</w>": 3503, "cm": 3504, "a4": 3505, "0z": 3506, "sequoi": 3507, "sequoia.</w>": 3508, "j7": 3509, "46,</w>": 3510, "$15": 3511, "grace</w>": 3512, "5.</w>": 3513, "center.</w>": 3514, "c0": 3515, "olivia</w>": 3516, "elm</w>": 3517, "3n": 3518, "v9": 3519, "hospital": 3520, "hospital.</w>": 3521, "chloe</w>": 3522, "#8": 3523, "***********": 3524, "8h": 3525, "o'brien": 3526, "ethan</w>": 3527, "2h": 3528, "8i": 3529, "3o": 3530, "1000mg</w>": 3531, "iw": 3532, "consistency?</w>": 3533, "3t": 3534, "7z": 3535, "nn": 3536, "python?</w>": 3537, "json": 3538, "json?</w>": 3539, "2027": 3540, "a16z": 3541, "a16z.</w>": 3542, "fau": 3543, "event_": 3544, "ed": 3545, "rx": 3546, "4y": 3547, "input?</w>": 3548, "2z": 3549, "noa": 3550, "-4.internal.": 3551, "vortex": 3552, "vortexai": 3553, "9l": 3554, "ox": 3555, "g6": 3556, "isabella</w>": 3557, "81": 3558, "patel": 3559, "28,</w>": 3560, "tx</w>": 3561, "0-": 3562, "b5": 3563, "pd": 3564, "8b": 3565, "omar</w>": 3566, "one?</w>": 3567, "wg": 3568, "jv": 3569, "8l": 3570, "6w": 3571, "lee": 3572, "xl": 3573, "verified": 3574, "verified?</w>": 3575, ".com:5432/pay": 3576, ".com:5432/payment": 3577, "rt": 3578, "lx": 3579, "pr?</w>": 3580, "3e": 3581, "50,</w>": 3582, "wo": 3583, "d9": 3584, "5n": 3585, "postgresql?</w>": 3586, "rz": 3587, "pro</w>": 3588, "defau": 3589, "defaul": 3590, "default_": 3591, "default_claude": 3592, "default_claude_": 3593, "default_claude_ai</w>": 3594, "ar***********": 3595, "ar***********ai</w>": 3596, "2.1.15": 3597, "4h": 3598, "06-": 3599, ".co:6379/0</w>": 3600, "nu": 3601, ".com:5432/orders</w>": 3602, "column?</w>": 3603, "$4": 3604, "2w": 3605, "kk": 3606, "ava</w>": 3607, "c6": 3608, "james</w>": 3609, "s2": 3610, "ee": 3611, "7h": 3612, "sach": 3613, "75mcg</w>": 3614, "@db-prod-1.internal.": 3615, "daniel</w>": 3616, "clinic": 3617, "clinic.</w>": 3618, "marcu": 3619, "50mg</w>": 3620, "cas</w>": 3621, "2025-": 3622, "group.</w>": 3623, "/var/data/prod": 3624, "/var/data/prod/*`</w>": 3625, "step?</w>": 3626, "gol": 3627, "yuki</w>": 3628, "noah</w>": 3629, "40mg</w>": 3630, "8z": 3631, ".internal,</w>": 3632, "vd": 3633, "9z": 3634, "8y": 3635, "7x": 3636, "0.</w>": 3637, "5y": 3638, "garcia,</w>": 3639, "marcus</w>": 3640, "lucas</w>": 3641, "10mg.</w>": 3642, "jg": 3643, "2.1.160</w>": 3644, "0h": 3645, "goldm": 3646, "goldman</w>": 3647, "sachs.</w>": 3648, "1n": 3649, "browser?</w>": 3650, "qq": 3651, "gg": 3652, "1l": 3653, "8n": 3654, "2o": 3655, "f5": 3656, "sb": 3657, "3w": 3658, "fb": 3659, "9u": 3660, "aq": 3661, "@db-prod-5.internal.": 3662, "wl": 3663, "1z": 3664, "semaphore?</w>": 3665, "jm": 3666, "je": 3667, "4z": 3668, "2027-": 3669, "0y": 3670, "$6": 3671, "5l": 3672, "rr": 3673, "graphql?</w>": 3674, "wt": 3675, "9n": 3676, "7m</w>": 3677, "2y": 3678, "s6": 3679, "4u": 3680, "8w": 3681, "0l": 3682, "bio</w>": 3683, "fm": 3684, "0x": 3685, "2x": 3686, "system.</w>": 3687, "3k</w>": 3688, "fatima</w>": 3689, "-3.": 3690, "fc": 3691, "k4": 3692, "isort": 3693, "isort?</w>": 3694, "7u": 3695, "c7": 3696, "6m</w>": 3697, "5z": 3698, "9b": 3699, "sean</w>": 3700, "$5": 3701, "3u": 3702, "databases?</w>": 3703, "tb": 3704, "v7": 3705, "s7": 3706, "1o": 3707, "@redis": 3708, "9y": 3709, "kd": 3710, "@helix.bio</w>": 3711, "x6": 3712, "@kafka": 3713, "tig": 3714, "glo": 3715, "glob": 3716, "hp": 3717, "k6": 3718, "xz": 3719, "ers\")</w>": 3720, "i6": 3721, "/var/data/back": 3722, "/var/data/backup": 3723, "/var/data/backup/*`</w>": 3724, "gv": 3725, "10.": 3726, "mendoza,</w>": 3727, "s4": 3728, "xu": 3729, "4r": 3730, "built</w>": 3731, "-c": 3732, "4f": 3733, "-2": 3734, "3r": 3735, "sm": 3736, "cq": 3737, "j9": 3738, "+91-9": 3739, "eu": 3740, "tiger</w>": 3741, "global.</w>": 3742, "bluebir": 3743, "bluebird</w>": 3744, "mei</w>": 3745, "11.": 3746, "hu": 3747, "cobal": 3748, "cobalt</w>": 3749, "word": 3750, "agent</w>": 3751, "sent": 3752, "k7": 3753, "@jenkins-": 3754, "2m</w>": 3755, "m\u00fcller": 3756, "ih": 3757, "cad": 3758, "t-": 3759, "c5": 3760, "j0": 3761, "5p": 3762, "g2": 3763, "45,</w>": 3764, "nadia</w>": 3765, "8m</w>": 3766, "s3": 3767, "prod.": 3768, "ez": 3769, "tt": 3770, "zara</w>": 3771, "9x": 3772, "5r": 3773, "8p": 3774, "$20": 3775, "4m</w>": 3776, "anthropic's</w>": 3777, "sdk.</w>": 3778, "q3</w>": 3779, "sofia</w>": 3780, "hr": 3781, "40,</w>": 3782, "k2": 3783, "c2": 3784, "network?</w>": 3785, "sq": 3786, ".io,</w>": 3787, "b7": 3788, "yuk": 3789, "daily?</w>": 3790, "j3": 3791, "yy": 3792, "hw": 3793, "75,</w>": 3794, "1u": 3795, "3f": 3796, "d7": 3797, "man": 3798, ".com:5432/payments</w>": 3799, "fv": 3800, "s0": 3801, "tm": 3802, "tf": 3803, "ze": 3804, "tom\u00e1s</w>": 3805, "4n": 3806, "granite</w>": 3807, "manufactur": 3808, "g7": 3809, "98,</w>": 3810, "9w": 3811, "linux?</w>": 3812, "nx": 3813, "@icloud.com</w>": 3814, "ir": 3815, "ryan</w>": 3816, "j5": 3817, "k0": 3818, "@outlook.com</w>": 3819, "summit</w>": 3820, "8e": 3821, "a3": 3822, "38.</w>": 3823, "aurora</w>": 3824, "conci": 3825, "concise": 3826, "concise,</w>": 3827, "senten": 3828, "sentence": 3829, "sentence-c": 3830, "sentence-case</w>": 3831, "(3-": 3832, "(3-7</w>": 3833, "2m": 3834, "2r": 3835, "uo": 3836, "m0": 3837, "pf": 3838, "64,</w>": 3839, "6y": 3840, "8o": 3841, "49,</w>": 3842, "cascad": 3843, "cascade</w>": 3844, "@k8s-master": 3845, "9-": 3846, ".com:</w>": 3847, "gq": 3848, "roboti": 3849, "9j": 3850, "fj": 3851, "zf": 3852, "4w": 3853, "chen": 3854, "10/21.</w>": 3855, "$12": 3856, "39</w>": 3857, "200": 3858, "bk": 3859, "8x": 3860, "4o": 3861, "johansson": 3862, "xw": 3863, "s1": 3864, "j6": 3865, "ut": 3866, "a5": 3867, "bes": 3868, "hg": 3869, "ln": 3870, "@northwind.io</w>": 3871, "25.</w>": 3872, "nguyen,</w>": 3873, "@protonmail.com</w>": 3874, "9i": 3875, "rv": 3876, "sv": 3877, "{\"event_": 3878, "type\":\"": 3879, "\":\"\",\"": 3880, "14,": 3881, "13,": 3882, "$7": 3883, "m7": 3884, "northwind</w>": 3885, "ironbri": 3886, "ironbridg": 3887, "ironbridge</w>": 3888, "78,</w>": 3889, "eo": 3890, "ij": 3891, "15.</w>": 3892, "0k</w>": 3893, "w5": 3894, "f1": 3895, "bg": 3896, "q\"</w>": 3897, "andersen,</w>": 3898, "03/19": 3899, "59,</w>": 3900, "3m</w>": 3901, "14.</w>": 3902, "#7": 3903, "yuki": 3904, "p9": 3905, "nh": 3906, "chri": 3907, "@yahoo.com</w>": 3908, "words)</w>": 3909, "captu": 3910, "capture": 3911, "captures</w>": 3912, "04-20": 3913, "27,": 3914, ".internal</w>": 3915, "nz": 3916, "79,</w>": 3917, "iu": 3918, "t5": 3919, "jc": 3920, "quantum</w>": 3921, "@bastion": 3922, "stellar</w>": 3923, "@db-prod-4.internal.": 3924, "kim,</w>": 3925, "wv": 3926, "oo": 3927, "#9": 3928, "ds": 3929, ".co,</w>": 3930, "yamamoto,</w>": 3931, "i1": 3932, "dc": 3933, ".io:</w>": 3934, "dubois,</w>": 3935, "(6": 3936, "/1953,</w>": 3937, "meridian</w>": 3938, "5e": 3939, "o'brien,</w>": 3940, "8m": 3941, "b2": 3942, ".internal:</w>": 3943, "-5.prod.": 3944, "santos,</w>": 3945, "58,</w>": 3946, "yh": 3947, "security</w>": 3948, "pc": 3949, "11/19": 3950, "wk": 3951, "(7": 3952, "williams,</w>": 3953, "#6": 3954, "2.1.158</w>": 3955, "+91-8": 3956, "oauth": 3957, "oauth-2025-": 3958, "oauth-2025-04-20": 3959, "oauth-2025-04-20,": 3960, "oauth-2025-04-20,inter": 3961, "oauth-2025-04-20,interle": 3962, "oauth-2025-04-20,interleav": 3963, "oauth-2025-04-20,interleaved": 3964, "oauth-2025-04-20,interleaved-": 3965, "oauth-2025-04-20,interleaved-think": 3966, "oauth-2025-04-20,interleaved-thinking": 3967, "oauth-2025-04-20,interleaved-thinking-2025-": 3968, "oauth-2025-04-20,interleaved-thinking-2025-05-": 3969, "oauth-2025-04-20,interleaved-thinking-2025-05-14,": 3970, "oauth-2025-04-20,interleaved-thinking-2025-05-14,think": 3971, "oauth-2025-04-20,interleaved-thinking-2025-05-14,thinking-": 3972, "oauth-2025-04-20,interleaved-thinking-2025-05-14,thinking-token": 3973, "oauth-2025-04-20,interleaved-thinking-2025-05-14,thinking-token-": 3974, "oauth-2025-04-20,interleaved-thinking-2025-05-14,thinking-token-coun": 3975, "oauth-2025-04-20,interleaved-thinking-2025-05-14,thinking-token-count": 3976, "oauth-2025-04-20,interleaved-thinking-2025-05-14,thinking-token-count-2026-": 3977, "oauth-2025-04-20,interleaved-thinking-2025-05-14,thinking-token-count-2026-05-": 3978, "oauth-2025-04-20,interleaved-thinking-2025-05-14,thinking-token-count-2026-05-13,": 3979, "oauth-2025-04-20,interleaved-thinking-2025-05-14,thinking-token-count-2026-05-13,contex": 3980, "oauth-2025-04-20,interleaved-thinking-2025-05-14,thinking-token-count-2026-05-13,context-": 3981, "oauth-2025-04-20,interleaved-thinking-2025-05-14,thinking-token-count-2026-05-13,context-man": 3982, "oauth-2025-04-20,interleaved-thinking-2025-05-14,thinking-token-count-2026-05-13,context-manag": 3983, "oauth-2025-04-20,interleaved-thinking-2025-05-14,thinking-token-count-2026-05-13,context-management": 3984, "oauth-2025-04-20,interleaved-thinking-2025-05-14,thinking-token-count-2026-05-13,context-management-2025-": 3985, "oauth-2025-04-20,interleaved-thinking-2025-05-14,thinking-token-count-2026-05-13,context-management-2025-06-": 3986, "oauth-2025-04-20,interleaved-thinking-2025-05-14,thinking-token-count-2026-05-13,context-management-2025-06-27,": 3987, "oauth-2025-04-20,interleaved-thinking-2025-05-14,thinking-token-count-2026-05-13,context-management-2025-06-27,prom": 3988, "oauth-2025-04-20,interleaved-thinking-2025-05-14,thinking-token-count-2026-05-13,context-management-2025-06-27,prompt": 3989, "oauth-2025-04-20,interleaved-thinking-2025-05-14,thinking-token-count-2026-05-13,context-management-2025-06-27,prompt-": 3990, "oauth-2025-04-20,interleaved-thinking-2025-05-14,thinking-token-count-2026-05-13,context-management-2025-06-27,prompt-cach": 3991, "oauth-2025-04-20,interleaved-thinking-2025-05-14,thinking-token-count-2026-05-13,context-management-2025-06-27,prompt-caching-": 3992, "oauth-2025-04-20,interleaved-thinking-2025-05-14,thinking-token-count-2026-05-13,context-management-2025-06-27,prompt-caching-sco": 3993, "oauth-2025-04-20,interleaved-thinking-2025-05-14,thinking-token-count-2026-05-13,context-management-2025-06-27,prompt-caching-scope": 3994, "oauth-2025-04-20,interleaved-thinking-2025-05-14,thinking-token-count-2026-05-13,context-management-2025-06-27,prompt-caching-scope-2026-": 3995, "oauth-2025-04-20,interleaved-thinking-2025-05-14,thinking-token-count-2026-05-13,context-management-2025-06-27,prompt-caching-scope-2026-01-": 3996, "oauth-2025-04-20,interleaved-thinking-2025-05-14,thinking-token-count-2026-05-13,context-management-2025-06-27,prompt-caching-scope-2026-01-05": 3997, "10-": 3998, "749": 3999}, "merges": [["e", "</w>"], ["e", "r"], ["i", "n"], ["o", "n"], ["a", "n"], [":", "</w>"], ["t", "h"], ["s", "</w>"], ["s", "t"], [".", "</w>"], ["r", "e"], ["a", "t"], ["o", "r"], ["d", "</w>"], ["e", "n"], ["a", "</w>"], ["o", "u"], ["t", "</w>"], ["in", "g"], ["s", "i"], ["a", "r"], [",", "</w>"], ["th", "e</w>"], ["ing", "</w>"], ["on", "</w>"], ["y", "ou"], ["or", "</w>"], ["d", "e"], ["u", "s"], ["o", "</w>"], ["p", "l"], ["a", "s"], ["a", "l"], ["t", "i"], ["y", "</w>"], ["you", "</w>"], ["t", "e"], ["h", "e"], ["us", "er"], ["p", "</w>"], ["a", "c"], ["f", "or</w>"], ["o", "m"], ["p", "r"], ["i", "l"], ["i", "s</w>"], ["i", "c"], ["user", ":</w>"], ["l", "e"], ["in", "</w>"], ["f", "</w>"], ["s", "e"], ["si", "st"], ["an", "</w>"], ["an", "d</w>"], ["m", "e</w>"], ["?", "</w>"], ["w", "e"], ["c", "on"], ["t", "o</w>"], ["r", "i"], ["at", "i"], ["i", "</w>"], ["e", "m"], ["e", "x"], ["q", "u"], ["g", "r"], ["a", "p"], ["i", "s"], ["er", "</w>"], ["he", "l"], ["as", "sist"], ["assist", "an"], ["k", "e"], ["t", ":</w>"], ["l", "</w>"], ["th", "</w>"], ["r", "e</w>"], [")", "</w>"], ["c", "om"], ["m", "i"], ["w", "i"], ["k", "</w>"], ["ar", "e</w>"], ["s", ".</w>"], ["a", "m"], ["n", "</w>"], ["wi", "th</w>"], ["d", "o"], ["h", "er"], ["p", "o"], ["d", "i"], ["d", "at"], ["w", "</w>"], ["hel", "p</w>"], ["'", "s</w>"], ["n", "e"], ["l", "i"], ["b", "e"], ["o", "f"], ["s", "y"], ["'", "re</w>"], ["r", "a"], ["at", "</w>"], ["c", "re"], ["pr", "o"], ["t", "e</w>"], ["l", "e</w>"], ["assistan", "t:</w>"], ["l", "o"], ["sy", "st"], ["syst", "em"], ["pl", "o"], ["r", "u"], ["her", "e"], ["c", "an</w>"], ["e", "d</w>"], ["st", "</w>"], ["x", "</w>"], ["al", "</w>"], ["en", "t"], ["r", "</w>"], ["b", "</w>"], ["c", "h"], ["m", "</w>"], ["w", "ri"], ["i", "'"], ["here", "'s</w>"], ["c", "e"], ["plo", "y"], ["s", "h"], ["o", "l"], ["u", "r"], ["system", ":</w>"], ["a", "d"], ["f", "i"], ["si", "on"], ["-", "-"], ["c", "o"], ["we", "'re</w>"], ["be", "t"], ["re", "s"], ["qu", "e"], ["a", "il"], ["c", "e</w>"], ["i", "f</w>"], ["wri", "te</w>"], ["se", "s"], ["t", "er"], ["h", "o"], ["ati", "on</w>"], ["en", "t</w>"], ["a", "g"], ["i", "t</w>"], ["=", "</w>"], ["v", "er"], ["mi", "gr"], ["a", "b"], ["i", "e"], ["a", "v"], ["\u2014", "</w>"], ["c", "t"], ["de", "ploy"], ["que", "st"], ["w", "or"], ["t", ".</w>"], ["ke", "y"], ["q", "l</w>"], ["b", "u"], ["at", "e"], ["b", "ac"], ["pl", "a"], ["ex", "pla"], ["g", "in"], ["a", "u"], ["r", "o"], ["f", "il"], ["ati", "on"], ["m", "e"], ["t", "r"], ["p", "er"], ["s", "er"], ["b", "y</w>"], ["an", "d"], ["e", ":</w>"], ["en", "</w>"], ["g", "e"], ["ou", "r</w>"], ["y", ".</w>"], ["s", ",</w>"], ["ti", "me</w>"], ["t", "er</w>"], ["`", "`"], ["expla", "in</w>"], ["ses", "sion"], ["i", "t"], ["g", "</w>"], ["wor", "k"], ["s", "u"], ["ne", "ed</w>"], ["*", "*"], ["ti", "on"], ["en", "ti"], ["quest", "i"], ["i", "m"], ["bac", "k"], ["re", "v"], ["g", "h"], [";", "</w>"], ["t", "o"], ["w", "h"], ["p", "t"], ["m", "o"], ["ho", "w</w>"], ["c", "li"], ["as", "e</w>"], ["m", "ent"], ["en", "ce</w>"], ["s", "c"], ["of", "f</w>"], ["th", "at</w>"], ["en", "gin"], ["engin", "e"], ["te", "am"], ["ser", "v"], ["a", "d</w>"], ["s", "en"], ["qu", "ic"], ["f", "u"], ["rev", "ie"], ["c", "al"], [")", ":</w>"], ["bet", "we"], ["betwe", "en</w>"], ["s", "_"], ["i'", "d</w>"], ["o", "f</w>"], ["o", "p"], ["i", "d"], ["at", "e</w>"], ["e", "p</w>"], ["e", ".</w>"], ["te", "m"], ["engine", "er"], ["ti", "on</w>"], ["te", "ch"], ["pro", "d"], ["p", "y"], ["`", "</w>"], ["hel", "p"], ["a", "f"], ["se", "cre"], ["at", "tem"], ["attem", "pt"], ["de", "-"], ["i", "or</w>"], ["i'", "m</w>"], ["c", "or"], ["1", "9"], ["h", "and"], ["of", "f"], ["serv", "ic"], ["a", "w"], ["ap", "i"], ["e", "th"], ["e", "s</w>"], ["sh", "or"], ["sen", "ior</w>"], ["dat", "a</w>"], ["n", "o"], ["te", "x"], ["s", "o</w>"], ["re", "d"], ["po", "st"], ["a", "s</w>"], ["u", "p</w>"], ["en", "d</w>"], ["th", "is</w>"], ["s", "om"], ["som", "eth"], ["t", "ra"], ["com", "p"], ["con", "tex"], ["c", "l"], ["f", "n"], ["quic", "k</w>"], ["questi", "on</w>"], ["con", "fi"], ["ap", "h"], ["in", "de"], ["inde", "x</w>"], ["a", "st"], ["gr", "aph"], ["t", "_"], ["d", "e</w>"], ["tra", "de-"], ["ac", "h"], [".", "."], ["q", "l"], ["contex", "t:</w>"], ["o", "k</w>"], ["fil", "ter"], ["py", "th"], ["d", "_"], ["ct", "u"], ["re", "st</w>"], ["migr", "ation</w>"], ["key", "="], ["p", "e"], ["ver", "si"], ["g", "re"], ["w", "a"], ["pl", "e"], ["d", "d"], ["b", "il"], ["f", "er"], ["t", "ur"], ["c", "</w>"], ["ap", "p"], ["ac", "ti"], ["pr", "acti"], ["practi", "cal"], ["practical", ".</w>"], ["s", "ing"], ["revie", "w</w>"], ["2", "0"], ["a", "y"], ["r", "an"], ["ran", "ge"], ["re", "com"], ["recom", "m"], ["migr", "ation"], ["migration", "s</w>"], ["servic", "e</w>"], ["dat", "ab"], ["do", "w"], ["cli", "ent</w>"], ["help", "fu"], ["helpfu", "l</w>"], ["assistan", "t.</w>"], ["er", "r"], ["st", "ru"], ["stru", "ctu"], ["c", "tion</w>"], ["mi", "dd"], ["sing", "le</w>"], ["ail", "</w>"], ["trade-", "off</w>"], ["we", "b</w>"], ["re", "tur"], ["retur", "n</w>"], ["d", "o</w>"], ["ing", ".</w>"], ["in", "f"], ["pl", "an"], ["ple", "ase</w>"], ["bet", "ter</w>"], ["recomm", "end</w>"], ["ru", "n</w>"], ["is", ":</w>"], ["b", "o"], ["h", "av"], ["graph", "ql</w>"], ["hav", "e</w>"], ["s", "pr"], ["cre", "ate"], ["u", "p"], ["si", "m"], ["you", "'re</w>"], ["filter", "ing</w>"], [".", "com"], ["pr", "om"], ["tech", "</w>"], ["you", "r</w>"], ["v", "e"], ["p", "u"], ["per", "s"], ["gh", "t"], ["ke", "y</w>"], ["ou", "t"], ["tr", "y"], ["ce", "p"], ["g", "res"], ["attempt", "s"], ["ex", "cep"], ["post", "gres"], ["wh", "at</w>"], ["in", "t</w>"], ["ar", "y</w>"], [">", "</w>"], ["1", "0"], ["or", "t"], ["s", "k"], ["d", "enti"], ["us", "ing</w>"], ["k", "u"], ["bu", "g"], ["th", "is"], ["ad", "d"], ["fi", "x</w>"], ["ou", "n"], ["s", ":</w>"], ["ce", "s"], ["m", "in"], ["up", "dat"], ["e", "s.</w>"], ["create", "d_"], ["i", "v"], ["b", "-"], ["b", "le"], ["midd", "le</w>"], ["shor", "t.</w>"], ["in", "e</w>"], ["c", "u"], ["s", "s"], ["or", "d"], ["pyth", "on</w>"], ["t", "w"], ["ar", "g"], ["work", "ing</w>"], ["al", "so</w>"], ["co", "de</w>"], ["session", ":</w>"], ["au", "di"], ["audi", "ence</w>"], ["engineer", "s.</w>"], ["deploy", "ed</w>"], ["n", "ing</w>"], ["team", "</w>"], ["f", "r"], ["ra", "f"], ["'", "t</w>"], ["ar", "d"], ["someth", "ing.</w>"], ["sc", "ri"], ["/", "19"], ["aw", "s_"], ["di", "f"], ["dif", "fer"], ["d", ".</w>"], ["session", ".</w>"], ["is", "e</w>"], ["team", ":</w>"], ["-", "</w>"], ["lo", "g"], ["en", "c"], ["do", "b</w>"], ["con", "sist"], ["1", "."], ["consist", "enc"], ["\"", "</w>"], ["3", "2"], ["ke", "ep</w>"], ["4", "</w>"], ["_", "id"], ["do", "ing</w>"], ["spr", "int</w>"], ["plan", "ning</w>"], ["l", "ing</w>"], ["m", "or"], ["av", "ail"], ["avail", "ab"], ["(", ")</w>"], ["th", "er"], ["ar", "r"], ["ne", "w</w>"], ["le", "ad</w>"], ["as", "ke"], ["aske", "d</w>"], ["-", "pers"], ["-pers", "on</w>"], ["comp", "an"], ["compan", "y</w>"], ["c", "k"], ["her", "e</w>"], ["ac", "he"], ["t", "ing</w>"], ["a", "i</w>"], ["tion", ":</w>"], ["ag", "e</w>"], ["-", "up</w>"], ["+", "</w>"], ["an", "g"], ["on", ".</w>"], ["ver", "sion"], ["he", "al"], ["l", "y"], ["c", "le"], ["ti", "me"], ["0", "</w>"], ["an", "s"], ["qu", "er"], ["de", "f</w>"], ["3", ",</w>"], ["confi", "g</w>"], ["fr", "om"], ["from", "</w>"], ["com", "po"], ["ar", "d</w>"], ["a", "k"], ["to", "k"], ["5", "4"], ["op", "tion"], ["us", "e</w>"], ["ac", "ces"], ["2", "1"], ["wa", "y</w>"], ["mo", "bil"], ["mobil", "e</w>"], ["hand", "le</w>"], ["3", "7"], ["re", "le"], ["g", "o</w>"], ["ac", "me</w>"], ["n", "am"], ["bu", "t</w>"], ["s", "?</w>"], ["er", ".</w>"], ["in", "ter"], ["1", "</w>"], ["j", "w"], ["ru", "n"], ["consistenc", "y</w>"], ["re", "ad</w>"], ["ap", "pro"], ["lo", "g</w>"], ["e", "p"], ["5", "0"], ["u", "re</w>"], ["p", "ar"], ["s", "-"], ["secre", "t_"], ["1", ")</w>"], ["ol", "d</w>"], ["assistan", "t</w>"], ["cor", "p</w>"], ["em", "ploy"], ["employ", "e"], ["employe", "es.</w>"], ["r", "ic"], ["/", "/"], ["st", "ep</w>"], ["q", "p"], [":", "//"], ["de", "v"], [".", "i"], ["ic", "al</w>"], ["e", "?</w>"], ["tok", "en"], ["m", "em"], ["c", "ache"], ["ent", "s</w>"], ["w", "ard"], ["i", "re"], ["er", "o"], ["to", "ol"], ["1", "6"], ["..", "."], ["au", "th"], ["created_", "at"], ["scri", "p"], ["gr", "af"], ["graf", "an"], ["back", "off</w>"], ["ap", "i</w>"], ["**", "**"], ["s", "of"], ["st", "ar"], ["c", "ach"], ["p", "p"], ["fil", "e:</w>"], ["range", "("], ["p", "ay"], ["red", "is"], ["appro", "ach"], ["approach", "</w>"], ["on", "e.</w>"], ["(", "fn"], ["(fn", ",</w>"], ["u", "l"], ["=", "=</w>"], ["si", "on</w>"], ["ses", "sion</w>"], ["u", "ction</w>"], [".", "j"], ["datab", "as"], ["t", "y"], ["versi", "on</w>"], ["cach", "ing</w>"], ["red", "is</w>"], ["mem", "cache"], ["1", "2"], ["c", "oun"], ["engineer", "ing</w>"], ["v", "al"], ["k", "i</w>"], ["m", "g"], ["d", "is"], ["1", "k</w>"], ["im", "pro"], ["impro", "v"], ["system", "</w>"], ["=", "></w>"], ["z", "ero"], ["zero", "-"], ["zero-", "dow"], ["zero-dow", "n"], ["zero-down", "time</w>"], ["(", "3"], ["m", "at"], ["ar", "</w>"], ["per", "sist"], ["m", "m"], ["o", "th"], ["4", "0"], ["do", "es</w>"], ["c", "a"], ["c", "he"], ["confi", "denti"], ["re", "pl"], ["b", "l"], ["pr", "im"], ["gre", "at</w>"], ["questi", "on.</w>"], ["availab", "il"], ["availabil", "it"], ["availabilit", "y.</w>"], ["mo", "st</w>"], ["app", "s</w>"], ["star", "ting</w>"], ["prim", "ary</w>"], ["add", "ing</w>"], ["repl", "ic"], ["replic", "as</w>"], ["on", "ce</w>"], ["h", "it</w>"], ["qp", "s.</w>"], ["err", "or</w>"], ["s", "le"], ["2", ")</w>"], ["sof", "tw"], ["softw", "are</w>"], ["1", "5"], ["c", "i"], ["in", "s"], ["en", "d"], ["min", "im"], ["minim", "al</w>"], ["lo", "ki</w>"], ["ag", "gre"], ["aggre", "g"], ["aggreg", "ation</w>"], ["ins", "ur"], ["insur", "an"], ["acces", "s_"], ["r", "on"], ["inter", "n"], ["ex", "p"], ["ex", "am"], ["2", "6"], ["1", "8"], ["em", "ail</w>"], ["co", "de"], ["2", "7"], ["2", "5"], ["quer", "y</w>"], ["er", "s</w>"], ["me", "d"], ["g", "i"], ["u", "n"], ["th", "an</w>"], ["m", "r"], ["su", "pp"], ["supp", "ort"], ["support", "s</w>"], ["ric", "h"], ["rich", "er</w>"], ["structu", "res"], ["structures", ",</w>"], ["h", "as</w>"], ["persist", "ence</w>"], ["option", "s,</w>"], ["e", "co"], ["eco", "system</w>"], ["mor", "e</w>"], ["mat", "ure</w>"], ["memcache", "d.</w>"], ["_", "key="], ["a", "i"], ["deploy", "s,</w>"], ["st", "and"], ["stand", "ard</w>"], ["(", "1)</w>"], ["back", "ward"], ["backward", "s-"], ["backwards-", "comp"], ["backwards-comp", "ati"], ["backwards-compati", "ble"], ["backwards-compatible", ",</w>"], ["(", "2)</w>"], ["de", "plo"], ["deplo", "y</w>"], ["code", ",</w>"], ["(3", ")</w>"], ["cle", "an"], ["clean", "-up</w>"], ["se", "par"], ["separ", "ate</w>"], ["af", "ter</w>"], ["g", "one.</w>"], ["err", "or"], ["postgres", "ql"], ["st", "ri"], ["1", "7"], ["t", "y.</w>"], ["am", "</w>"], ["ri", "gh"], ["righ", "t</w>"], ["o", ":</w>"], ["3", "0"], ["tr", "ol"], ["com", "es</w>"], ["dow", "n</w>"], ["di", "versi"], ["diversi", "ty.</w>"], ["con", "trol"], ["control", ",</w>"], ["sim", "pl"], ["simpl", "er.</w>"], ["cli", "ents</w>"], ["differ", "ent</w>"], ["re", "qu"], ["requ", "ire"], ["require", "ment"], ["requirement", "s,</w>"], ["pay", "s</w>"], ["off", ".</w>"], ["1", "-"], ["d", "er</w>"], ["l", "="], ["datab", "ase</w>"], ["e", "v"], ["we", "i"], ["compo", "si"], ["composi", "te</w>"], ["shor", "t</w>"], ["ans", "w"], ["answ", "er</w>"], ["`", "created_at"], ["`created_at", "`</w>"], ["range", ",</w>"], ["con", "si"], ["consi", "der</w>"], ["`", "user"], ["`user", "_id"], ["`user_id", "`"], ["`user_id`", ".</w>"], [")", ";</w>"], ["p", "h"], ["deploy", "ment"], ["2", "9"], ["4", "6"], ["w", "on"], ["3", "8"], ["secre", "t</w>"], ["it", "'s</w>"], ["*", "</w>"], ["li", "ght"], ["``", "`"], ["```", "python</w>"], ["1.", "0"], ["``", "`</w>"], ["ang", "u"], ["prom", "t"], ["promt", "ail</w>"], ["light", "wei"], ["lightwei", "ght"], ["lightweight", ",</w>"], ["in", "te"], ["inte", "gr"], ["integr", "ate"], ["integrate", "s</w>"], ["grafan", "a</w>"], ["n", "ati"], ["nati", "ve"], ["native", "ly"], ["natively", ",</w>"], ["l", "angu"], ["langu", "age</w>"], ["(", "log"], ["(log", "ql"], ["(logql", ")</w>"], ["sim", "il"], ["simil", "ar</w>"], ["prom", "ql</w>"], ["won", "'t</w>"], ["le", "ar"], ["lear", "n</w>"], ["an", "oth"], ["anoth", "er</w>"], ["tool", ".</w>"], ["**", "i"], ["v", "an"], ["j", "o"], ["or", "m</w>"], ["exam", "pl"], ["exampl", "e:</w>"], ["re", "try"], ["retry", "(fn,</w>"], ["attempts", "="], ["attempts=", "3,</w>"], ["back", "off"], ["backoff", "="], ["backoff=", "1.0"], ["backoff=1.0", "):</w>"], ["range(", "attempts"], ["range(attempts", "):</w>"], ["try", ":</w>"], ["fn", "()</w>"], ["excep", "t</w>"], ["excep", "tion:</w>"], ["attempt", "s</w>"], ["1", ":</w>"], ["ra", "ise</w>"], ["time", "."], ["time.", "sle"], ["time.sle", "ep"], ["time.sleep", "("], ["time.sleep(", "backoff</w>"], ["2", "**i"], ["2**i", ")</w>"], ["de", "bug"], ["debug", "g"], ["debugg", "ing</w>"], ["someth", "ing</w>"], ["prod", ".</w>"], ["rele", "van"], ["relevan", "t</w>"], ["inf", "o:</w>"], ["4", "9"], ["su", "mm"], ["summ", "ar"], ["this", "?</w>"], ["3", "9"], ["ch", "arg"], ["charg", "e</w>"], ["m", "is"], ["version", ":</w>"], ["ther", "e</w>"], ["api", "_key="], ["auth", "enti"], ["authenti", "c"], ["authentic", "ation</w>"], ["error", "?</w>"], ["p", "ast"], ["past", "ing</w>"], ["revie", "w"], ["review", ":</w>"], ["mis", "s"], ["miss", "ing</w>"], ["or", "i"], ["here", "?</w>"], ["heal", "th</w>"], ["th", "u"], ["gi", "thu"], ["3", "</w>"], ["d", "n"], ["n", "ex"], ["_", "ur"], ["7", "5"], ["p", "iv"], ["_ur", "l="], ["lo", "ok</w>"], ["you", "?</w>"], ["prod", "uction</w>"], ["sk", "-"], ["e", "l"], ["tech", "n"], ["techn", "ical</w>"], ["2", "8"], ["st", ".</w>"], ["is", "su"], ["(", "arr"], ["piv", "o"], ["postgres", "ql</w>"], ["issu", "e?</w>"], ["this", ".</w>"], ["intern", "al"], ["ation", ".</w>"], ["s", "po"], ["ation", ":</w>"], ["spo", "t</w>"], ["bug", "?</w>"], ["p", "ati"], ["cl", "ou"], ["te", "st"], ["ord", "ers</w>"], ["m", "on"], ["3", "6"], ["mr", "n</w>"], ["f", "ast"], ["%", "</w>"], ["ter", "raf"], ["terraf", "orm</w>"], ["structu", "re</w>"], ["re", "e</w>"], ["confidenti", "al</w>"], ["re", "d</w>"], ["secret_", "key="], ["re", "quest"], ["c", "ur"], ["d", "b-"], ["d", "raf"], ["draf", "t</w>"], ["cor", "re"], ["x", "o"], ["do", "ck"], ["ic", "</w>"], ["2", "."], ["bil", "ling</w>"], ["updat", "e</w>"], ["ku", "b"], ["--", "--"], ["{", "</w>"], ["te", "s</w>"], ["o", "/"], ["kub", "er"], ["kuber", "ne"], ["kuberne", "tes</w>"], ["1", "4"], ["d", "u"], ["po", "d</w>"], ["k", "s"], ["v", "</w>"], ["ou", "l"], ["sh", "oul"], ["shoul", "d</w>"], ["l", ".</w>"], ["be", "ct"], ["b", "on"], ["ku", "bect"], ["o", "k"], ["fu", "n"], ["s", "l"], ["st", "ag"], ["li", "mi"], ["do", "cu"], ["docu", "ment"], ["document", "ation.</w>"], ["ph", "on"], ["wri", "ter</w>"], ["help", "ing</w>"], ["improv", "e</w>"], ["ss", "n</w>"], ["at", "'s</w>"], ["7", "8"], ["sh", "a"], ["t", "ab"], ["7", "9"], ["ar", "ch"], ["6", "0"], ["3", "5"], ["stri", "pe"], ["il", "l</w>"], ["nam", "e:</w>"], ["clou", "d</w>"], ["no", "de"], ["4", "8"], ["an", "k"], ["d", "ail"], ["a", ",</w>"], ["b", "e</w>"], ["c", "k</w>"], ["cre", "denti"], ["credenti", "al"], ["de", "scrip"], ["descrip", "tion</w>"], ["d", "ou"], ["re", ".</w>"], ["u", "m"], ["th", "ank"], ["thank", "s,</w>"], ["deployment", "?</w>"], [".com", ":"], ["t", "l"], ["m", "a</w>"], ["sh", "</w>"], ["dou", "ble"], ["double", "-"], ["double-", "che"], ["double-che", "ck</w>"], ["credential", "s</w>"], ["corre", "ct"], ["correct", "?</w>"], ["h", "</w>"], ["t", "("], ["he", "ad"], ["con", "st</w>"], ["node", ".j"], ["9", "9"], ["0", "8"], [")", ",</w>"], ["ex", "per"], ["exper", "t</w>"], ["inf", "ra"], ["infra", "structure</w>"], ["dev", "op"], ["devop", "s.</w>"], ["di", "dn"], ["didn", "'t</w>"], ["work", ",</w>"], ["updat", "ed</w>"], ["add", "res"], ["-", "20"], ["ra", "il"], ["i", "d</w>"], ["t", "="], ["g", "n"], ["7", "6"], ["re", "que"], ["reque", "st</w>"], ["bac", "k</w>"], ["jw", "t_"], ["sc", "i"], ["f", "ol"], ["lo", "w"], ["4", "5"], ["ce", "s</w>"], ["gr", "ou"], ["fol", "low"], ["2", "-"], ["sci", "enti"], ["scienti", "st.</w>"], ["con", "c"], ["conc", "ise</w>"], ["dail", "y.</w>"], ["insuran", "ce"], ["t", "s</w>"], ["le", "d</w>"], ["0", "5"], ["quic", "ks"], ["quicks", "ort"], ["quicksort", "(arr"], ["pivo", "t"], ["p", "as"], ["pas", "s"], ["pass", "wor"], ["s", "pe"], ["d", ":</w>"], ["te", "d</w>"], ["e", "c"], ["kubect", "l</w>"], ["no", "t</w>"], ["ori", "gin"], ["origin", "al</w>"], ["st", "ill</w>"], ["ther", "e.</w>"], ["a", "x"], ["9", "/"], ["me", "ss"], ["k", "_"], ["s", "al"], ["sal", "ary</w>"], ["dat", "a"], ["fast", "api</w>"], ["3", "-"], ["stripe", "_"], ["f", "o"], ["coun", "t</w>"], ["d", "g"], ["xo", "x"], ["0", "6"], ["s", ")</w>"], ["wh", "at's</w>"], ["differ", "ence</w>"], ["sl", "ac"], ["xox", "b-"], ["nam", "e"], ["b", "i"], ["d", "j"], ["2", "</w>"], ["te", "st</w>"], ["re", "f"], ["l", "a"], ["6", "8"], ["5", "</w>"], ["c", "s"], ["c", "v"], ["postgresql", "://"], ["postgresql://", "ad"], ["postgresql://ad", "min"], ["postgresql://admin", ":"], ["54", "32"], ["5432", "/"], ["s", "co"], ["grou", "p</w>"], ["@", "db-"], [".com:", "5432/"], ["1", "1"], ["5", "8"], ["test", "s</w>"], ["3", "4"], ["sc", "he"], ["c", "t</w>"], ["21", ".</w>"], ["m", "y</w>"], ["e", "k"], ["9", "8"], ["ic", "e</w>"], ["6", "4"], ["th", "e"], ["2", "4"], ["y", "n"], ["f", "l"], ["p", "res"], ["key", ":</w>"], ["aws_", "access_"], ["aws_access_", "key"], ["aws_access_key", "_id"], ["aws_access_key_id", "="], ["se", "le"], ["s", "e</w>"], ["ak", "i"], ["i", "z"], ["heal", "th"], [".", "internal"], ["a", "1"], ["}", "</w>"], ["s", "g"], ["d", "a</w>"], ["d", "s</w>"], ["ro", "le"], ["y", "j"], ["po", "l"], ["ie", "s</w>"], ["e", "t"], ["med", "ic"], ["insurance", ":</w>"], ["st", "ate"], ["op", "en"], [".i", "o"], ["n", "p"], ["summar", "y.</w>"], ["ca", "p</w>"], ["open", "ai"], ["&", "</w>"], ["run", "s</w>"], ["pol", "ic"], ["polic", "y</w>"], ["dis", "charge</w>"], ["con", "di"], ["condi", "tion:</w>"], ["medic", "ation:</w>"], ["ment", "al</w>"], ["s", "cre"], ["scre", "en"], ["screen", "ing</w>"], ["sco", "re"], ["score", ":</w>"], ["7", "0"], ["cl", "au"], ["de", "cor"], ["created_", "at</w>"], ["b", "oun"], ["mess", "age</w>"], ["ho", "ok</w>"], ["de", "boun"], ["serv", "er</w>"], ["s", "ql</w>"], ["se", "t"], ["&", "&</w>"], ["n", "or"], ["r", "s"], ["pr", "iv"], ["token", "="], ["sk", "_"], ["a", "z"], ["m", "ent</w>"], ["6", "6"], ["bo", "o"], ["-", "4"], ["cu", "st"], ["cust", "om"], ["ar", "ge"], ["c", "an"], ["databas", "e"], ["se", "t</w>"], ["bon", "us"], ["r", "ate"], ["b", "as"], ["m", "a"], ["work", "s</w>"], ["al", "l</w>"], ["/", "21.</w>"], ["scrip", "t</w>"], ["stag", "ing"], ["ev", "ent"], ["githu", "b</w>"], ["fun", "ction</w>"], ["n", "a"], ["aws_", "secret_"], ["aws_secret_", "access_"], ["aws_secret_access_", "key="], ["n", "):</w>"], ["d", "ay"], ["de", "le"], ["d", "k"], ["cre", "ate</w>"], ["li", "st</w>"], ["l", "l"], ["dele", "te</w>"], ["pyth", "on"], ["sha", "red</w>"], ["li", "ve"], ["live", "_"], ["7", "7"], ["w", "in"], ["se", "arch"], ["p", "i"], ["ro", "t"], ["m", "in</w>"], ["y", "am"], ["log", "s</w>"], ["po", "in"], ["wh", "en</w>"], ["ro", "p"], ["x", "y"], [".com", ".</w>"], ["ord", "er</w>"], ["mi", "t"], ["user", "s</w>"], ["aw", "s</w>"], ["/", "d"], ["x", "t"], ["5", "9"], ["'", ",</w>"], ["re", "-"], ["i", "b"], ["p", "re-"], ["availab", "le</w>"], ["an", "th"], ["anth", "rop"], ["o", "."], ["pati", "ent</w>"], ["di", "ag"], ["diag", "no"], ["diagno", "si"], ["diagnosi", "s:</w>"], ["tw", "ice</w>"], ["ty", "pe"], ["o", "li"], ["(", "..."], ["(...", "arg"], ["time", "out"], ["timeout", "("], ["}", ";</w>"], ["sele", "ct</w>"], ["coun", "t("], ["c", "ri"], ["nex", "t</w>"], ["q", "4</w>"], ["l", "in"], ["r", "d"], ["'", ":</w>"], ["la", "b</w>"], ["ul", "t"], ["it", "al"], ["7", "</w>"], ["6", "37"], ["user", "_"], ["pres", "cri"], ["prescri", "be"], ["prescribe", "d</w>"], ["res", "ult"], ["result", "s:</w>"], ["a1", "c</w>"], ["cre", "at"], ["creat", "in"], ["creatin", "ine</w>"], ["mg", "/d"], ["mg/d", "l.</w>"], ["follow", "-up</w>"], ["we", "ek"], ["week", "s.</w>"], ["m", "ic"], ["mic", "ro"], ["micro", "servic"], ["mg", ".</w>"], ["u", "."], ["0", ",</w>"], ["t", "ree</w>"], ["g", "en"], ["database", "_url="], ["database_url=", "postgresql://admin:"], ["g", "c"], ["u", "</w>"], ["u", ".i"], ["u.i", "d</w>"], ["1", "3"], ["mo", "du"], ["gen", "er"], ["****", "****"], ["jwt_", "secre"], ["jwt_secre", "t="], ["s", "/"], ["v", "c"], ["y", "c"], ["re", "?</w>"], [".", "prod"], ["i", "x"], ["6", "9"], ["b", "r"], ["s", "p"], ["s", "."], ["dock", "er</w>"], ["compo", "se</w>"], ["]", ";</w>"], ["...", "quicksort(arr"], ["...quicksort(arr", "."], ["...quicksort(arr.", "filter"], ["...quicksort(arr.filter", "("], ["...quicksort(arr.filter(", "x</w>"], ["pivot", ")"], ["a", "/"], ["r", "ol"], ["tab", "le</w>"], ["api", ".</w>"], ["0", "4"], ["8", "8"], ["l", "u"], ["l", "t"], ["s", "s</w>"], ["node.j", "s/"], ["node.js/", "exp"], ["node.js/exp", "res"], ["redis", "_url="], ["redis_url=", "redis"], ["redis_url=redis", "://"], ["redis_url=redis://", ":"], ["637", "9/"], ["6379/", "0</w>"], ["f", "or"], ["is", "or"], ["expla", "in"], ["explain", "ing</w>"], ["rol", "ling</w>"], ["rele", "as"], ["6", "</w>"], ["em", "ent"], ["openai", "_"], ["openai_", "api_key="], ["openai_api_key=", "sk-"], ["i", "te"], ["token", ":</w>"], ["np", "x</w>"], ["pr", "is"], ["pris", "ma</w>"], ["t", ".j"], ["passwor", "d:</w>"], ["j", "av"], ["-", "5"], ["insuran", "ce</w>"], ["type", "scri"], ["typescri", "pt"], ["typescript", "/"], ["typescript/", "nex"], ["typescript/nex", "t.j"], ["bl", "u"], ["aws_access_key_id=", "aki"], ["p", "at"], ["python", "/"], ["h", "t"], ["jav", "a/"], ["java/", "spr"], ["java/spr", "ing</w>"], ["de", "si"], ["@db-", "prod"], ["l", "-"], ["inf", "o</w>"], ["c", "ard"], ["card", ":</w>"], ["ex", "p</w>"], ["cv", "v</w>"], ["addres", "s:</w>"], ["st", ",</w>"], ["val", "id"], ["t", "p"], ["as", "k</w>"], ["t", "arge"], ["----", "-"], ["rs", "a</w>"], ["priv", "ate</w>"], ["key", "----"], ["key----", "-</w>"], ["gr", "p"], ["slac", "k_"], ["slack_", "bo"], ["slack_bo", "t_"], ["slack_bot_", "token="], ["slack_bot_token=", "xoxb-"], ["j", "s"], ["o", "b"], ["t", "al"], ["u", "x"], ["tion", "s</w>"], ["2", "2"], ["v", "p"], ["0", "7"], ["ru", "st"], ["rust", "/"], ["rust/", "ax"], ["e", "b"], ["med", "ical</w>"], ["u", "m</w>"], ["m", "g</w>"], ["stripe_", "secret_key="], ["che", "ck"], ["check", "list</w>"], ["g", "o/"], ["go/", "grp"], ["cl", "u"], ["1", ",</w>"], ["a", "h"], ["tal", "k"], ["talk", "ing</w>"], ["poin", "ts</w>"], ["al", "l-"], ["all-", "hand"], ["re", "ad"], ["dj", "ang"], ["djang", "o/"], ["ro", "w"], ["search", "</w>"], ["in", "pu"], ["-", "9"], ["custom", "er</w>"], ["c", "ard</w>"], ["k", ",</w>"], ["sen", "dg"], ["sendg", "ri"], ["sendgri", "d_"], ["sendgrid_", "api_key="], ["sendgrid_api_key=", "sg"], ["limi", "t</w>"], ["4", "4"], ["ru", "by</w>"], ["(", "dob</w>"], ["cal", "led</w>"], ["dis", "pu"], ["dispu", "te</w>"], ["end", "ing</w>"], ["phon", "e:</w>"], ["o", "d"], ["dock", "er"], ["re", "fer"], ["githu", "b"], ["m", "u"], [".io", ".</w>"], ["app", ".</w>"], ["out", "l"], ["5", "5"], ["summar", "iz"], ["summariz", "e</w>"], ["pro", "s</w>"], ["con", "s</w>"], ["th", "ree</w>"], ["v", "end"], ["vend", "or</w>"], ["pati", "en"], ["patien", "t:</w>"], ["ne", "t"], ["outl", "ine</w>"], ["spe", "c</w>"], ["rate", "-"], ["rate-", "limi"], ["rate-limi", "ting</w>"], ["midd", "le"], ["middle", "wa"], ["trade-", "off"], ["trade-off", "s</w>"], ["re", "n"], ["on", "e</w>"], ["2", ",</w>"], ["sendgrid_api_key=sg", "."], ["g", "ge"], ["e", "-"], ["v", "i"], ["can", "di"], ["candi", "dat"], ["candidat", "e</w>"], ["cur", "ren"], ["curren", "t</w>"], ["pers", "on"], ["person", "al</w>"], ["refer", "en"], ["referen", "ces</w>"], ["request", ".</w>"], ["quer", "ie"], ["phon", "e</w>"], ["pro", "ces"], ["m", ".</w>"], ["l", "l</w>"], ["k", "in"], ["b", "row"], ["ad", "mit"], ["admit", "ted</w>"], ["pu", "ll</w>"], ["su", "gge"], ["sugge", "st</w>"], ["improv", "ement"], [".", "co"], ["-", "8"], ["z", "h"], ["at", "t"], ["p", ".</w>"], ["data", ":</w>"], ["as", "yn"], ["q", "e"], ["an", ".</w>"], ["anthrop", "ic"], ["m", "s"], ["po", "ol"], ["post", "mor"], ["postmor", "te"], ["postmorte", "m</w>"], ["2-", "h"], ["2-h", "our</w>"], ["out", "ag"], ["con", "ne"], ["al", ".</w>"], ["ch", "ron"], ["g", "u"], ["h", "y"], ["postgresql", ".</w>"], ["re", "p"], ["0", "9"], ["6", "5"], ["g", "o"], ["8", "</w>"], ["ty", "p"], ["ver", "y</w>"], ["jo", "b</w>"], ["back", "end</w>"], ["engine", "er</w>"], ["3", "."], ["0", "1"], ["r", "y"], ["c", "as"], ["pl", "an</w>"], ["mon", "oli"], ["monoli", "th</w>"], ["wi", "re</w>"], ["tr", "ans"], ["trans", "f"], ["transf", "er</w>"], ["request", ":</w>"], ["ac", "count</w>"], ["ib", "an</w>"], ["re", "ci"], ["reci", "pi"], ["recipi", "ent</w>"], ["ref", ":</w>"], ["run", "bo"], ["runbo", "ok</w>"], ["se", "ction</w>"], ["rot", "at"], ["rotat", "ing</w>"], ["acces", "s</w>"], ["0", "3"], ["e", "s?</w>"], ["typ", "e</w>"], ["7", "4"], ["2", "3"], ["b", "ri"], ["7", ",</w>"], ["m", "er"], ["+", "9"], ["0", "2"], ["e", "yj"], ["dev", "."], ["d", "ro"], ["tab", "le"], ["+9", "1-"], ["ing", "?</w>"], ["ad", "min</w>"], ["releas", "e.</w>"], ["dro", "p</w>"], ["p", "g"], ["nor", "th"], ["north", "win"], ["f", "lo"], [":", "6379/0</w>"], ["de", "st"], ["dest", "ro"], ["end", "po"], ["endpo", "int</w>"], ["valid", "ation</w>"], ["hand", "l"], ["3", "3"], ["c", "c"], ["ri", "z"], ["rail", "wa"], ["railwa", "y.</w>"], ["8", "9"], ["fi", "xt"], ["re", "c"], ["c", "ol"], ["ac", "tions</w>"], ["work", "flo"], ["workflo", "w</w>"], ["par", "am"], ["param", "et"], ["py", "test</w>"], ["fixt", "ure</w>"], [";", "`</w>"], ["head", "er"], ["paramet", "riz"], ["parametriz", "ed</w>"], ["0", "0"], ["4", "4</w>"], ["c", "ke"], ["m", ",</w>"], ["%", ",</w>"], ["ex", "e"], ["u", "f"], ["li", "f"], ["rev", "en"], ["reven", "u"], ["eb", "it"], ["ebit", "da</w>"], ["exe", "c</w>"], ["e", "ar"], ["f", "ly"], ["um", "n"], ["ob", "server</w>"], ["pat", "ter"], ["patter", "n</w>"], ["desi", "gn"], ["s", "3</w>"], ["lif", "ec"], ["re", "ac"], ["reac", "t</w>"], ["deboun", "ces</w>"], ["clau", "de-"], ["a", ".</w>"], ["deploy", "ment</w>"], ["yam", "l</w>"], ["state", "le"], ["statele", "ss</w>"], ["ad", "d</w>"], ["col", "umn"], ["modu", "le</w>"], ["bu", "cke"], ["bucke", "t</w>"], ["lifec", "yc"], ["lifecyc", "le</w>"], ["ru", "le"], ["f", "f"], ["m", "c"], ["mi", "t</w>"], ["fo", "rec"], ["forec", "ast"], ["forecast", ":</w>"], ["revenu", "e</w>"], ["m", "arg"], ["marg", "in</w>"], ["head", "count</w>"], ["red", "uction</w>"], ["plan", "ne"], ["planne", "d.</w>"], ["sh", "are</w>"], ["out", "si"], ["outsi", "de</w>"], ["un", "ti"], ["unti", "l</w>"], ["ear", "n"], ["earn", "ing"], ["earning", "s</w>"], ["cal", "l.</w>"], ["l", "ay"], ["gc", "p.</w>"], ["all-hand", "s.</w>"], ["d", "ul"], ["g", "m"], ["h", "an"], ["\"", ":"], ["cur", "s"], ["o", "re"], ["se", "m"], ["un", "it</w>"], ["val", "i"], ["vali", "dat"], ["validat", "es</w>"], ["p", "ine</w>"], [".com", "</w>"], ["fly", ".io.</w>"], ["g", "it</w>"], ["u", "k"], ["le", "s</w>"], ["app", "?</w>"], ["5", "6"], ["c", "ron"], ["hand", "les</w>"], ["sche", "dul"], ["w", "z"], ["+", "44</w>"], ["aw", "s.</w>"], ["ra", "i"], ["_", "t"], ["no", "w"], ["bu", "il"], ["docker", "fil"], ["dockerfil", "e</w>"], ["k", "o"], ["te", "x</w>"], ["3", "0</w>"], ["bas", "h</w>"], ["tr", "y</w>"], ["the", "ore"], ["theore", "m</w>"], ["di", "stri"], ["distri", "bu"], ["y", "?</w>"], ["se", "-"], ["re", "try</w>"], ["fl", "ask</w>"], ["ap", "pl"], ["appl", "ies</w>"], ["distribu", "ted</w>"], ["al", "y"], ["se", "d</w>"], ["-", "2."], ["decor", "at"], ["decorat", "or</w>"], ["exp", "on"], ["expon", "enti"], ["exponenti", "al</w>"], ["n", "gin"], ["ngin", "x</w>"], ["re", "ver"], ["rever", "se-"], ["reverse-", "pro"], ["reverse-pro", "xy"], ["reverse-proxy", "ing</w>"], ["node.j", "s</w>"], ["o", "v"], ["improvement", "s.</w>"], ["staging", "."], ["$", "("], ["mi", "st"], ["mist", "ic</w>"], ["b", "a"], ["di", "g"], ["ser", "ies</w>"], ["s", "si"], ["o", "ce"], ["tl", "s</w>"], ["hand", "sh"], ["handsh", "ak"], ["handshak", "e</w>"], ["st", "ep"], ["s", "dk"], ["an", "t"], ["option", "s.</w>"], ["9", "</w>"], [".internal", "."], ["middlewa", "re.</w>"], ["deploy", ".</w>"], ["y", "ro"], ["sk_", "live_"], ["j", "p"], ["in", "ve"], ["inve", "st"], ["invest", "or</w>"], ["updat", "e:</w>"], ["rai", "sed</w>"], ["post", "-"], ["post-", "mon"], ["post-mon", "e"], ["post-mone", "y</w>"], ["val", "u"], ["valu", "ation</w>"], ["att", "ache"], ["attache", "d</w>"], ["st", "ric"], ["stric", "tl"], ["strictl", "y</w>"], ["confidenti", "al.</w>"], ["v", "e</w>"], ["a", "+"], ["dig", "ital"], ["digital", "oce"], ["digitaloce", "an.</w>"], ["grafan", "a"], ["gener", "ate</w>"], ["b-", "tree</w>"], ["spe", "e"], ["spee", "ds</w>"], ["an", "aly"], ["analy", "ti"], ["e", "qu"], ["i", "y"], ["deployment", "s</w>"], ["--", "on"], ["--on", "el"], ["--onel", "ine</w>"], ["--", "graph"], ["--graph", "</w>"], ["--", "decor"], ["--decor", "ate</w>"], ["--", "all</w>"], ["|", "</w>"], ["he", "ad</w>"], ["-20", "</w>"], ["50", ";</w>"], ["ar", "er</w>"], ["hel", "ix"], ["b", "ase</w>"], ["t", "ail"], ["5", "7"], ["si", "g"], ["northwin", "d"], ["chron", "ou"], ["chronou", "s</w>"], ["\"", "auth"], ["\"auth", "ori"], ["\"authori", "z"], ["be", "arer</w>"], ["ht", "tp"], ["http", "s"], ["https", "://"], ["https://", "api"], ["https://api", "."], [".com", "/"], ["i", "di"], ["ad", "v"], ["arch", "ite"], ["archite", "ctu"], ["architectu", "re?</w>"], ["am", "m"], ["av", "o"], ["$(", "kubectl</w>"], ["ge", "t</w>"], ["po", "ds</w>"], ["-", "n</w>"], ["stag", "ing</w>"], ["-", "o</w>"], ["name", ");</w>"], ["$", "pod</w>"], ["--", "tail"], ["--tail", "="], ["--tail=", "50;</w>"], ["d", "one</w>"], ["b", "and</w>"], ["(", "not</w>"], ["pu", "bl"], ["publ", "ic"], ["public", "):</w>"], ["ic", "4</w>"], ["bonus", ",</w>"], ["ic", "5</w>"], ["bonus", ".</w>"], ["equ", "it"], ["equit", "y</w>"], ["ref", "re"], ["refre", "sh</w>"], ["pool", ":</w>"], ["sha", "re"], ["share", "s.</w>"], ["az", "u"], ["azu", "re.</w>"], ["c", "("], ["1", ";</w>"], ["m", "&"], ["fi", "e"], ["k", "8"], ["x", "x"], ["b", ",</w>"], [")", ".</w>"], ["wh", "y</w>"], ["fun", "c"], ["func", "tion"], ["function", "al</w>"], ["pro", "gr"], ["progr", "amm"], ["programm", "ing</w>"], ["avo", "id"], ["avoid", "s</w>"], ["sk_", "test"], ["gr", "ac"], ["cas", "ca"], ["casca", "de"], ["v", "s</w>"], ["\"", ")</w>"], ["(", "\""], ["sk_test", "_"], ["m&", "a</w>"], ["targe", "t:</w>"], ["off", "er</w>"], ["pr", "ic"], ["pric", "e:</w>"], ["arr", ").</w>"], ["sig", "ne"], ["signe", "d</w>"], ["n", "da</w>"], ["fil", "e.</w>"], ["adv", "isor"], ["advisor", ":</w>"], ["read", "s</w>"], ["cs", "v</w>"], ["out", "pu"], ["outpu", "ts</w>"], [".prod", "."], ["}", ");</w>"], ["q", "z"], ["+", "1-"], ["_", "</w>"], ["event", "u"], ["eventu", "al</w>"], ["st", "ron"], ["stron", "g</w>"], ["j", "z"], ["graph", "ql"], ["jw", "t</w>"], ["structu", "red</w>"], ["ver", "i"], ["veri", "fie"], ["fi", "bon"], ["fibon", "ac"], ["fibonac", "ci"], ["fibonacci", "("], ["fibonacci(", "n):</w>"], ["range(", "n):</w>"], ["a+", "b</w>"], ["v", "o"], ["-", "6"], ["microservic", "es.</w>"], ["m", "vc"], ["q", "k"], ["/", "data"], ["proces", "s</w>"], ["th", "read</w>"], ["lin", "ux"], ["e", "_t"], ["pl", "e</w>"], ["ex", "</w>"], ["outag", "e.</w>"], ["dat", "e_t"], ["date_t", "run"], ["date_trun", "c("], ["date_trunc(", "'"], ["date_trunc('", "day"], ["date_trunc('day", "',</w>"], ["created_at", "),</w>"], ["count(", "*"], ["count(*", ")</w>"], ["ev", "ents</w>"], ["w", "here</w>"], ["now", "()</w>"], ["inter", "v"], ["interv", "al</w>"], ["'", "30</w>"], ["day", "s"], ["days", "'"], ["days'", "</w>"], ["mvc", "c</w>"], ["6", ",</w>"], ["key", "s.</w>"], ["\"", ",</w>"], ["25", "-"], ["h", "app"], ["happ", "en"], ["happen", "s</w>"], ["ur", "l</w>"], ["in", "to</w>"], ["brow", "ser"], ["b", "y"], ["bi", "o"], ["c", "er"], ["deploy", "?</w>"], ["mu", "tex</w>"], ["sem", "ap"], ["semap", "ho"], ["st", "at"], ["internal", "."], ["j", "y"], ["b", "w"], ["9", "4"], ["pre-", "com"], ["pre-com", "mit</w>"], ["bl", "ac"], ["blac", "k</w>"], ["j", "h"], ["con", "t"], ["me", "sh</w>"], ["typescript/next.j", "s</w>"], ["st", "ate</w>"], ["in", "clu"], ["inclu", "de"], ["include", "s:</w>"], ["rd", "s_"], ["rds_", "passwor"], ["rds_passwor", "d</w>"], ["jwt_", "secret</w>"], ["stripe_", "key</w>"], ["\"", "sk-"], ["s.", "create"], ["s.create", "("], ["deboun", "ce</w>"], ["m", "s)</w>"], ["le", "t</w>"], ["t", ";</w>"], ["(...arg", "s)</w>"], ["cle", "ar"], ["clear", "timeout("], ["cleartimeout(", "t"], ["cleartimeout(t", ");</w>"], ["set", "timeout("], ["settimeout(", "()</w>"], ["fn", "(...arg"], ["fn(...arg", "s"], ["fn(...args", "),</w>"], ["ms", ");</w>"], ["vp", "n</w>"], ["pre-", "shared</w>"], ["cer", "t</w>"], ["exp", "ire"], ["expire", "s</w>"], [".", "l"], ["rep", "o</w>"], ["node.js/expres", "s.</w>"], ["d", "h"], ["3", ".</w>"], ["a", "k</w>"], ["github", "_"], ["@", "app"], ["@app", "."], ["@app.", "ge"], ["@app.ge", "t("], ["@app.get(", "'"], ["@app.get('", "/"], ["@app.get('/", "api"], ["@app.get('/api", "/"], ["@app.get('/api/", "health"], ["@app.get('/api/health", "'"], ["@app.get('/api/health'", ")</w>"], ["asyn", "c</w>"], ["health", "("], ["health(", "):</w>"], ["{", "'"], ["{'", "stat"], ["{'stat", "us"], ["{'status", "':</w>"], ["'", "ok"], ["'ok", "',</w>"], ["'", "version"], ["'version", "':</w>"], ["version", "}</w>"], ["f", "t</w>"], ["role", ".</w>"], ["k", "z"], ["net", "work"], ["pr", ".</w>"], ["e", "64"], ["v", "1</w>"], ["ro", "le</w>"], ["cont", "ent</w>"], ["de", "li"], ["deli", "very</w>"], ["sc", "</w>"], ["(", "bas"], ["(bas", "e64"], ["(base64", "):</w>"], ["api", "version:</w>"], ["kin", "d:</w>"], ["db-", "password:</w>"], ["api", "-"], ["api-", "key:</w>"], ["en", "g"], ["-", "1."], ["u.", "id"], ["u.id", ",</w>"], ["u.", "em"], ["u.em", "ail"], ["u.email", ",</w>"], ["count(", "o."], ["count(o.", "id"], ["count(o.id", ")</w>"], ["le", "ft</w>"], ["jo", "in</w>"], ["o.", "user_"], ["o.user_", "id</w>"], ["de", "sc</w>"], ["20", ";</w>"], ["k", "a"], ["6", "7"], ["b", "x"], ["-", "cl"], ["a", "be"], ["column", ".</w>"], ["en", "-"], ["p", "k_"], ["pk_", "live_"], ["v", "h"], ["-cl", "i</w>"], ["d", "w"], ["8", "5"], ["handl", "ing.</w>"], ["-", "d</w>"], ["--", "buil"], ["--buil", "d</w>"], ["-", "f</w>"], ["ward", "en-"], ["warden-", "api</w>"], ["-", "7"], ["quicksort(arr", ")</w>"], ["(arr", ".l"], ["(arr.l", "eng"], ["(arr.leng", "th</w>"], ["<", "=</w>"], ["arr", ";</w>"], ["pivo", "t</w>"], ["arr", "["], ["arr[", "0"], ["arr[0", "];</w>"], ["[", "...quicksort(arr.filter(x</w>"], ["<", "</w>"], ["pivot)", "),</w>"], ["pivot", ",</w>"], ["pivot)", ")"], ["pivot))", "];</w>"], ["slac", "k</w>"], ["inpu", "t.</w>"], ["q", "h"], ["boo", "t</w>"], ["rust/ax", "um</w>"], ["-", "3"], ["8", "0"], ["go/grp", "c</w>"], ["c", "o</w>"], ["v", "z"], ["d", "m"], ["b", "n"], ["mon", "it"], ["q", "n"], ["\":", "\""], ["databas", "es.</w>"], ["h", "i"], ["django/", "postgresql</w>"], ["q", "y"], ["4", "7"], ["f", "z"], ["migr", "ate</w>"], ["dev", "</w>"], ["--", "na"], ["--na", "me</w>"], ["ad", "d_"], ["add_", "user_"], ["add_user_", "role"], ["add_user_role", "s</w>"], ["\"", ","], ["\",", "\""], ["ie", "p"], ["1", ".</w>"], ["q", "m"], ["q", "w"], ["y", "a"], ["j", "x"], ["s", "sh</w>"], ["be", "g"], ["mi", "iep"], ["miiep", "ai"], ["miiepai", "ba"], ["miiepaiba", "ak"], ["miiepaibaak", "ca"], ["miiepaibaakca", "qe"], ["-----", "end</w>"], ["c", "w"], ["python/", "fast"], ["python/fast", "api.</w>"], ["python/", "fastapi</w>"], ["dis", "ord"], ["disord", "er.</w>"], ["b", "z"], ["databas", "e.</w>"], ["c", "z"], ["d", "z"], ["08", "/"], ["de", "d</w>"], ["9", "5"], ["v", "1"], ["k", "n"], [".", "dev."], ["f", "h"], ["p", "w"], ["jw", "t:</w>"], ["nor", "the"], ["northe", "a"], ["northea", "st</w>"], ["pro", "d</w>"], ["-----", "beg"], ["-----beg", "in</w>"], ["addres", "se"], ["addresse", "s.</w>"], ["9", "0"], ["rail", "s</w>"], ["26", "-"], ["b", "j"], ["8", "4"], ["design", ".</w>"], ["f", "y"], ["lu", "ke"], ["luke", "'s</w>"], ["c", "ent"], ["us", "h"], ["k", "h"], ["q", "x"], ["f", "x"], ["step", ".</w>"], ["01", "/"], ["intern", "al</w>"], ["querie", "s.</w>"], ["8", "6"], ["g", "b"], ["s", "a"], ["q", "v"], ["$", "1"], ["q", "r"], ["api", "?</w>"], ["m", "z"], ["node.js/expres", "s</w>"], ["pyth", "on.</w>"], ["boo", "t.</w>"], ["v", "au"], ["q", "g"], ["schedul", "ing.</w>"], ["k", "y"], ["user", "name:</w>"], ["ho", "st"], ["host", ":</w>"], ["f", "w"], ["th", "em"], ["q", "j"], ["rule", "s.</w>"], ["v", "r"], ["sche", "m"], ["schem", "as</w>"], ["cal", "ling</w>"], ["<", "name"], ["<name", ">"], ["ent", "er"], ["plan", "mo"], ["planmo", "de</w>"], ["work", "tree</w>"], ["ex", "it"], ["linux", ".</w>"], ["q", "i"], ["am", "lo"], ["amlo", "di"], ["amlodi", "pine</w>"], ["n", "l"], ["9", "7"], ["k", "j"], ["el", "l"], ["g", "y"], ["rust/ax", "um"], ["rust/axum", ".</w>"], ["@db-", "staging"], ["rail", "s.</w>"], ["c", "y</w>"], ["12", "/"], ["2", ".</w>"], ["g", "j"], ["st", "ell"], ["d", "t"], ["go/grp", "c"], ["go/grpc", ".</w>"], ["v", "y"], ["mor", "g"], ["ing", "-"], ["ail", ".com.</w>"], ["django/", "postgresql.</w>"], ["vau", "lt"], ["graphql", ".</w>"], ["typescript/next.j", "s.</w>"], ["$", "17"], ["mer", "cy</w>"], ["gener", "al</w>"], ["ho", "sp"], ["li", "am"], ["h", "z"], ["b", "al"], ["5", "3"], ["querie", "s?</w>"], ["p", "ag"], ["9", "6"], ["am", "o"], ["bo", "to"], ["v", "w"], ["y", "u"], ["ser", "tr"], ["sertr", "al"], ["sertral", "ine</w>"], ["aws_access_key_id=aki", "a"], ["q", "d"], ["q", "o"], ["se", "cu"], ["secu", "ri"], ["val", "le"], ["valle", "y</w>"], ["vi", "a</w>"], ["j", "r"], ["g", "z"], ["2.", "1."], ["b", "t"], ["q", "s"], ["or", "v"], ["0", "9/"], ["f", "in"], ["verifie", "d.</w>"], ["k", "x"], ["06", "/"], ["js", "on.</w>"], ["inpu", "t"], ["m", "-"], ["consistenc", "y.</w>"], ["session", "></w>"], ["e", "s"], ["cc", "_"], ["semapho", "re.</w>"], ["state", ".</w>"], ["c", "s</w>"], ["isor", "t.</w>"], ["7", "3"], ["browser", ".</w>"], ["b", "h"], ["b", "m"], ["7", "2"], ["v", "j"], ["network", ".</w>"], ["i", "st"], ["an", "i"], ["at", "orv"], ["atorv", "ast"], ["atorvast", "at"], ["atorvastat", "in</w>"], ["ron", "bri"], ["fin", "an"], ["me", "t"], ["ho", "o"], ["yam", "amo"], ["g", "w"], ["win", "32"], ["pag", "in"], ["off", "set"], ["ro", "w</w>"], ["met", "for"], ["metfor", "min</w>"], ["10", "00"], ["10", "/"], ["log", "ist"], ["logist", "ic"], [".", "staging."], ["n", "."], ["gr", "ani"], ["an", "uf"], ["anuf", "ac"], ["anufac", "tur"], ["d", "x"], ["k", "af"], ["m", "x"], ["@", "ya"], ["@ya", "hoo"], ["m", "y"], ["v", "n"], ["4", "3"], ["w", "y"], ["'", "bri"], ["l", ":</w>"], ["02", "/"], ["@", "helix"], ["@helix", "."], ["q", "t"], ["g", "x"], ["l", "is"], ["in", "o"], ["pagin", "ation:</w>"], ["offset", "/"], ["offset/", "limit</w>"], ["10", "m-"], ["10m-", "row</w>"], ["table", ".</w>"], ["kaf", "ka"], ["do", "z"], ["ri", "versi"], ["riversi", "de</w>"], ["cl", "in"], ["o", "i"], ["g", "ar"], ["8", "7"], ["de", "z"], ["gh", "</w>"], ["an", "to"], ["d", "y"], ["le", "v"], ["con", "su"], ["g", "ho"], ["s", "x"], ["f", "e"], ["il", "</w>"], ["c", "j"], ["su", "m"], ["o", "'bri"], ["table", ":</w>"], ["`", "drop</w>"], ["cascade", ";`</w>"], ["lev", "oth"], ["levoth", "yro"], ["levothyro", "x"], ["levothyrox", "ine</w>"], ["75", "mc"], ["conne", "ct"], ["lis", "ino"], ["lisino", "pr"], ["lisinopr", "il</w>"], ["au", "to"], ["v", "l"], ["p", "n"], ["a", "ur"], ["n", "an"], ["qu", "ant"], ["an", "ak"], ["1", "1</w>"], ["c", "n"], ["n", "gu"], ["destro", "y"], ["destroy", ":</w>"], ["`", "terraform</w>"], ["destro", "y</w>"], ["-", "auto"], ["-auto", "-"], ["-auto-", "appro"], ["-auto-appro", "ve</w>"], ["-", "targe"], ["-targe", "t="], ["-target=", "modu"], ["-target=modu", "le"], ["-target=module", ".prod"], ["-target=module.prod", "_"], ["-target=module.prod_", "clu"], ["-target=module.prod_clu", "st"], ["-target=module.prod_clust", "er"], ["-target=module.prod_cluster", "`</w>"], ["un", "ite"], ["unite", "d"], ["united", "health</w>"], ["le", "g"], ["p", "j"], ["gar", "ci"], ["w", "n"], ["aur", "or"], ["v", "x"], ["w", "u"], ["t", "y</w>"], ["boto", "3."], ["boto3.", "session"], ["boto3.session", "("], ["ngu", "y"], ["bo", "ti"], ["fo", "od"], ["cur", "l</w>"], ["-", "h</w>"], ["\"authoriz", "ation:</w>"], ["https://api.", "github"], ["https://api.github", ".com/"], ["https://api.github.com/", "user"], ["https://api.github.com/user", "/"], ["https://api.github.com/user/", "re"], ["https://api.github.com/user/re", "po"], ["https://api.github.com/user/repo", "s</w>"], ["-", "r"], ["en", "doz"], ["w", "il"], ["@", "out"], ["@out", "lo"], ["@outlo", "ok"], ["cli", "ent"], ["2", "29"], ["a", "j"], ["nan", "dez"], ["han", "ss"], ["b", "f"], ["e", "bi"], ["v", "m"], ["event", "s"], ["3", "1"], ["a", "et"], ["ou", "d"], ["t", "on"], ["d", "l"], ["blu", "ebi"], ["@", "northwind"], ["4", "1"], ["2", "40"], ["p", "sy"], ["du", "bo"], ["03", "/"], ["/19", "8"], ["mer", "idi"], ["s", "z"], ["$", "16"], ["c", "y"], ["ul", "l"], ["s", "anto"], ["d", "f"], ["gho", "_"], ["j", "en"], ["p", "z"], ["on", ",</w>"], ["t", "x"], ["b", "ast"], ["bast", "i"], ["basti", "on"], ["j", "ord"], ["aet", "n"], ["aetn", "a</w>"], ["wil", "liam"], ["fer", "nandez"], ["@", "pro"], ["@pro", "ton"], ["@proton", "m"], ["ic", "l"], ["t", "z"], ["m", "ul"], ["rev", "ok"], ["revok", "e</w>"], ["token", "s:</w>"], ["`", "update</w>"], ["tok", "en</w>"], ["n", "ull"], ["null", ";</w>"], ["session", "s"], ["sessions", ";`</w>"], ["07", "/"], ["-20", "25-"], ["05", "/"], ["con", "n</w>"], ["psy", "co"], ["psyco", "pg"], ["psycopg", "2."], ["psycopg2.", "connect"], ["psycopg2.connect", "(\""], ["psycopg2.connect(\"", "postgresql://admin:"], ["curs", "or</w>"], ["con", "n."], ["conn.", "curs"], ["conn.curs", "or"], ["conn.cursor", "()</w>"], ["6", "3"], ["p", "ate"], ["s", "on"], ["clau", "de</w>"], ["t", "u"], ["o", "d</w>"], ["s", "af"], ["iv", "an"], ["ivan", "ov"], ["j", "j"], ["jen", "kin"], ["jenkin", "s-"], ["8", ",</w>"], ["5", "1"], ["m", "w"], ["m", "endoz"], ["ar", "a</w>"], ["t", "en"], ["stripe_secret_key=", "sk_live_"], ["s", "r"], ["and", "er"], ["b", "b"], ["@", "icl"], ["@icl", "oud"], ["hand", "ling</w>"], ["lay", "er"], ["layer", "ed</w>"], ["go", "od</w>"], ["read", "me</w>"], ["li", "br"], ["libr", "ar"], ["librar", "y?</w>"], ["g", "f"], ["k8", "s-"], ["k8s-", "m"], ["k8s-m", "ast"], ["k8s-mast", "er"], ["6", "z"], ["claude-", "son"], ["claude-son", "net"], ["claude-sonnet", "-4"], ["aws_", "key</w>"], ["\"", "aki"], ["aws_", "secret</w>"], ["boto3.session(", "aws_access_key_id="], ["boto3.session(aws_access_key_id=", "aws_"], ["boto3.session(aws_access_key_id=aws_", "key"], ["boto3.session(aws_access_key_id=aws_key", ",</w>"], ["aws_secret_access_key=", "aws_"], ["aws_secret_access_key=aws_", "secre"], ["aws_secret_access_key=aws_secre", "t"], ["aws_secret_access_key=aws_secret", ")</w>"], ["sy", "n"], ["********", "********"], ["win32", "</w>"], ["s", "n"], ["r", "m</w>"], ["v", "ar"], ["ap", "ne"], ["p", "in"], ["g", "l"], ["w", "al"], ["k", "r"], ["-2.", "internal."], ["k", "l"], ["11", "/"], ["k", "i"], ["6", "1"], ["ma", "in</w>"], ["t", "n"], ["it", "al</w>"], ["en", ",</w>"], ["sle", "ep</w>"], ["apne", "a.</w>"], ["han", "na"], ["04", "/"], ["jo", "hanss"], ["c", "r"], ["m", "n"], ["z", "z"], ["c", "x"], ["j", "u"], ["v", "ac"], ["op", "ti"], ["opti", "mistic</w>"], ["pe", "ssi"], ["pessi", "mistic</w>"], ["lo", "ck"], ["lock", "ing?</w>"], ["cle", "an</w>"], ["`", "rm</w>"], ["-r", "f</w>"], ["/", "var"], ["/var", "/data"], ["/var/data", "/"], ["/", "*"], ["/*", "`</w>"], ["6", "2"], ["be", "st</w>"], ["st", "rate"], ["strate", "g"], ["strateg", "y</w>"], ["blu", "e-"], ["blue-", "gre"], ["blue-gre", "en</w>"], ["ec", "s?</w>"], ["w", "x"], ["saf", "el"], ["safel", "y</w>"], ["rot", "ate</w>"], ["th", "at's</w>"], ["us", "ed</w>"], ["mul", "ti"], ["multi", "ple</w>"], ["servic", "es?</w>"], ["yamamo", "to"], ["v", "u"], ["mo", "de"], ["s", "mi"], [".", "ch"], ["a", "is"], ["wal", "sk"], ["ro", "ss</w>"], ["g", "t"], ["analyti", "cs</w>"], ["stripe_secret_key=", "pk_live_"], ["j", "l"], ["stell", "ar"], ["stellar", "food"], ["$", "2"], ["v", "b"], ["v", "f"], ["4", "2"], ["pin", "e"], ["pine", "con"], ["m", "h"], ["ac", "e</w>"], ["7", ".</w>"], ["$", "19"], ["blu", "ec"], ["bluec", "ross</w>"], ["q", "</w>"], ["ro", "ssi"], ["0", "3-"], ["e", "y"], ["syn", "chronous</w>"], ["asyn", "chronous</w>"], ["t", "ask</w>"], ["proces", "sing"], ["processing", "?</w>"], ["@", "ac"], ["@ac", "me"], ["d", "ge"], ["finan", "ce"], ["s", "w"], ["p", "x"], ["aw", "a"], ["name", "sp"], ["i", "od"], ["@", "gm"], ["ais", "h"], ["pr", "iy"], ["/19", "9"], ["\"", "sk_test_"], ["can", "ary</w>"], ["ri", "sk"], ["risk", "?</w>"], ["o", "y"], ["ch", "lo"], ["vac", "u"], ["vacu", "um</w>"], ["\"", "sk_live_"], ["5", "2"], ["sa", "mi"], ["kubect", "l:</w>"], ["`", "kubectl</w>"], ["namesp", "ace</w>"], ["--", "grac"], ["--grac", "e-"], ["--grace-", "per"], ["--grace-per", "iod"], ["--grace-period", "="], ["--grace-period=", "0</w>"], ["--", "for"], ["--for", "ce"], ["--force", "`</w>"], ["ander", "sen"], ["g", "/"], ["k", "f"], [".com:5432/", "custom"], ["g", "d"], ["consu", "lt"], ["d", "an"], ["q", "f"], ["j", "un"], ["openai", "("], ["openai(", "{</w>"], ["api", "key:</w>"], ["res", "p"], ["resp", "on"], ["respon", "se</w>"], ["awa", "it</w>"], ["client", ".ch"], ["client.ch", "at"], ["client.chat", ".com"], ["client.chat.com", "ple"], ["client.chat.comple", "tion"], ["client.chat.completion", "s.create("], ["client.chat.completions.create(", "{"], ["client.chat.completions.create({", "..."], ["client.chat.completions.create({...", "});</w>"], ["\u00fc", "ll"], ["7", "1"], ["99", "0"], ["di", "e"], ["k", "p"], ["q", "0"], ["re", "set</w>"], ["databas", "e:</w>"], ["`", "p"], ["`p", "sql</w>"], ["-", "u</w>"], ["-", "c</w>"], ["'", "delete</w>"], ["events", ";</w>"], ["fu", "ll"], ["full", ";"], ["full;", "'"], ["full;'", "`</w>"], ["7", "-"], ["9", ",</w>"], ["stripe_secret_key=", "sk_test_"], ["h", "x"], ["ko", "walsk"], ["8", "3"], ["analyti", "cs"], ["k", "w"], [".internal", ":6379/0</w>"], ["v", "v"], ["ex", "ter"], ["exter", "n"], ["p", "_"], ["v", "or"], ["s", "j"], ["ci", "gn"], ["cign", "a</w>"], ["o", "ak</w>"], ["or", "t</w>"], ["q", "3"], ["q", "5"], ["z", "u"], ["memcache", "d</w>"], ["token", "s?</w>"], ["dan", "ie"], ["stellarfood", "s"], ["d", "r"], ["m", "\u00fcll"], ["z", "n"], ["set", "t"], ["sett", "le"], ["settle", "ment</w>"], ["05", "-"], ["github_", "token="], ["t", "ri"], ["x", "n"], ["k", "t"], ["grafana", "?</w>"], ["t", "anak"], ["g", "n</w>"], ["sdk", "-cli</w>"], ["sche", "ma</w>"], ["ev", "ol"], ["evol", "u"], ["evolu", "tion</w>"], ["microservic", "es</w>"], ["cent", "er</w>"], ["/19", "5"], ["w", "a</w>"], ["5", ",</w>"], ["monit", "or"], ["monitor", "ing</w>"], ["me", "tr"], ["metr", "ic"], ["metric", "s</w>"], ["e", "very</w>"], ["ex", "po"], ["expo", "se"], ["expose", "?</w>"], ["github_token=", "\""], ["cl", "one</w>"], ["or", "g/"], ["org/", "priv"], ["org/priv", "ate"], ["org/private", "-"], ["org/private-", "repo</w>"], ["z", "l"], ["m", "j"], ["lay", "l"], ["a", ":</w>"], ["4", ",</w>"], ["h", "n"], [".i", "ronbri"], [".ironbri", "dge"], [".ironbridge", "finance"], ["m", "ar"], ["c", "f"], ["corre", "ct</w>"], ["cor", "s</w>"], ["k", "b"], ["is", "abe"], ["zh", "ang"], ["5", "-"], ["r", "w"], ["j", "am"], ["el", "en"], ["**", "*"], ["st", "in"], ["_", "ch"], ["m", "l"], ["t", "wa"], [".co", "bal"], [".cobal", "t"], [".cobalt", "securi"], [".cobaltsecuri", "ty"], [".com:", "6379/0</w>"], ["claude-sonnet-4", "-"], ["claude-sonnet-4-", "6</w>"], ["6", "-"], ["f", "ati"], ["j", "n"], ["ap", "ital"], ["outag", "e?</w>"], ["z", "y"], ["bio", "tech"], ["d", "b"], ["d", "v"], ["de", "ad"], ["dead", "lin"], ["github_", "pat"], ["30", ",</w>"], ["au", "stin"], ["austin", ",</w>"], ["@yahoo", ".com.</w>"], [".", "p"], ["ke", "v"], ["ap", "ex"], ["apex", "consult"], ["apexconsult", "ing"], ["c", "b"], ["q", "9"], ["northwind", "logistic"], ["role", "?</w>"], ["desi", "gn</w>"], ["do", "c</w>"], ["jun", "ior</w>"], ["engineer", "s</w>"], ["follow", "?</w>"], ["\"", ":</w>"], ["in", "vo"], ["invo", "ice</w>"], ["ma", "j"], ["q", "6"], ["s", "\")</w>"], ["e", "h"], ["v", "s"], ["v", "t"], ["j", "i"], ["ok", "af"], ["okaf", "or"], ["middlewa", "re?</w>"], ["ra", "w</w>"], ["com", "pl"], ["compl", "ex</w>"], ["rep", "ort"], ["report", "ing</w>"], ["ag", "e"], ["p", "b"], ["option", "s?</w>"], ["c", "g"], ["w", "r"], ["m", "f"], ["cl", "ar"], ["ch", "r"], ["ti", "t"], ["pay", "ment</w>"], ["recomm", "en"], ["recommen", "ded</w>"], ["6", ".</w>"], ["github_pat", "_"], ["r", "n"], ["idi", "om"], ["idiom", "at"], ["idiomat", "ic</w>"], ["re", "tri"], ["retri", "es</w>"], ["contex", "t</w>"], ["deadlin", "es?</w>"], ["exp", "ort</w>"], ["stripe", "_key="], ["run", "_ch"], ["run_ch", "arge"], ["run_charge", ".p"], ["run_charge.p", "y</w>"], ["--", "am"], ["--am", "oun"], ["--amoun", "t</w>"], ["990", "0</w>"], ["q", "b"], ["u", "y"], ["anthrop", "ic</w>"], ["anthropic", "("], ["anthropic(", "api_key="], ["anthropic(api_key=", "\"sk-"], ["anthropic(api_key=\"sk-", "ant"], ["anthropic(api_key=\"sk-ant", "-"], ["anthropic(api_key=\"sk-ant-", "api"], ["anthropic", "."], ["anthropic.", "mess"], ["anthropic.mess", "age"], ["anthropic.message", "s.create("], ["anthropic.messages.create(", "mode"], ["anthropic.messages.create(mode", "l="], ["anthropic.messages.create(model=", "\""], ["anthropic.messages.create(model=\"", "claude-"], ["anthropic.messages.create(model=\"claude-", "3-"], ["anthropic.messages.create(model=\"claude-3-", "op"], ["anthropic.messages.create(model=\"claude-3-op", "us"], ["anthropic.messages.create(model=\"claude-3-opus", "-20"], ["anthropic.messages.create(model=\"claude-3-opus-20", "240"], ["anthropic.messages.create(model=\"claude-3-opus-20240", "229"], ["anthropic.messages.create(model=\"claude-3-opus-20240229", "\",</w>"], ["...", ")</w>"], ["t", "om"], ["head", "ers</w>"], ["{", "\"authoriz"], ["{\"authoriz", "ation"], ["{\"authorization", "\":</w>"], ["\"", "bearer</w>"], ["\"", "}</w>"], ["request", "s."], ["requests.", "post"], ["requests.post", "(\""], ["requests.post(\"", "https://api."], ["requests.post(\"https://api.", "exam"], ["requests.post(\"https://api.exam", "ple"], ["requests.post(\"https://api.example", ".com/"], ["requests.post(\"https://api.example.com/", "v1"], ["requests.post(\"https://api.example.com/v1", "/data"], ["requests.post(\"https://api.example.com/v1/data", "\",</w>"], ["header", "s"], ["headers", "="], ["headers=", "header"], ["headers=header", "s)</w>"], ["8", ".</w>"], ["ma", "ple</w>"], ["m", "t"], ["maj", "or</w>"], ["de", "pres"], ["depres", "si"], ["depressi", "ve</w>"], ["releas", "e?</w>"], [".com:5432/", "prod"], [".com:5432/prod", "_"], ["grani", "tem"], ["granitem", "anufactur"], ["granitemanufactur", "ing"], ["dubo", "is"], ["hy", "po"], ["hypo", "th"], ["hypoth", "yro"], ["hypothyro", "id"], ["hypothyroid", "is"], ["hypothyroidis", "m.</w>"], ["9", "3"], ["j", "t"], ["$", "18"], ["d", "6"], ["anthropic(api_key=\"sk-ant-api", "03-"], ["tom", "\u00e1"], ["an", "x"], [".io", ":6379/0</w>"], ["z", "w"], ["pe", "t"], ["k", "im"], ["q", "4"], ["jord", "an</w>"], ["d", "en"], ["sami", "r"], ["kowalsk", "i"], ["rule", "s?</w>"], ["quant", "um"], ["quantum", "analytics"], ["$", "3"], ["@db-prod", "-2.internal."], ["d", "p"], ["0", "n"], ["layl", "a</w>"], ["2", "19"], ["8", "."], ["q", "8"], ["bo", "st"], ["bost", "on,</w>"], ["{", "\""], ["pet", "ro"], ["de", "bu"], ["debu", "g</w>"], ["mem", "or"], ["memor", "y</w>"], ["le", "ak</w>"], ["run", "ning</w>"], ["docker", "?</w>"], ["gh", "p_"], ["w", "f"], ["h", "h"], ["hi", "gh"], ["50", "mg.</w>"], ["d", "4"], ["/19", "7"], ["gh", "s_"], ["a", "0"], ["all-hand", "s?</w>"], ["n", "uk"], ["3", "x"], ["z", "x"], ["2", "n"], ["v", "0"], ["helix", "biotech"], ["a", "7"], ["2", "l"], ["hy", "per"], ["hyper", "ten"], ["s", "f"], ["5", "mg.</w>"], ["tit", "le</w>"], ["brow", "n"], ["na", "di"], ["-5", ".internal."], ["-1.", "internal."], ["s", "o"], [".i", "o</w>"], ["il", "l"], ["2.1.", "16"], ["anx", "ie"], ["anxie", "ty</w>"], ["ac", "m"], ["clau", "de"], ["in", "k"], ["on", "e-"], ["one-", "lin"], ["one-lin", "er</w>"], ["nuk", "e</w>"], ["cache", ":</w>"], ["`", "redis"], ["`redis", "-cli</w>"], ["fl", "ush"], ["flush", "all</w>"], ["system", "ct"], ["systemct", "l</w>"], ["re", "star"], ["restar", "t</w>"], ["redis", "`</w>"], ["9", ".</w>"], ["g", "1"], ["conne", "ction</w>"], ["pool", "ing</w>"], ["persist", "ent</w>"], ["conne", "c"], ["connec", "tions</w>"], ["high", "-"], ["high-", "tra"], ["high-tra", "ff"], ["high-traff", "ic</w>"], ["work", "lo"], ["worklo", "ad"], ["workload", "?</w>"], ["hosp", "ital</w>"], ["hyperten", "sion"], ["hypertension", ".</w>"], ["samir", "a</w>"], ["d", "1"], ["li", "am</w>"], ["x", "-"], ["a", "_"], ["databas", "e?</w>"], ["g", "p"], ["meridi", "ans"], ["meridians", "of"], ["meridiansof", "twa"], ["meridiansoftwa", "re"], ["3", "h"], ["d", "er"], ["ct", "l"], ["to", "o"], ["60", "11</w>"], ["m", "p"], ["key", "s?</w>"], ["acm", "ero"], ["acmero", "boti"], ["acmeroboti", "cs"], ["9", "2"], ["auror", "ac"], ["aurorac", "apital"], ["0", "."], ["c", "1"], ["25", ",</w>"], ["27", ",</w>"], ["den", "ver"], ["denver", ",</w>"], ["g", "0"], ["k", "id"], ["@outlook", ".com.</w>"], ["sum", "mit"], ["summit", "leg"], ["summitleg", "al"], ["r", "h"], ["aish", "a</w>"], ["sof", "i"], ["@helix.", "bio"], ["@helix.bio", ".</w>"], ["40", "mg.</w>"], ["cascade", "clou"], ["cascadeclou", "d"], ["design", "?</w>"], ["f", "p"], ["i", "r</w>"], ["lo", "a"], ["them", "</w>"], ["error", ".</w>"], ["j", "</w>"], ["@northwind", ".io.</w>"], ["smi", "th"], ["9", "1"], ["extern", "al</w>"], ["th", "ink"], ["-20", "26-"], ["improvement", "s?</w>"], ["4", ".</w>"], ["di", "abe"], ["diabe", "te"], ["diabete", "s.</w>"], ["d", "5"], ["j", "b"], ["8", "2"], ["se", "att"], ["seatt", "le"], ["seattle", ",</w>"], ["c", "ap"], ["jp", "morg"], ["jpmorg", "an.</w>"], ["microservic", "es?</w>"], [".com:5432/custom", "ers</w>"], ["7", "y"], ["<", "system"], ["<system", "-"], ["<system-", "re"], ["<system-re", "min"], ["<system-remin", "der"], ["<system-reminder", "></w>"], ["follow", "ing</w>"], ["de", "fer"], ["defer", "red</w>"], ["tool", "s</w>"], ["no", "w</w>"], ["tool", "search"], ["toolsearch", ".</w>"], ["the", "ir</w>"], ["loa", "ded</w>"], ["di", "re"], ["dire", "ctl"], ["directl", "y</w>"], ["w", "ill</w>"], ["f", "ail</w>"], ["input", "valid"], ["inputvalid", "ation"], ["inputvalidation", "error.</w>"], ["tool", "search</w>"], ["\"", "sele"], ["\"sele", "ct"], ["\"select", ":"], ["\"select:", "<name>"], ["\"select:<name>", "["], ["\"select:<name>[", ","], ["\"select:<name>[,", "<name>"], ["\"select:<name>[,<name>", "..."], ["\"select:<name>[,<name>...", "]"], ["\"select:<name>[,<name>...]", "\"</w>"], ["lo", "ad</w>"], ["too", "l</w>"], ["be", "for"], ["befor", "e</w>"], ["them", ":</w>"], ["cron", "create</w>"], ["cron", "delete</w>"], ["cron", "list</w>"], ["enter", "planmode</w>"], ["enter", "worktree</w>"], ["exit", "planmode</w>"], ["exit", "worktree</w>"], ["monit", "or</w>"], ["no", "te"], ["note", "boo"], ["noteboo", "ke"], ["notebooke", "di"], ["notebookedi", "t</w>"], ["p", "ush"], ["push", "no"], ["pushno", "ti"], ["pushnoti", "f</w>"], ["n", "y"], ["at", "ri"], ["atri", "al</w>"], ["fi", "br"], ["fibr", "ill"], ["29", ",</w>"], ["h", "l"], ["u", "h"], ["g", "k"], ["clar", "ke"], ["di", "se"], ["q", "1</w>"], ["q", "1"], ["4", "x"], ["ail", ".com</w>"], ["@protonm", "ail.com.</w>"], [".com:5432/", "analytics</w>"], ["we", "i</w>"], ["fibrill", "ation.</w>"], ["c", "p"], ["@acme", ".co"], ["@acme.co", ".</w>"], ["elen", "a</w>"], [".com:5432/prod_", "main</w>"], ["u", "w"], ["q", "7"], ["v", "6"], ["7", "l"], ["chron", "ic</w>"], ["kid", "ne"], ["kidne", "y</w>"], ["dise", "as"], ["diseas", "e.</w>"], ["c", "ch"], ["hanna", "h</w>"], ["ah", "med"], ["i", "o"], ["-3", ".internal."], ["0", "r"], ["/19", "6"], ["handl", "ing?</w>"], ["j", "f"], ["z", "b"], ["x", "e"], ["4", "-"], ["petro", "v"], ["a", "8"], ["schedul", "ing?</w>"], ["isabe", "ll"], ["5", "mg</w>"], ["$", "10"], ["x", "f"], ["z", "r"], ["20", "26-"], ["@gm", "ail.com.</w>"], ["q", "c"], ["26", ",</w>"], ["5", "w"], ["v", "g"], ["r", "he"], ["co", "p"], ["cop", "d.</w>"], ["s", "d"], ["pinecon", "e"], ["pinecone", "health"], ["an", "le"], ["clin", "ic</w>"], ["a", "6"], ["<", "session></w>"], ["2", "50"], ["\"", "pk_live_"], ["z", "o"], ["bluebi", "rd"], ["bluebird", "insurance"], ["k", "c"], ["addres", "ses"], ["addresses", "?</w>"], ["q", "2"], ["r", "l"], ["v", "4"], ["7", "."], ["1000", "mg.</w>"], ["w", "m"], ["a", "e"], ["@", "vault"], ["rhe", "u"], ["rheu", "mat"], ["rheumat", "o"], ["rheumato", "id</w>"], ["ar", "th"], ["arth", "ri"], ["arthri", "ti"], ["arthriti", "s.</w>"], ["10", "mg</w>"], ["morg", "an</w>"], ["st", "anle"], ["stanle", "y.</w>"], ["3", "y"], ["y", "w"], ["a", "."], ["<", "/"], ["</", "session></w>"], ["x-", "anthropic"], ["x-anthropic", "-"], ["x-anthropic-", "bil"], ["x-anthropic-bil", "l"], ["x-anthropic-bill", "ing-"], ["x-anthropic-billing-", "header"], ["x-anthropic-billing-header", ":</w>"], ["cc_", "version"], ["cc_version", "="], ["cc_", "ent"], ["cc_ent", "ry"], ["cc_entry", "poin"], ["cc_entrypoin", "t="], ["cc_entrypoint=", "sdk"], ["cc_entrypoint=sdk", "-"], ["cc_entrypoint=sdk-", "cli"], ["cc_entrypoint=sdk-cli", ";</w>"], ["cch", "="], ["@icloud", ".com.</w>"], ["k", "g"], ["k", "m"], ["v", "8"], ["7", "f"], ["u", "z"], ["q", "2</w>"], ["a", "9"], ["a", "o"], ["-", "1"], ["/19", "4"], ["$", "8"], ["k", "1"], ["state", "?</w>"], ["nguy", "en"], ["75mc", "g"], ["75mcg", ".</w>"], ["f", "t"], ["b", "p"], ["12", "</w>"], ["al", "ex</w>"], ["qu", "oi"], ["16", "z"], ["chr", "is</w>"], ["ag", "ent"], ["agent", ",</w>"], ["$", "14"], ["3", "z"], ["3", "l"], ["priy", "a</w>"], ["die", "go</w>"], ["k", "v"], ["1", "y"], ["kev", "in</w>"], ["10", "</w>"], ["northwindlogistic", "s"], ["5", "x"], ["9", "r"], [".", "co</w>"], ["6", "."], ["0", "1-"], ["9", "."], ["5", "o"], ["am", "ara</w>"], ["c", "m"], ["a", "4"], ["0", "z"], ["se", "quoi"], ["sequoi", "a.</w>"], ["j", "7"], ["46", ",</w>"], ["$", "15"], ["grac", "e</w>"], ["5", ".</w>"], ["cent", "er.</w>"], ["c", "0"], ["oli", "via</w>"], ["el", "m</w>"], ["3", "n"], ["v", "9"], ["hosp", "ital"], ["hospital", ".</w>"], ["chlo", "e</w>"], ["#", "8"], ["********", "***"], ["8", "h"], ["o'bri", "en"], ["eth", "an</w>"], ["2", "h"], ["8", "i"], ["3", "o"], ["1000", "mg</w>"], ["i", "w"], ["consistenc", "y?</w>"], ["3", "t"], ["7", "z"], ["n", "n"], ["python", "?</w>"], ["js", "on"], ["json", "?</w>"], ["20", "27"], ["a", "16z"], ["a16z", ".</w>"], ["f", "au"], ["event", "_"], ["e", "d"], ["r", "x"], ["4", "y"], ["input", "?</w>"], ["2", "z"], ["no", "a"], ["-4", ".internal."], ["vor", "tex"], ["vortex", "ai"], ["9", "l"], ["o", "x"], ["g", "6"], ["isabell", "a</w>"], ["8", "1"], ["pate", "l"], ["28", ",</w>"], ["t", "x</w>"], ["0", "-"], ["b", "5"], ["p", "d"], ["8", "b"], ["om", "ar</w>"], ["on", "e?</w>"], ["w", "g"], ["j", "v"], ["8", "l"], ["6", "w"], ["le", "e"], ["x", "l"], ["verifie", "d"], ["verified", "?</w>"], [".com:5432/", "pay"], [".com:5432/pay", "ment"], ["r", "t"], ["l", "x"], ["pr", "?</w>"], ["3", "e"], ["50", ",</w>"], ["w", "o"], ["d", "9"], ["5", "n"], ["postgresql", "?</w>"], ["r", "z"], ["pr", "o</w>"], ["de", "fau"], ["defau", "l"], ["defaul", "t_"], ["default_", "claude"], ["default_claude", "_"], ["default_claude_", "ai</w>"], ["ar", "***********"], ["ar***********", "ai</w>"], ["2.1.", "15"], ["4", "h"], ["06", "-"], [".co", ":6379/0</w>"], ["n", "u"], [".com:5432/", "orders</w>"], ["column", "?</w>"], ["$", "4"], ["2", "w"], ["k", "k"], ["av", "a</w>"], ["c", "6"], ["jam", "es</w>"], ["s", "2"], ["e", "e"], ["7", "h"], ["s", "ach"], ["75mc", "g</w>"], ["@db-prod", "-1.internal."], ["danie", "l</w>"], ["clin", "ic"], ["clinic", ".</w>"], ["mar", "cu"], ["50", "mg</w>"], ["c", "as</w>"], ["20", "25-"], ["grou", "p.</w>"], ["/var/data/", "prod"], ["/var/data/prod", "/*`</w>"], ["step", "?</w>"], ["g", "ol"], ["yu", "ki</w>"], ["noa", "h</w>"], ["40", "mg</w>"], ["8", "z"], [".internal", ",</w>"], ["v", "d"], ["9", "z"], ["8", "y"], ["7", "x"], ["0", ".</w>"], ["5", "y"], ["garci", "a,</w>"], ["marcu", "s</w>"], ["lu", "cas</w>"], ["10", "mg.</w>"], ["j", "g"], ["2.1.16", "0</w>"], ["0", "h"], ["gol", "dm"], ["goldm", "an</w>"], ["sach", "s.</w>"], ["1", "n"], ["browser", "?</w>"], ["q", "q"], ["g", "g"], ["1", "l"], ["8", "n"], ["2", "o"], ["f", "5"], ["s", "b"], ["3", "w"], ["f", "b"], ["9", "u"], ["a", "q"], ["@db-prod", "-5.internal."], ["w", "l"], ["1", "z"], ["semapho", "re?</w>"], ["j", "m"], ["j", "e"], ["4", "z"], ["2027", "-"], ["0", "y"], ["$", "6"], ["5", "l"], ["r", "r"], ["graphql", "?</w>"], ["w", "t"], ["9", "n"], ["7", "m</w>"], ["2", "y"], ["s", "6"], ["4", "u"], ["8", "w"], ["0", "l"], ["bi", "o</w>"], ["f", "m"], ["0", "x"], ["2", "x"], ["system", ".</w>"], ["3", "k</w>"], ["fati", "ma</w>"], ["-", "3."], ["f", "c"], ["k", "4"], ["is", "ort"], ["isort", "?</w>"], ["7", "u"], ["c", "7"], ["6", "m</w>"], ["5", "z"], ["9", "b"], ["se", "an</w>"], ["$", "5"], ["3", "u"], ["database", "s?</w>"], ["t", "b"], ["v", "7"], ["s", "7"], ["1", "o"], ["@", "redis"], ["9", "y"], ["k", "d"], ["@helix.", "bio</w>"], ["x", "6"], ["@", "kafka"], ["ti", "g"], ["g", "lo"], ["glo", "b"], ["h", "p"], ["k", "6"], ["x", "z"], ["er", "s\")</w>"], ["i", "6"], ["/var/data/", "back"], ["/var/data/back", "up"], ["/var/data/backup", "/*`</w>"], ["g", "v"], ["10", "."], ["mendoz", "a,</w>"], ["s", "4"], ["x", "u"], ["4", "r"], ["buil", "t</w>"], ["-", "c"], ["4", "f"], ["-", "2"], ["3", "r"], ["s", "m"], ["c", "q"], ["j", "9"], ["+91-", "9"], ["e", "u"], ["tig", "er</w>"], ["glob", "al.</w>"], ["bluebi", "r"], ["bluebir", "d</w>"], ["me", "i</w>"], ["1", "1."], ["h", "u"], ["co", "bal"], ["cobal", "t</w>"], ["wor", "d"], ["ag", "ent</w>"], ["s", "ent"], ["k", "7"], ["@", "jenkins-"], ["2", "m</w>"], ["m\u00fcll", "er"], ["i", "h"], ["c", "ad"], ["t", "-"], ["c", "5"], ["j", "0"], ["5", "p"], ["g", "2"], ["45", ",</w>"], ["nadi", "a</w>"], ["8", "m</w>"], ["s", "3"], ["prod", "."], ["e", "z"], ["t", "t"], ["z", "ara</w>"], ["9", "x"], ["5", "r"], ["8", "p"], ["$", "20"], ["4", "m</w>"], ["anthropic", "'s</w>"], ["sdk", ".</w>"], ["q", "3</w>"], ["sofi", "a</w>"], ["h", "r"], ["40", ",</w>"], ["k", "2"], ["c", "2"], ["network", "?</w>"], ["s", "q"], [".io", ",</w>"], ["b", "7"], ["y", "uk"], ["dail", "y?</w>"], ["j", "3"], ["y", "y"], ["h", "w"], ["75", ",</w>"], ["1", "u"], ["3", "f"], ["d", "7"], ["m", "an"], [".com:5432/payment", "s</w>"], ["f", "v"], ["s", "0"], ["t", "m"], ["t", "f"], ["z", "e"], ["tom\u00e1", "s</w>"], ["4", "n"], ["grani", "te</w>"], ["m", "anufactur"], ["g", "7"], ["98", ",</w>"], ["9", "w"], ["linux", "?</w>"], ["n", "x"], ["@icloud", ".com</w>"], ["i", "r"], ["ry", "an</w>"], ["j", "5"], ["k", "0"], ["@outlook", ".com</w>"], ["sum", "mit</w>"], ["8", "e"], ["a", "3"], ["38", ".</w>"], ["auror", "a</w>"], ["con", "ci"], ["conci", "se"], ["concise", ",</w>"], ["sent", "en"], ["senten", "ce"], ["sentence", "-c"], ["sentence-c", "ase</w>"], ["(3", "-"], ["(3-", "7</w>"], ["2", "m"], ["2", "r"], ["u", "o"], ["m", "0"], ["p", "f"], ["64", ",</w>"], ["6", "y"], ["8", "o"], ["49", ",</w>"], ["cas", "cad"], ["cascad", "e</w>"], ["@", "k8s-master"], ["9", "-"], [".com", ":</w>"], ["g", "q"], ["ro", "boti"], ["9", "j"], ["f", "j"], ["z", "f"], ["4", "w"], ["ch", "en"], ["10", "/21.</w>"], ["$", "12"], ["39", "</w>"], ["20", "0"], ["b", "k"], ["8", "x"], ["4", "o"], ["johanss", "on"], ["x", "w"], ["s", "1"], ["j", "6"], ["u", "t"], ["a", "5"], ["be", "s"], ["h", "g"], ["l", "n"], ["@northwind", ".io</w>"], ["25", ".</w>"], ["nguy", "en,</w>"], ["@protonm", "ail.com</w>"], ["9", "i"], ["r", "v"], ["s", "v"], ["{\"", "event_"], ["type", "\":\""], ["\":\"", "\",\""], ["14", ","], ["13", ","], ["$", "7"], ["m", "7"], ["northwin", "d</w>"], ["i", "ronbri"], ["ironbri", "dg"], ["ironbridg", "e</w>"], ["78", ",</w>"], ["e", "o"], ["i", "j"], ["15", ".</w>"], ["0", "k</w>"], ["w", "5"], ["f", "1"], ["b", "g"], ["q", "\"</w>"], ["andersen", ",</w>"], ["03", "/19"], ["59", ",</w>"], ["3", "m</w>"], ["14", ".</w>"], ["#", "7"], ["yuk", "i"], ["p", "9"], ["n", "h"], ["ch", "ri"], ["@yahoo", ".com</w>"], ["word", "s)</w>"], ["cap", "tu"], ["captu", "re"], ["capture", "s</w>"], ["04", "-20"], ["27", ","], [".", "internal</w>"], ["n", "z"], ["79", ",</w>"], ["i", "u"], ["t", "5"], ["j", "c"], ["quant", "um</w>"], ["@", "bastion"], ["stell", "ar</w>"], ["@db-prod", "-4.internal."], ["kim", ",</w>"], ["w", "v"], ["o", "o"], ["#", "9"], ["d", "s"], [".co", ",</w>"], ["yamamoto", ",</w>"], ["i", "1"], ["d", "c"], [".i", "o:</w>"], ["dubois", ",</w>"], ["(", "6"], ["/195", "3,</w>"], ["meridi", "an</w>"], ["5", "e"], ["o'bri", "en,</w>"], ["8", "m"], ["b", "2"], [".internal", ":</w>"], ["-5", ".prod."], ["santo", "s,</w>"], ["58", ",</w>"], ["y", "h"], ["securi", "ty</w>"], ["p", "c"], ["11", "/19"], ["w", "k"], ["(", "7"], ["william", "s,</w>"], ["#", "6"], ["2.1.15", "8</w>"], ["+91-", "8"], ["o", "auth"], ["oauth", "-2025-"], ["oauth-2025-", "04-20"], ["oauth-2025-04-20", ","], ["oauth-2025-04-20,", "inter"], ["oauth-2025-04-20,inter", "le"], ["oauth-2025-04-20,interle", "av"], ["oauth-2025-04-20,interleav", "ed"], ["oauth-2025-04-20,interleaved", "-"], ["oauth-2025-04-20,interleaved-", "think"], ["oauth-2025-04-20,interleaved-think", "ing"], ["oauth-2025-04-20,interleaved-thinking", "-2025-"], ["oauth-2025-04-20,interleaved-thinking-2025-", "05-"], ["oauth-2025-04-20,interleaved-thinking-2025-05-", "14,"], ["oauth-2025-04-20,interleaved-thinking-2025-05-14,", "think"], ["oauth-2025-04-20,interleaved-thinking-2025-05-14,think", "ing-"], ["oauth-2025-04-20,interleaved-thinking-2025-05-14,thinking-", "token"], ["oauth-2025-04-20,interleaved-thinking-2025-05-14,thinking-token", "-"], ["oauth-2025-04-20,interleaved-thinking-2025-05-14,thinking-token-", "coun"], ["oauth-2025-04-20,interleaved-thinking-2025-05-14,thinking-token-coun", "t"], ["oauth-2025-04-20,interleaved-thinking-2025-05-14,thinking-token-count", "-2026-"], ["oauth-2025-04-20,interleaved-thinking-2025-05-14,thinking-token-count-2026-", "05-"], ["oauth-2025-04-20,interleaved-thinking-2025-05-14,thinking-token-count-2026-05-", "13,"], ["oauth-2025-04-20,interleaved-thinking-2025-05-14,thinking-token-count-2026-05-13,", "contex"], ["oauth-2025-04-20,interleaved-thinking-2025-05-14,thinking-token-count-2026-05-13,contex", "t-"], ["oauth-2025-04-20,interleaved-thinking-2025-05-14,thinking-token-count-2026-05-13,context-", "man"], ["oauth-2025-04-20,interleaved-thinking-2025-05-14,thinking-token-count-2026-05-13,context-man", "ag"], ["oauth-2025-04-20,interleaved-thinking-2025-05-14,thinking-token-count-2026-05-13,context-manag", "ement"], ["oauth-2025-04-20,interleaved-thinking-2025-05-14,thinking-token-count-2026-05-13,context-management", "-2025-"], ["oauth-2025-04-20,interleaved-thinking-2025-05-14,thinking-token-count-2026-05-13,context-management-2025-", "06-"], ["oauth-2025-04-20,interleaved-thinking-2025-05-14,thinking-token-count-2026-05-13,context-management-2025-06-", "27,"], ["oauth-2025-04-20,interleaved-thinking-2025-05-14,thinking-token-count-2026-05-13,context-management-2025-06-27,", "prom"], ["oauth-2025-04-20,interleaved-thinking-2025-05-14,thinking-token-count-2026-05-13,context-management-2025-06-27,prom", "pt"], ["oauth-2025-04-20,interleaved-thinking-2025-05-14,thinking-token-count-2026-05-13,context-management-2025-06-27,prompt", "-"], ["oauth-2025-04-20,interleaved-thinking-2025-05-14,thinking-token-count-2026-05-13,context-management-2025-06-27,prompt-", "cach"], ["oauth-2025-04-20,interleaved-thinking-2025-05-14,thinking-token-count-2026-05-13,context-management-2025-06-27,prompt-cach", "ing-"], ["oauth-2025-04-20,interleaved-thinking-2025-05-14,thinking-token-count-2026-05-13,context-management-2025-06-27,prompt-caching-", "sco"], ["oauth-2025-04-20,interleaved-thinking-2025-05-14,thinking-token-count-2026-05-13,context-management-2025-06-27,prompt-caching-sco", "pe"], ["oauth-2025-04-20,interleaved-thinking-2025-05-14,thinking-token-count-2026-05-13,context-management-2025-06-27,prompt-caching-scope", "-2026-"], ["oauth-2025-04-20,interleaved-thinking-2025-05-14,thinking-token-count-2026-05-13,context-management-2025-06-27,prompt-caching-scope-2026-", "01-"], ["oauth-2025-04-20,interleaved-thinking-2025-05-14,thinking-token-count-2026-05-13,context-management-2025-06-27,prompt-caching-scope-2026-01-", "05"], ["10", "-"], ["7", "49"]]}