{"vocab": {"<pad>": 0, "<unk>": 1, "<bos>": 2, "<eos>": 3, "i": 4, "'": 5, "m": 6, "</w>": 7, "t": 8, "r": 9, "y": 10, "n": 11, "g": 12, "o": 13, "u": 14, "d": 15, "e": 16, "s": 17, "a": 18, "p": 19, "c": 20, "h": 21, "b": 22, ".": 23, "l": 24, "f": 25, "w": 26, "k": 27, "x": 28, "z": 29, "j": 30, ",": 31, "v": 32, "\u00fc": 33, "(": 34, "8": 35, "@": 36, "+": 37, "1": 38, "-": 39, "7": 40, "9": 41, "4": 42, "6": 43, "5": 44, ")": 45, "2": 46, "3": 47, "0": 48, "q": 49, ":": 50, ">": 51, "=": 52, "_": 53, "/": 54, "#": 55, ";": 56, "*": 57, "&": 58, "$": 59, "{": 60, "}": 61, "\u2014": 62, "\u00e1": 63, "%": 64, "!": 65, "e</w>": 66, "in": 67, "ou": 68, "d</w>": 69, "th": 70, "ar": 71, "a</w>": 72, "s</w>": 73, ".</w>": 74, "ing": 75, "ing</w>": 76, "n</w>": 77, "st": 78, "ra": 79, "te": 80, "in</w>": 81, "al": 82, "nd</w>": 83, "ow": 84, "oul": 85, "ould</w>": 86, "or": 87, "on</w>": 88, "de": 89, "ro": 90, "h</w>": 91, "ct": 92, "the</w>": 93, "pl": 94, "y</w>": 95, "se</w>": 96, "ll": 97, "and</w>": 98, "ti": 99, "par": 100, "en": 101, "li": 102, "oug": 103, "could</w>": 104, "pro": 105, "er": 106, "fo": 107, "foll": 108, "follow": 109, "eng": 110, "o</w>": 111, "to</w>": 112, "co": 113, "me</w>": 114, "un": 115, "m</w>": 116, "of": 117, "ea": 118, "thr": 119, "you": 120, "you</w>": 121, "l</w>": 122, "ag": 123, "t</w>": 124, "mm": 125, "or</w>": 126, "es</w>": 127, ",</w>": 128, "iz": 129, "su": 130, "wa": 131, "ease</w>": 132, "k</w>": 133, "pla": 134, "rap": 135, "raph</w>": 136, "please</w>": 137, "po": 138, "er</w>": 139, "summ": 140, "summar": 141, "summariz": 142, "throug": 143, "through</w>": 144, "ts</w>": 145, "plain</w>": 146, "how": 147, "way</w>": 148, "parag": 149, "paragraph</w>": 150, "y.</w>": 151, "how</w>": 152, "ter": 153, "ect": 154, "i</w>": 155, "wor": 156, "is</w>": 157, "uct": 158, "uni": 159, "ati": 160, "sm": 161, "ject": 162, "work": 163, "so": 164, "test": 165, "code": 166, "ly</w>": 167, "tra": 168, "smal": 169, "small</w>": 170, "ur": 171, "tern": 172, "cu": 173, "str": 174, "this</w>": 175, "ew": 176, "ew</w>": 177, "sh": 178, "summarize</w>": 179, "project": 180, "project</w>": 181, "ine": 182, "following</w>": 183, "wal": 184, "working</w>": 185, "walk</w>": 186, "lar": 187, "struct": 188, "structur": 189, "structure</w>": 190, "am</w>": 191, "follow.</w>": 192, "juni": 193, "junior</w>": 194, "few</w>": 195, "thoug": 196, "though": 197, "thoughts</w>": 198, "engine": 199, "engineer</w>": 200, "code,</w>": 201, "teg": 202, "propo": 203, "propose</w>": 204, "stra": 205, "strateg": 206, "strategy.</w>": 207, "testing</w>": 208, "ves</w>": 209, "altern": 210, "alternati": 211, "alternatives</w>": 212, "would</w>": 213, "ke</w>": 214, "off": 215, "parti": 216, "particu": 217, "particular": 218, "particularly</w>": 219, "trade": 220, "tradeoff": 221, "tradeoffs</w>": 222, "some</w>": 223, "sh.</w>": 224, "engli": 225, "english.</w>": 226, "like</w>": 227, "arou": 228, "around</w>": 229, "an</w>": 230, "it": 231, "ic": 232, "re": 233, "wr": 234, "writ": 235, "ma": 236, "p</w>": 237, "of</w>": 238, "ha": 239, "gi": 240, "for</w>": 241, "ex": 242, "ap": 243, "ion</w>": 244, "el": 245, "s.</w>": 246, "e.</w>": 247, "bou": 248, "al</w>": 249, "ac": 250, "nc": 251, "ser": 252, "be": 253, "der": 254, "write</w>": 255, "ull": 256, "et</w>": 257, "--": 258, "as": 259, "ft</w>": 260, "wha": 261, "con": 262, "il</w>": 263, "oo": 264, "poin": 265, "ry": 266, "can</w>": 267, "i'": 268, "i'm</w>": 269, "what": 270, "what'": 271, "what's</w>": 272, "hel": 273, "help</w>": 274, "try": 275, "dra": 276, "trying</w>": 277, "draft</w>": 278, "ee</w>": 279, "goo": 280, "good</w>": 281, "thin": 282, "think</w>": 283, "giv": 284, "give</w>": 285, "ema": 286, "email</w>": 287, "abou": 288, "about</w>": 289, "under": 290, "underst": 291, "understand</w>": 292, "summarizing</w>": 293, "three</w>": 294, "explain</w>": 295, "bull": 296, "bullet</w>": 297, "points</w>": 298, ":</w>": 299, "ch": 300, "di": 301, "writing</w>": 302, "rol": 303, "ver": 304, "on": 305, "ical</w>": 306, "tre": 307, "b</w>": 308, "me": 309, "we": 310, "ig": 311, "des": 312, "ear": 313, "int": 314, "ty": 315, "ph": 316, "comm": 317, "st</w>": 318, "en</w>": 319, "typ": 320, "duct": 321, "fro": 322, "serv": 323, "am": 324, "lo": 325, "ics</w>": 326, "nce</w>": 327, "ate": 328, "yl": 329, "py": 330, "for": 331, "role</w>": 332, "rat": 333, "ist": 334, "all": 335, "alls</w>": 336, "styl": 337, "bas": 338, "es.</w>": 339, "enc": 340, "p.</w>": 341, "pyth": 342, "python</w>": 343, "typical</w>": 344, "app.</w>": 345, "team": 346, "tree.</w>": 347, "from</w>": 348, "ge": 349, "ri": 350, "..": 351, "git</w>": 352, "2</w>": 353, ";</w>": 354, "et": 355, "sh</w>": 356, "au": 357, "ith": 358, "at": 359, "fun": 360, "cl": 361, "pu": 362, ")</w>": 363, "nt</w>": 364, "10": 365, "funct": 366, "function</w>": 367, "lim": 368, "debou": 369, "clear": 370, "desc": 371, "it</w>": 372, "ss": 373, "user": 374, "ed": 375, "b-": 376, "cont": 377, "ss</w>": 378, "ct</w>": 379, "op": 380, "t(": 381, "ling</w>": 382, "ir": 383, "duction</w>": 384, "izati": 385, "ht": 386, "api": 387, "han": 388, "er.</w>": 389, "beg": 390, "htt": 391, "servic": 392, "ey": 393, "com": 394, "ai": 395, "ad": 396, "js": 397, "ue": 398, "x</w>": 399, "ff": 400, "wh": 401, "av": 402, "3.</w>": 403, "tc": 404, "fu": 405, "du": 406, "ch</w>": 407, "ob": 408, "hand": 409, "handling</w>": 410, "ial": 411, "intro": 412, "introduction</w>": 413, "time</w>": 414, "json</w>": 415, "unit</w>": 416, "ls": 417, "zon": 418, "serial": 419, "serializati": 420, "serialization</w>": 421, "zones</w>": 422, "tests</w>": 423, "per": 424, "cor": 425, "graph</w>": 426, "ge</w>": 427, "rate</w>": 428, "corr": 429, "correct": 430, "correctly</w>": 431, "perfor": 432, "performa": 433, "performance</w>": 434, "edge</w>": 435, "cas": 436, "ign": 437, "traver": 438, "travers": 439, "traversal</w>": 440, "limit": 441, "limiting</w>": 442, "cases.</w>": 443, "char": 444, "charac": 445, "character": 446, "characterist": 447, "characteristics</w>": 448, "design": 449, "designing</w>": 450, "common</w>": 451, "alg": 452, "basics</w>": 453, "pit": 454, "ms.</w>": 455, "algor": 456, "algorith": 457, "algorithms.</w>": 458, "best</w>": 459, "ach": 460, "compar": 461, "comparing</w>": 462, "cli": 463, "pitf": 464, "pitfalls</w>": 465, "works</w>": 466, "pra": 467, "appro": 468, "approach": 469, "approaches</w>": 470, "cli</w>": 471, "ctic": 472, "practic": 473, "practices</w>": 474, "clear</w>": 475, "tha": 476, "pen": 477, "styles</w>": 478, "ncy</w>": 479, "when</w>": 480, "depen": 481, "depende": 482, "dependency</w>": 483, "that</w>": 484, "web</w>": 485, "tcp</w>": 486, "conte": 487, "content</w>": 488, "mig": 489, "b-tre": 490, "b-tree</w>": 491, "pull": 492, "pull</w>": 493, "debounce</w>": 494, "migrat": 495, "migrating</w>": 496, "acc": 497, "ite": 498, "hist": 499, "histor": 500, "history</w>": 501, "inject": 502, "injection</w>": 503, "calls</w>": 504, "chn": 505, "conge": 506, "congest": 507, "congestion</w>": 508, "deli": 509, "deliver": 510, "delivery</w>": 511, "ura": 512, "product": 513, "product</w>": 514, "req": 515, "dev": 516, "arch": 517, "archite": 518, "architect": 519, "architectura": 520, "architectural</w>": 521, "techn": 522, "technical</w>": 523, "diff": 524, "ence</w>": 525, "expla": 526, "explain": 527, "explaining</w>": 528, "reque": 529, "request</w>": 530, "differ": 531, "difference</w>": 532, "devel": 533, "develop": 534, "developer</w>": 535, "net": 536, "versu": 537, "versus</w>": 538, "nag": 539, "mea": 540, "control": 541, "control.</w>": 542, "bet": 543, "pti": 544, "manag": 545, "manager</w>": 546, "networ": 547, "network</w>": 548, "ful</w>": 549, "mean": 550, "meaning": 551, "meaningful</w>": 552, "on.</w>": 553, "betwe": 554, "between</w>": 555, "style</w>": 556, "sear": 557, "search</w>": 558, "descri": 559, "descripti": 560, "description.</w>": 561, "http</w>": 562, "audi": 563, "audienc": 564, "audience.</w>": 565, "duc": 566, "acro": 567, "across</w>": 568, "reduc": 569, "reduces</w>": 570, "api</w>": 571, "observ": 572, "observer</w>": 573, "jav": 574, "inpu": 575, "input</w>": 576, "api.</w>": 577, "unix</w>": 578, "java</w>": 579, "pat": 580, "late": 581, "latenc": 582, "latency.</w>": 583, "teams.</w>": 584, "patter": 585, "pattern</w>": 586, "commit</w>": 587, "lsm</w>": 588, "hash</w>": 589, "ilo": 590, "gate": 591, "gatewa": 592, "gateway.</w>": 593, "philo": 594, "philoso": 595, "philosoph": 596, "philosophy.</w>": 597, "codebas": 598, "codebase.</w>": 599, "map</w>": 600, "mess": 601, "messag": 602, "messages.</w>": 603, "rea": 604, "react</w>": 605, "team.</w>": 606, "mic": 607, "micro": 608, "microservic": 609, "microservice.</w>": 610, "inn": 611, "beginn": 612, "beginner.</w>": 613, "sor": 614, "sorte": 615, "sorted</w>": 616, "fn": 617, "key": 618, "_i": 619, "----": 620, "-----": 621, "ms": 622, "intern": 623, "user_i": 624, "(n": 625, "order": 626, "by</w>": 627, "ran": 628, "00": 629, "range": 630, "):</w>": 631, "a,</w>": 632, "=</w>": 633, "{</w>": 634, ".a": 635, "ms)": 636, "(..": 637, "(...a": 638, "(...a)": 639, "=>": 640, "time": 641, "timeou": 642, "timeout(": 643, "ret": 644, "}</w>": 645, "urn</w>": 646, "return</w>": 647, "\u2014</w>": 648, "ib": 649, "adm": 650, "1-": 651, "ate</w>": 652, "om": 653, "with": 654, "ba": 655, "3</w>": 656, "le": 657, "=s": 658, "push</w>": 659, "auth": 660, "ek": 661, "in/": 662, "sc": 663, "no": 664, "ak": 665, "pas": 666, "week": 667, "pass": 668, "passwor": 669, "pir": 670, "+1-": 671, "expir": 672, "cust": 673, "custom": 674, "gin</w>": 675, "accou": 676, "account</w>": 677, "g</w>": 678, "pri": 679, "ec": 680, "12": 681, "me.": 682, "acme.": 683, "1</w>": 684, "32": 685, "ing:</w>": 686, "0,</w>": 687, "end</w>": 688, "19": 689, "f</w>": 690, "gr": 691, "rs": 692, "pr": 693, "//": 694, "://": 695, "54": 696, "internal</w>": 697, "an": 698, "50": 699, "def</w>": 700, "fib": 701, "fibon": 702, "fibonacc": 703, "fibonacci": 704, "fibonacci(n": 705, "fibonacci(n:</w>": 706, "sel": 707, "ce": 708, "ect</w>": 709, "select</w>": 710, "int)</w>": 711, "cou": 712, "user_id": 713, "user_id,</w>": 714, "->": 715, "-></w>": 716, "coun": 717, "count(": 718, "count(*": 719, "count(*)</w>": 720, "rsa</w>": 721, "priv": 722, "private</w>": 723, "key-----": 724, "key-----</w>": 725, "int:</w>": 726, "range(": 727, "range(10": 728, "range(10):</w>": 729, "orders</w>": 730, "grou": 731, "group</w>": 732, "print": 733, "print(": 734, "print(i": 735, "print(i*": 736, "print(i*i": 737, "print(i*i)</w>": 738, "-l": 739, "user_id</w>": 740, "nce": 741, "reba": 742, "rebase</w>": 743, "order</w>": 744, "debounce": 745, "debounce(": 746, "debounce(fn": 747, "debounce(fn,</w>": 748, "_</w>": 749, "-i</w>": 750, "ms){</w>": 751, "orig": 752, "origin/": 753, "origin/ma": 754, "origin/main</w>": 755, "let</w>": 756, "t;</w>": 757, "&&": 758, "&&</w>": 759, "desc</w>": 760, "range(n": 761, "range(n):</w>": 762, "limit</w>": 763, "(...a)=>": 764, "(...a)=>{</w>": 765, "ce-": 766, "--for": 767, "--force-": 768, "--force-with": 769, "--force-with-l": 770, "--force-with-lease</w>": 771, "10;</w>": 772, "cleartimeout(": 773, "cleartimeout(t": 774, "cleartimeout(t)": 775, "cleartimeout(t);</w>": 776, "t=s": 777, "t=set": 778, "t=settimeout(": 779, "t=settimeout((": 780, "t=settimeout(()": 781, "t=settimeout(()=>": 782, "t=settimeout(()=>fn": 783, "t=settimeout(()=>fn(...a)": 784, "t=settimeout(()=>fn(...a),</w>": 785, "ms);": 786, "ms);}</w>": 787, "al.": 788, ".intern": 789, ".internal.": 790, "prod": 791, "b,</w>": 792, "acme.co": 793, "+</w>": 794, "40": 795, "auth</w>": 796, "mar": 797, "arc": 798, "ok": 799, "he": 800, "stag": 801, "ql": 802, "mr": 803, "nt": 804, "pd": 805, "gb": 806, "vp": 807, "si": 808, "a1": 809, "0</w>": 810, "tw": 811, "ot": 812, "bi": 813, "c</w>": 814, "-u": 815, "/19": 816, "d.</w>": 817, "dre": 818, "bor": 819, "eet": 820, "123</w>": 821, "act</w>": 822, "pati": 823, "patien": 824, "patient</w>": 825, "born</w>": 826, "addre": 827, "address</w>": 828, "mapl": 829, "maple</w>": 830, "street": 831, "street,</w>": 832, "contact</w>": 833, "@d": 834, "les": 835, "sql": 836, "stg": 837, "mm</w>": 838, "ed</w>": 839, "db</w>": 840, "front": 841, "mri</w>": 842, "show": 843, "showed</w>": 844, "lesion</w>": 845, "left</w>": 846, "frontal</w>": 847, "lobe": 848, "lobe;</w>": 849, "recomm": 850, "recommend</w>": 851, "follow-u": 852, "follow-up</w>": 853, "weeks.</w>": 854, "pan": 855, ":54": 856, "nect": 857, "32/": 858, "connect": 859, "connection</w>": 860, "string:</w>": 861, "postg": 862, "postgre": 863, "postgresql": 864, "postgresql://": 865, "postgresql://adm": 866, "postgresql://admin": 867, "@db-": 868, "@db-prod": 869, "@db-prod-": 870, ".internal.acme.co": 871, ".internal.acme.co:54": 872, ".internal.acme.co:5432/": 873, ".internal.acme.co:5432/custom": 874, ".internal.acme.co:5432/customer": 875, ".internal.acme.co:5432/customers</w>": 876, "=ro": 877, "postgresql://admin:": 878, "login</w>": 879, "admin</w>": 880, "panel": 881, "panel:</w>": 882, "user=ro": 883, "user=root": 884, "user=root,</w>": 885, "password": 886, "nex": 887, "mg</w>": 888, "tes": 889, "pre": 890, "cer": 891, "dia": 892, "met": 893, "ail": 894, "sis": 895, "twic": 896, "car": 897, "diag": 898, "scri": 899, "form": 900, "vpn</w>": 901, "cert</w>": 902, "expires</w>": 903, "next</w>": 904, "week,</w>": 905, "password</w>": 906, "diagno": 907, "diagnosis": 908, "diagnosis:</w>": 909, "type</w>": 910, "diabe": 911, "diabetes": 912, "diabetes,</w>": 913, "a1c</w>": 914, "prescri": 915, "prescribe": 916, "prescribed</w>": 917, "metform": 918, "metformin</w>": 919, "twice</w>": 920, "dail": 921, "daily.</w>": 922, "eir": 923, "upd": 924, "new</w>": 925, "update</w>": 926, "their": 927, "their</w>": 928, "card</w>": 929, "expiring</w>": 930, "wir": 931, "password=": 932, "rev": 933, "ask": 934, "000</w>": 935, "bu": 936, "win": 937, "nor": 938, "wire</w>": 939, ",000</w>": 940, "iban</w>": 941, "barc": 942, "los": 943, "enu": 944, "eca": 945, "phon": 946, "ssn</w>": 947, "customer</w>": 948, "phone</w>": 949, "asking</w>": 950, "refun": 951, "refund.</w>": 952, "q3</w>": 953, "yet</w>": 954, "revenu": 955, "revenue</w>": 956, "foreca": 957, "forecast</w>": 958, "with</w>": 959, "margin</w>": 960, "%</w>": 961, "(internal</w>": 962, "not</w>": 963, "disc": 964, "disclos": 965, "disclosed": 966, "disclosed)": 967, "disclosed).</w>": 968, "north": 969, "northwin": 970, "aw": 971, "heli": 972, "aq": 973, "gh": 974, "end": 975, "mi": 976, "/2": 977, "ep": 978, "us": 979, "s-": 980, "d.": 981, "10.": 982, "8q": 983, "0z": 984, "x.": 985, "d.i": 986, "northwind.i": 987, "401": 988, "helix.": 989, "helix.bi": 990, "fai": 991, "=sk": 992, "ai_": 993, "debu": 994, "_key": 995, "debug</w>": 996, "open": 997, "openai_": 998, "openai_api": 999, "openai_api_key": 1000, "openai_api_key=sk": 1001, "failing</w>": 1002, "401s.</w>": 1003, "sec": 1004, "ust": 1005, "her": 1006, "ia": 1007, "p_": 1008, "here</w>": 1009, "aws</w>": 1010, "key:</w>": 1011, "secre": 1012, "secret</w>": 1013, "production</w>": 1014, "clust": 1015, "cluster.</w>": 1016, "thu": 1017, "hea": 1018, "tok": 1019, "tag": 1020, "ci</w>": 1021, "githu": 1022, "github</w>": 1023, "token</w>": 1024, "what</w>": 1025, "uses</w>": 1026, "tags.</w>": 1027, "mii": 1028, "der</w>": 1029, "header</w>": 1030, "staging:</w>": 1031, "author": 1032, "authorizati": 1033, "authorization": 1034, "authorization:</w>": 1035, "bear": 1036, "bearer</w>": 1037, "akc": 1038, "aiba": 1039, "aqea": 1040, "-----beg": 1041, "-----begin</w>": 1042, "miiep": 1043, "miiepaiba": 1044, "miiepaibaakc": 1045, "miiepaibaakcaqea": 1046, "miiepaibaakcaqea0z": 1047, "miiepaibaakcaqea0z8q": 1048, "miiepaibaakcaqea0z8q..": 1049, "miiepaibaakcaqea0z8q...</w>": 1050, "-----end</w>": 1051, "-2": 1052, "11": 1053, "eyj": 1054, "ghp_": 1055, "30": 1056, "openai_api_key=sk-": 1057, "ta": 1058, "f.</w>": 1059, "0.": 1060, "-4": 1061, "18": 1062, "g.</w>": 1063, "39": 1064, "-6": 1065, "503": 1066, "36": 1067, "-8": 1068, "38": 1069, "hin": 1070, "run": 1071, "-9": 1072, "service</w>": 1073, "runs</w>": 1074, "10.0.": 1075, "behin": 1076, "behind</w>": 1077, "waf.</w>": 1078, "17": 1079, "59": 1080, "37": 1081, "00mg</w>": 1082, "16": 1083, "-7": 1084, "endpoin": 1085, "endpoint</w>": 1086, "http": 1087, "http://": 1088, "/adm": 1089, "/admin/": 1090, "/admin/user": 1091, "/admin/users</w>": 1092, "throw": 1093, "throwing</w>": 1094, "503s.</w>": 1095, "57": 1096, "34": 1097, "52": 1098, "56": 1099, "ssh</w>": 1100, "into</w>": 1101, "tail</w>": 1102, "log.</w>": 1103, "58": 1104, "ki": 1105, "14": 1106, "lt": 1107, "k8": 1108, "22": 1109, "yu": 1110, "44": 1111, "il": 1112, "tl": 1113, "eg": 1114, "09": 1115, "47": 1116, "48": 1117, "68": 1118, "27": 1119, "gu": 1120, "49": 1121, "07": 1122, "69": 1123, "s.": 1124, "08": 1125, "29": 1126, "28": 1127, "oz": 1128, "akia": 1129, "br": 1130, "67": 1131, "na": 1132, "vau": 1133, "mast": 1134, "k8s-": 1135, "k8s-mast": 1136, "k8s-master": 1137, ".internal.northwind.i": 1138, "vault": 1139, ".prod": 1140, ".prod.": 1141, "o/admin/users</w>": 1142, "35": 1143, "k.": 1144, "redi": 1145, "redis-": 1146, ".stag": 1147, ".staging": 1148, ".staging.": 1149, ".staging.helix.bi": 1150, "31": 1151, "06": 1152, "co</w>": 1153, "acme.co</w>": 1154, "@g": 1155, "jo": 1156, "04": 1157, "@northwind.i": 1158, "il.": 1159, "@gma": 1160, "@gmail.": 1161, "26": 1162, "15": 1163, "@helix.bi": 1164, "com</w>": 1165, "o,</w>": 1166, "com,</w>": 1167, "@ou": 1168, "@outl": 1169, "@outloo": 1170, "@outlook.": 1171, "02": 1172, "05": 1173, "79": 1174, "ord": 1175, "46": 1176, "jord": 1177, "42": 1178, "liv": 1179, "ia</w>": 1180, "88": 1181, "hanna": 1182, "marcu": 1183, "dieg": 1184, "850": 1185, "oliv": 1186, "aish": 1187, "alex": 1188, "priy": 1189, "-5": 1190, "sam": 1191, "tom": 1192, "tom\u00e1": 1193, "1000mg</w>": 1194, "66": 1195, "850mg</w>": 1196, "03": 1197, "78": 1198, "aki": 1199, "500mg</w>": 1200, "a.": 1201, "guy": 1202, "99": 1203, "33": 1204, "01": 1205, "nguy": 1206, "i.": 1207, "oka": 1208, "77": 1209, "bl": 1210, "clar": 1211, "45": 1212, "13": 1213, "tan": 1214, "89": 1215, "62": 1216, "tanak": 1217, "brow": 1218, "mend": 1219, "mendoz": 1220, "smith": 1221, "6.</w>": 1222, "rov": 1223, "garc": 1224, "pate": 1225, "pet": 1226, "m\u00fc": 1227, "m\u00fcll": 1228, "johan": 1229, "-3": 1230, "55": 1231, "od": 1232, "petrov": 1233, "ke": 1234, "8.": 1235, "bo": 1236, "4</w>": 1237, "5</w>": 1238, "7.</w>": 1239, "1,</w>": 1240, "3,</w>": 1241, "87": 1242, "9.</w>": 1243, "8.</w>": 1244, "7.": 1245, "24": 1246, "25": 1247, "86": 1248, "9.": 1249, "ki</w>": 1250, "mei</w>": 1251, "http://vault": 1252, ".prod.acme.co": 1253, ".prod.acme.co/admin/users</w>": 1254, "jordan</w>": 1255, "hannah</w>": 1256, "yuki</w>": 1257, "+1-9": 1258, "chr": 1259, "8</w>": 1260, "7</w>": 1261, "jz": 1262, "76": 1263, "marcus</w>": 1264, "http://k8s-master": 1265, ".internal.northwind.io/admin/users</w>": 1266, ".internal.northwind.io</w>": 1267, "chris</w>": 1268, "9</w>": 1269, "aisha</w>": 1270, ".staging.helix.bio</w>": 1271, "diego</w>": 1272, ".prod.acme.co</w>": 1273, "alex</w>": 1274, "vz": 1275, "http://redis-": 1276, ".staging.helix.bio/admin/users</w>": 1277, "kx": 1278, "bz": 1279, "jx": 1280, "wei</w>": 1281, "fx": 1282, "72": 1283, "vv": 1284, "@helix.bio</w>": 1285, "6</w>": 1286, "olivia</w>": 1287, "-1": 1288, "@acme.co": 1289, "@acme.co,</w>": 1290, "gz": 1291, "pz": 1292, "fh": 1293, "82": 1294, "tom\u00e1s</w>": 1295, "priya</w>": 1296, "dx": 1297, "kz": 1298, "@northwind.io,</w>": 1299, "@northwind.io</w>": 1300, "wx": 1301, "@gmail.com,</w>": 1302, "@acme.co</w>": 1303, "jh": 1304, "vh": 1305, "yz": 1306, "fq": 1307, "ira</w>": 1308, "samira</w>": 1309, "@gmail.com</w>": 1310, "vq": 1311, "@outlook.com</w>": 1312, "jq": 1313, "5,</w>": 1314, "pq": 1315, "dz": 1316, "64": 1317, "yx": 1318, "fz": 1319, "wz": 1320, "gx": 1321, "mx": 1322, "98": 1323, "74": 1324, "96": 1325, "vn": 1326, "jn": 1327, "@helix.bio,</w>": 1328, "20": 1329, "@outlook.com,</w>": 1330, "yq": 1331, "jd": 1332, "gq": 1333, "jr": 1334, "ku": 1335, "23": 1336, "mz": 1337, "jc": 1338, "kn": 1339, "ju": 1340, "97": 1341, "kq": 1342, "vx": 1343, "wq": 1344, "bx": 1345, "bh": 1346, "vu": 1347, "bq": 1348, "px": 1349, "mn": 1350, "84": 1351, "sx": 1352, "o.": 1353, "mq": 1354, "jy": 1355, "kh": 1356, "dq": 1357, "pn": 1358, "my": 1359, "vl": 1360, "jl": 1361, "mh": 1362, "bn": 1363, "jw": 1364, "30.</w>": 1365, "gn": 1366, "bc": 1367, "fc": 1368, "ji": 1369, "$2": 1370, "1.</w>": 1371, "fy": 1372, "31.</w>": 1373, "gl": 1374, "h.": 1375, "kw": 1376, "gy": 1377, "jt": 1378, "vy": 1379, "vw": 1380, "dn": 1381, "53": 1382, "+1-8": 1383, "vr": 1384, "fr": 1385, "dh": 1386, "kr": 1387, "kc": 1388, "fw": 1389, "fl": 1390, "+1-7": 1391, "vc": 1392, "43": 1393, "ml": 1394, "mu": 1395, "sn": 1396, "ax": 1397, "okafor</w>": 1398, "nguyen</w>": 1399, "ft": 1400, "sz": 1401, "bw": 1402, "nguyen": 1403, "92": 1404, "cap": 1405, "aur": 1406, "gc": 1407, "pw": 1408, "clarke": 1409, "dr": 1410, "pc": 1411, "dc": 1412, "kt": 1413, "mendoza</w>": 1414, "garcia</w>": 1415, "brown": 1416, "auror": 1417, "aurora</w>": 1418, "capit": 1419, "capital</w>": 1420, "ki.": 1421, "yuki.": 1422, "32.</w>": 1423, "ia.": 1424, "sl": 1425, "olivia.": 1426, "johanss": 1427, "johansson</w>": 1428, "az": 1429, "ote": 1430, "chri": 1431, "chris.": 1432, "by": 1433, "41": 1434, "bt": 1435, "th</w>": 1436, "/30.</w>": 1437, "sy": 1438, "/26.</w>": 1439, "ira": 1440, "pi": 1441, "kl": 1442, "sw": 1443, "sq": 1444, "+1-6": 1445, "fi": 1446, "tic": 1447, "tanaka</w>": 1448, "/29.</w>": 1449, "pine": 1450, "pinecon": 1451, "pinecone</w>": 1452, "heal": 1453, "health</w>": 1454, "helix</w>": 1455, "biote": 1456, "biotech</w>": 1457, "lee": 1458, "priya.": 1459, "ox": 1460, "dy": 1461, "oq": 1462, "mc": 1463, "94": 1464, "dl": 1465, "an.": 1466, "/27.</w>": 1467, "samira": 1468, "samira.": 1469, "diego.": 1470, "jordan.": 1471, "kim": 1472, "85": 1473, "vt": 1474, "sr": 1475, "jg": 1476, "m\u00fcller": 1477, "65": 1478, "okafor": 1479, "mt": 1480, "tom\u00e1s.": 1481, "patel": 1482, "vi": 1483, "petrov</w>": 1484, "/28.</w>": 1485, "clarke</w>": 1486, "acme</w>": 1487, "robo": 1488, "robotic": 1489, "robotics</w>": 1490, "80": 1491, "eq": 1492, "mw": 1493, "ah": 1494, "alex.": 1495, "/31.</w>": 1496, "patel</w>": 1497, "70": 1498, "ell": 1499, "6.": 1500, "bir": 1501, "kim</w>": 1502, "oh": 1503, "aisha.": 1504, "marcus.": 1505, "mei.": 1506, "lee</w>": 1507, "brown</w>": 1508, "m\u00fcller</w>": 1509, "smith</w>": 1510, "gw": 1511, "ky": 1512, "/32.</w>": 1513, "ar</w>": 1514, "wei.": 1515, "dw": 1516, "pt": 1517, "blue": 1518, "75": 1519, "5mm</w>": 1520, "stell": 1521, "stellar</w>": 1522, "food": 1523, "foods</w>": 1524, "hannah.": 1525, "83": 1526, "insu": 1527, "73": 1528, "gist": 1529, "bluebir": 1530, "bluebird</w>": 1531, "insura": 1532, "insurance</w>": 1533, "4mm</w>": 1534, "northwind</w>": 1535, "logist": 1536, "logistics</w>": 1537, "oy": 1538, "oc": 1539, "son": 1540, "60": 1541, "xx": 1542, "tanaka": 1543, "vb": 1544, "gt": 1545, "2mm</w>": 1546, "21": 1547, "8mm</w>": 1548, "j</w>": 1549, "63": 1550, "je": 1551, "iq": 1552, "rq": 1553, "90": 1554, "3mm</w>": 1555, "ay": 1556, "johans": 1557, "johansson": 1558, "9mm</w>": 1559, "95": 1560, "uu": 1561, "jk": 1562, "@db-prod-4": 1563, "@db-prod-4.internal.acme.co:5432/customers</w>": 1564, "fv": 1565, "xq": 1566, "ol": 1567, "ez": 1568, "jp": 1569, "hz": 1570, "hq": 1571, "rz": 1572, "dt": 1573, "7mm</w>": 1574, "@db-prod-3": 1575, "@db-prod-3.internal.acme.co:5432/customers</w>": 1576, "gk": 1577, "mendoza": 1578, "xz": 1579, "cz": 1580, "fk": 1581, "11.": 1582, "6mm</w>": 1583, "jb": 1584, "+1-2": 1585, "uz": 1586, "10</w>": 1587, "garcia": 1588, "jv": 1589, "nq": 1590, "10.0.2": 1591, "$4": 1592, "fb": 1593, "jm": 1594, "93": 1595, "4.</w>": 1596, "fg": 1597, "rx": 1598, "hx": 1599, "uq": 1600, "12</w>": 1601, "hl": 1602, "@db-prod-7": 1603, "@db-prod-7.internal.acme.co:5432/customers</w>": 1604, "nz": 1605, "@db-prod-5": 1606, "@db-prod-5.internal.acme.co:5432/customers</w>": 1607, "nx": 1608, "fd": 1609, "fp": 1610, "cq": 1611, "@db-prod-2": 1612, "@db-prod-2.internal.acme.co:5432/customers</w>": 1613, "md": 1614, "ix": 1615, "ve": 1616, "tz": 1617, "fe": 1618, "mk": 1619, "@db-prod-9": 1620, "@db-prod-9.internal.acme.co:5432/customers</w>": 1621, "@db-prod-8": 1622, "@db-prod-8.internal.acme.co:5432/customers</w>": 1623, "gg": 1624, "vk": 1625, "2;</w>": 1626, "5.</w>": 1627, "51": 1628, "ww": 1629, "@db-prod-6": 1630, "@db-prod-6.internal.acme.co:5432/customers</w>": 1631, "bb": 1632, "j5": 1633, "3z": 1634, "hn": 1635, "rn": 1636, "v</w>": 1637, "61": 1638, "cx": 1639, "6;</w>": 1640, "pp": 1641, "iu": 1642, "@db-prod-1": 1643, "@db-prod-1.internal.acme.co:5432/customers</w>": 1644, "rl": 1645, "hu": 1646, "fs": 1647, "9;</w>": 1648, "8;</w>": 1649, "7z": 1650, "6z": 1651, "7;</w>": 1652, "f9": 1653, "ru": 1654, "yn": 1655, "dk": 1656, "yw": 1657, "mg": 1658, "pk": 1659, "0q": 1660, "vd": 1661, "rh": 1662, "1;</w>": 1663, "4;</w>": 1664, "3-": 1665, "sk": 1666, "j2": 1667, "5;</w>": 1668, "81": 1669, "71": 1670, "6q": 1671, "wn": 1672, "3;</w>": 1673, "vs": 1674, "3q": 1675, "tx": 1676, "bd": 1677, "vg": 1678, "2.</w>": 1679, "fm": 1680, "yc": 1681, "eu": 1682, "bs": 1683, "0.</w>": 1684, "0;</w>": 1685, "9q": 1686, "bk": 1687, "wu": 1688, "tq": 1689, "ps": 1690, "tu": 1691, "11</w>": 1692, "j1": 1693, "bg": 1694, "tn": 1695, "ih": 1696, "4z": 1697, "yy": 1698, "ds": 1699, "lq": 1700, "pg": 1701, "91": 1702, "9z": 1703, "4q": 1704, "-0": 1705, "8x": 1706, "ux": 1707, "7q": 1708, "f0": 1709, "oi": 1710, "8z": 1711, "5z": 1712, "cn": 1713, "mp": 1714, "5x": 1715, "4,</w>": 1716, "bp": 1717, "2z": 1718, "eh": 1719, "yh": 1720, "6x": 1721, "ja": 1722, "og": 1723, "dd": 1724, "$3": 1725, "iw": 1726, ".2": 1727, "bv": 1728, "1q": 1729, "2q": 1730, "cc": 1731, "1z": 1732, "j8": 1733, "m5": 1734, "f6": 1735, "2x": 1736, "j0": 1737, "iy": 1738, "j9": 1739, "rr": 1740, "ul": 1741, "f4": 1742, "+1-4": 1743, "hh": 1744, "j6": 1745, "5q": 1746, "bm": 1747, "f7": 1748, "1x": 1749, "ae": 1750, "wy": 1751, "3x": 1752, "wc": 1753, "j7": 1754, "5-": 1755, "nu": 1756, "1h": 1757, "nl": 1758, "kd": 1759, "2l": 1760, "rc": 1761, "4-": 1762, "vo": 1763, "yt": 1764, "4x": 1765, "vm": 1766, "pe": 1767, "3l": 1768, "$8": 1769, "7-": 1770, "1n": 1771, "sd": 1772, "6-": 1773, "0x": 1774, "v7": 1775, "(yuki.": 1776, "(olivia.": 1777, "2u": 1778, "kk": 1779, "$1": 1780, "f3": 1781, "f8": 1782, "(chris.": 1783, "4l": 1784, "$6": 1785, "7,</w>": 1786, "1l": 1787, "f5": 1788, "9x": 1789, "$7": 1790, "gs": 1791, "mo": 1792, "wl": 1793, "ik": 1794, "va": 1795, "3m</w>": 1796, "(marcus.": 1797, "j3": 1798, "2,</w>": 1799, "v2": 1800, "gd": 1801, "4u": 1802, "7x": 1803, "yr": 1804, "pm": 1805, "(diego.": 1806, "v0": 1807, "2-": 1808, "hc": 1809, "/198": 1810, "1m</w>": 1811, "5l": 1812, "(priya.": 1813, "6l": 1814, "4y": 1815, "wi": 1816, "b8": 1817, "6,</w>": 1818, "2n": 1819, "9l": 1820, "4n": 1821, "v8": 1822, "qz": 1823, "pa": 1824, "0l": 1825, "3n": 1826, "w</w>": 1827, "dm": 1828, "1u": 1829, "$9": 1830, "(jordan.": 1831, "(hannah.": 1832, "os": 1833, "(tom\u00e1s.": 1834, "gp": 1835, "7u": 1836, "(aisha.": 1837, "/196": 1838, "(wei.": 1839, "km": 1840, "(alex.": 1841, "/197": 1842, "(samira.": 1843, "1,000</w>": 1844, "b6": 1845, "v9": 1846, "wt": 1847, "cy": 1848, "fa": 1849, "barc8": 1850, "ks": 1851, "ei": 1852, "f1": 1853, "(mei.": 1854, "jj": 1855, "f2": 1856, "kg": 1857, "qq": 1858, "11/": 1859, "5m</w>": 1860, "9-": 1861, "0h": 1862, "b3": 1863, "v5": 1864, "j.</w>": 1865, "4h": 1866, "6n": 1867, "b7": 1868, "b2": 1869, "6u": 1870, "v3": 1871, "07/": 1872, "es": 1873, "0u": 1874, "gm": 1875, "8,</w>": 1876, "ny": 1877, "1y": 1878, "6h": 1879, "tt": 1880, "5,000</w>": 1881, "6c": 1882, "7l": 1883, "xl": 1884, "p8": 1885, "+1-3": 1886, "5y": 1887, "go": 1888, "rw": 1889, "ii": 1890, "3u": 1891, "0n": 1892, "5h": 1893, "p9": 1894, "01/": 1895, "8-": 1896, "9,</w>": 1897, "wk": 1898, "+1-5": 1899, "g7": 1900, "wd": 1901, "2c": 1902, "6m</w>": 1903, "/199": 1904, "rt": 1905, "3)</w>": 1906, "g8": 1907, "1c": 1908, "0y": 1909, "3,000</w>": 1910, "m9": 1911, "ko": 1912, "10.0.1": 1913, "fj": 1914, "b9": 1915, "rd": 1916, "m7": 1917, "0-": 1918, "09/": 1919, "3c": 1920, "s9": 1921, "nh": 1922, "zu": 1923, "/194": 1924, "2m</w>": 1925, "se": 1926, "3h": 1927, "vf": 1928, "r</w>": 1929, "4c": 1930, "pb": 1931, "barc7": 1932, "10/": 1933, "m8": 1934, "kb": 1935, "06/": 1936, "vj": 1937, "3t": 1938, "zq": 1939, "oa": 1940, "7c": 1941, "5u": 1942, "id": 1943, "kp": 1944, "barc9": 1945, "g9": 1946, "ie": 1947, "5n": 1948, "1)</w>": 1949, "zx": 1950, "5c": 1951, "mb": 1952, "4m</w>": 1953, "7m</w>": 1954, "12/": 1955, "6w": 1956, "7h": 1957, "nn": 1958, "4t": 1959, "3w": 1960, "da": 1961, "2h": 1962, "4w": 1963, "xh": 1964, "jf": 1965, "03/": 1966, "3y": 1967, "o9": 1968, "pv": 1969, "2y": 1970, "5t": 1971, "02/": 1972, "a8": 1973, "0t": 1974, "p7": 1975, "xy": 1976, "zl": 1977, "0c": 1978, "0w": 1979, "8m</w>": 1980, "oe": 1981, "04/": 1982, "barc6": 1983, "sg": 1984, "05/": 1985, "0m</w>": 1986, "6t": 1987, "9h": 1988, "/195": 1989, "7y": 1990, "8u": 1991, "4,000</w>": 1992, "b1": 1993, "7t": 1994, "3.": 1995, "kv": 1996, "bf": 1997, "zz": 1998, "xc": 1999, "sp": 2000, "6,000</w>": 2001, "8l": 2002, "6y": 2003, "sv": 2004, "6r": 2005, "5)</w>": 2006, "qu": 2007, "08/": 2008, "m1": 2009, "zh": 2010, "1.": 2011, "ee": 2012, "ka": 2013, "dg": 2014, "xn": 2015, "3r": 2016, "dp": 2017, "2,000</w>": 2018, "k9": 2019, "m2": 2020, "qy": 2021, "k.</w>": 2022, "dj": 2023, "wg": 2024, "7n": 2025, "hy": 2026, "uy": 2027, "zn": 2028, "ab": 2029, "1t": 2030, "ov": 2031, "0,000</w>": 2032, "d9": 2033, "o8": 2034, "mv": 2035, "zc": 2036, "zt": 2037, "-36": 2038, "4r": 2039, "df": 2040, "db": 2041, "uh": 2042, "2t": 2043, "0i": 2044, "sa": 2045, "sb": 2046, "j.": 2047, "qx": 2048, "gv": 2049, "8y": 2050, "kj": 2051, "5i": 2052, "s7": 2053, "qt": 2054, "g2": 2055, "nw": 2056, "9)</w>": 2057, "5-2": 2058, "3i": 2059, "2)</w>": 2060, "8w": 2061, "p2": 2062, "s2": 2063, "9m</w>": 2064, "o6": 2065, "d7": 2066, "3-9": 2067, "ut": 2068, "qh": 2069, "pj": 2070, "bj": 2071, "58,</w>": 2072, "0r": 2073, "a9": 2074, "52,</w>": 2075, "qc": 2076, "gj": 2077, "p5": 2078, "yi": 2079, "o2": 2080, "4i": 2081, "8c": 2082, "$48": 2083, "o.</w>": 2084, "zw": 2085, "1r": 2086, "d3": 2087, "xw": 2088, "xt": 2089, "6i": 2090, "/24": 2091, "8h": 2092, "54,</w>": 2093, "a3": 2094, "d1": 2095, "4)</w>": 2096, "http://k8s-master-2": 2097, "http://k8s-master-2.internal.northwind.io/admin/users</w>": 2098, "/26": 2099, "pf": 2100, "8r": 2101, "a7": 2102, "p4": 2103, "k2": 2104, "9c": 2105, "zr": 2106, "xu": 2107, "lu": 2108, "k7": 2109, "k8s-master-0": 2110, "k8s-master-0.internal.northwind.io</w>": 2111, "/28": 2112, "mj": 2113, "35%</w>": 2114, "q</w>": 2115, "hr": 2116, "5w": 2117, ".1": 2118, "oj": 2119, "barc2": 2120, "m.</w>": 2121, "nr": 2122, "f.": 2123, "o5": 2124, "http://k8s-master-0": 2125, "http://k8s-master-0.internal.northwind.io/admin/users</w>": 2126, "8,000</w>": 2127, "/20": 2128, "k8s-master-3": 2129, "k8s-master-3.internal.northwind.io</w>": 2130, "20%</w>": 2131, "http://k8s-master-3": 2132, "http://k8s-master-3.internal.northwind.io/admin/users</w>": 2133, "d8": 2134, "qw": 2135, "aj": 2136, "-56": 2137, "$39": 2138, "o1": 2139, "$27": 2140, "dv": 2141, "cw": 2142, "m6": 2143, "o4": 2144, "b0": 2145, "ye": 2146, "m4": 2147, "m3": 2148, "9y": 2149, "$47": 2150, "qr": 2151, "$28": 2152, "s8": 2153, "d2": 2154, "m0": 2155, "3-7": 2156, "-59": 2157, "57,</w>": 2158, "g6": 2159, "k0": 2160, "17%</w>": 2161, "hi": 2162, "g3": 2163, "-52": 2164, "ev": 2165, "1-7": 2166, "k6": 2167, "d4": 2168, "xi": 2169, "k8s-master-5": 2170, "k8s-master-5.internal.northwind.io</w>": 2171, "$29": 2172, "56,</w>": 2173, "b5": 2174, "k3": 2175, "k5": 2176, "k1": 2177, "zy": 2178, "59,</w>": 2179, "3-2": 2180, "2w": 2181, "v1": 2182, "ci": 2183, "s0": 2184, "9w": 2185, "a5": 2186, "-58": 2187, "g0": 2188, "hw": 2189, "d6": 2190, "qn": 2191, "http://k8s-master-4": 2192, "http://k8s-master-4.internal.northwind.io/admin/users</w>": 2193, "g5": 2194, "/27": 2195, "3-6": 2196, "p3": 2197, "9n": 2198, "a.</w>": 2199, "9t": 2200, "0)</w>": 2201, "2r": 2202, "gf": 2203, "p.": 2204, "lx": 2205, "5-7": 2206, "7r": 2207, "kf": 2208, "9u": 2209, "4.": 2210, "p0": 2211, "3-8": 2212, "mf": 2213, "k8s-master-1": 2214, "k8s-master-1.internal.northwind.io</w>": 2215, "s5": 2216, "23%</w>": 2217, "/21": 2218, "b.": 2219, "p6": 2220, "k8s-master-2": 2221, "k8s-master-2.internal.northwind.io</w>": 2222, "1-9": 2223, "9,000</w>": 2224, "s4": 2225, "k8s-master-4": 2226, "k8s-master-4.internal.northwind.io</w>": 2227, "1w": 2228, "s1": 2229, "v6": 2230, "http://k8s-master-5": 2231, "http://k8s-master-5.internal.northwind.io/admin/users</w>": 2232, "/23": 2233, "o0": 2234, "7w": 2235, "6)</w>": 2236, "41%</w>": 2237, "8n": 2238, "-54": 2239, "3-4": 2240, "j4": 2241, "g1": 2242, "p1": 2243, "ly": 2244, "b4": 2245, "s3": 2246, "b.</w>": 2247, "ui": 2248, "ga": 2249, "v.": 2250, "sf": 2251, "44,</w>": 2252, "25%</w>": 2253, "$5": 2254, "-32": 2255, "sj": 2256, "g4": 2257, "$.</w>": 2258, "4-2": 2259, "18%</w>": 2260, "28%</w>": 2261, "9r": 2262, "26%</w>": 2263, "-39": 2264, "$12": 2265, "k4": 2266, "o7": 2267, "7,000</w>": 2268, "1-8": 2269, "v4": 2270, "uw": 2271, "5.": 2272, "lz": 2273, "cr": 2274, "http://vault-4": 2275, "http://vault-4.prod.acme.co/admin/users</w>": 2276, "2.": 2277, "d5": 2278, "ln": 2279, "38%</w>": 2280, "8-8": 2281, "ej": 2282, "37%</w>": 2283, "15%</w>": 2284, "aa": 2285, "42%</w>": 2286, "49,</w>": 2287, "@.</w>": 2288, "%.</w>": 2289, "68,</w>": 2290, "$18": 2291, "+1-40": 2292, "qi": 2293, "8)</w>": 2294, "u</w>": 2295, "barc4": 2296, "http://k8s-master-1": 2297, "http://k8s-master-1.internal.northwind.io/admin/users</w>": 2298, "$30": 2299, "7-2": 2300, "32%</w>": 2301, "ni": 2302, "47,</w>": 2303, "-50": 2304, "-34": 2305, "-57": 2306, "$32": 2307, "31%</w>": 2308, "$44": 2309, "$49": 2310, "-37": 2311, "v.</w>": 2312, "5-4": 2313, "5-8": 2314, "+1-56": 2315, "8i": 2316, "30%</w>": 2317, "lh": 2318, "44%</w>": 2319, "f_": 2320, "39%</w>": 2321, "-38": 2322, "$26": 2323, "$10": 2324, "-30": 2325, "tr": 2326, "-66": 2327, "0-7": 2328, "em": 2329, "9i": 2330, "$37": 2331, "10.0.16": 2332, "$34": 2333, "0-8": 2334, "lc": 2335, "$40": 2336, "7e": 2337, "i4": 2338, "ao": 2339, "7)</w>": 2340, "43%</w>": 2341, "$36": 2342, "4-9": 2343, "16%</w>": 2344, "40%</w>": 2345, "/25": 2346, "+1-48": 2347, "46,</w>": 2348, "s6": 2349, "/24/19": 2350, "7i": 2351, "-68": 2352, "24%</w>": 2353, "19%</w>": 2354, "67,</w>": 2355, "64,</w>": 2356, "barc3": 2357, "09/19": 2358, "a0": 2359, "-40": 2360, "33%</w>": 2361, "0-4": 2362, "/22": 2363, "4-7": 2364, "1g": 2365, "8t": 2366, "3e": 2367, "42,</w>": 2368, "48,</w>": 2369, "eb": 2370, "xr": 2371, "1-6": 2372, "lw": 2373, "6v": 2374, "+1-37": 2375, "5r": 2376, "2-8": 2377, "-69": 2378, "d0": 2379, "6-8": 2380, "10.0.18": 2381, "a2": 2382, "yk": 2383, "10.0.17": 2384, "$19": 2385, "10.0.10": 2386, "barc5": 2387, "o3": 2388, "03/19": 2389, "$22": 2390, "+1-79": 2391, "zi": 2392, "1i": 2393, "34%</w>": 2394, "cd": 2395, "g.": 2396, "2-7": 2397, "2-2": 2398, "cv": 2399, "7-8": 2400, "7k": 2401, "89,</w>": 2402, "ck": 2403, "22%</w>": 2404, "4-8": 2405, "/28/19": 2406, "62,</w>": 2407, "66,</w>": 2408, "6-4": 2409, "69,</w>": 2410, "8k": 2411, "+1-52": 2412, "j_": 2413, "6-7": 2414, "86,</w>": 2415, "redis-2": 2416, "redis-2.staging.helix.bio</w>": 2417, "r.</w>": 2418, "96,</w>": 2419, "2e": 2420, "02/19": 2421, "3d": 2422, "10.9;</w>": 2423, "5e": 2424, "-99": 2425, "29%</w>": 2426, "82,</w>": 2427, "+1-88": 2428, "vault-5": 2429, "vault-5.prod.acme.co</w>": 2430, "10.0.19": 2431, "+1-58": 2432, "2-4": 2433, "6e": 2434, "+1-38": 2435, "8-4": 2436, "$38": 2437, "hk": 2438, "06/19": 2439, "redis-5": 2440, "redis-5.staging.helix.bio</w>": 2441, "$14": 2442, "55,</w>": 2443, "3f": 2444, "10.0.22": 2445, "postgresql://admin:x": 2446, "8-6": 2447, "http://vault-1": 2448, "http://vault-1.prod.acme.co/admin/users</w>": 2449, "http://redis-4": 2450, "http://redis-4.staging.helix.bio/admin/users</w>": 2451, "36%</w>": 2452, "8.7;</w>": 2453, "af": 2454, "yg": 2455, "0d": 2456, "postgresql://admin:q": 2457, "349": 2458, "lr": 2459, "!.</w>": 2460, "hb": 2461, "17/19": 2462, "+1-67": 2463, "v_": 2464, "m_": 2465, "e1": 2466, "r2": 2467, "password=z": 2468, "$16": 2469, "04/19": 2470, "07/19": 2471, "m.": 2472, "w2": 2473, "12/19": 2474, "-z": 2475, "51-": 2476, "6-6": 2477, "45%</w>": 2478, "rp": 2479, "35.</w>": 2480, "8-2": 2481, "vault-1": 2482, "vault-1.prod.acme.co</w>": 2483, "21%</w>": 2484, "h5": 2485, "iv": 2486, "http://vault-3": 2487, "http://vault-3.prod.acme.co/admin/users</w>": 2488, "#.</w>": 2489, "8e": 2490, "+1-27": 2491, "-12": 2492, "/26/19": 2493, "5-9": 2494, "do": 2495, "$17": 2496, "http://redis-3": 2497, "http://redis-3.staging.helix.bio/admin/users</w>": 2498, "nm": 2499, "uc": 2500, "9g": 2501, "6-9": 2502, "16/19": 2503, "redis-9": 2504, "redis-9.staging.helix.bio</w>": 2505, "http://redis-9": 2506, "http://redis-9.staging.helix.bio/admin/users</w>": 2507, "14/19": 2508, "7-6": 2509, "2-9": 2510, "7-7": 2511, "xe": 2512, "4-6": 2513, "wv": 2514, "2-6": 2515, "yb": 2516, "9d": 2517, "+1-69": 2518, "3b": 2519, "-10": 2520, "yp": 2521, "z</w>": 2522, "uk": 2523, "openai_api_key=sk-l": 2524, "xv": 2525, "xg": 2526, "11/19": 2527, "4-4": 2528, "36,</w>": 2529, "45,</w>": 2530, "zk": 2531, "ng": 2532, "wb": 2533, "50.</w>": 2534, "+1-49": 2535, "72,</w>": 2536, "http://vault-6": 2537, "http://vault-6.prod.acme.co/admin/users</w>": 2538, "-19": 2539, "0s": 2540, "ys": 2541, "7-4": 2542, "password=q": 2543, "87,</w>": 2544, "postgresql://admin:t": 2545, "/20/19": 2546, "/27/19": 2547, "a6": 2548, "http://vault-2": 2549, "http://vault-2.prod.acme.co/admin/users</w>": 2550, "0-2": 2551, "yj": 2552, "zd": 2553, "http://vault-7": 2554, "http://vault-7.prod.acme.co/admin/users</w>": 2555, "w5": 2556, "ub": 2557, "openai_api_key=sk-q": 2558, "01/19": 2559, "+1-59": 2560, "http://vault-5": 2561, "http://vault-5.prod.acme.co/admin/users</w>": 2562, "18/19": 2563, "n5": 2564, "$46": 2565, "34.</w>": 2566, "redis-1": 2567, "redis-1.staging.helix.bio</w>": 2568, "+1-36": 2569, "http://vault-8": 2570, "http://vault-8.prod.acme.co/admin/users</w>": 2571, "8-9": 2572, "4f": 2573, "vault-6": 2574, "vault-6.prod.acme.co</w>": 2575, "nv": 2576, "9k": 2577, "13/19": 2578, "88,</w>": 2579, "ip": 2580, "7-9": 2581, "redis-3": 2582, "redis-3.staging.helix.bio</w>": 2583, "10/19": 2584, "wj": 2585, "6-2": 2586, "cg": 2587, "eo": 2588, "+1-29": 2589, "27%</w>": 2590, "vault-7": 2591, "vault-7.prod.acme.co</w>": 2592, "vault-8": 2593, "vault-8.prod.acme.co</w>": 2594, "ud": 2595, "9-6": 2596, "-18": 2597, "rb": 2598, "postgresql://admin:u": 2599, "+1-99": 2600, "74,</w>": 2601, "i5": 2602, "10.0.12": 2603, "wm": 2604, "hm": 2605, "11-": 2606, "9.5;</w>": 2607, "6.8;</w>": 2608, "2s": 2609, "1b": 2610, "38,</w>": 2611, "akiam": 2612, "10.8;</w>": 2613, "8.2;</w>": 2614, "8-7": 2615, "77,</w>": 2616, "r3": 2617, "w7": 2618, "n7": 2619, "n6": 2620, "99,</w>": 2621, "+1-47": 2622, "ij": 2623, "c.": 2624, "10.6;</w>": 2625, "+1-78": 2626, "4d": 2627, "8.3;</w>": 2628, "eyjs": 2629, "10.0.14": 2630, "qd": 2631, "akiav": 2632, "vault-3": 2633, "vault-3.prod.acme.co</w>": 2634, "ef": 2635, "34</w>": 2636, "8f": 2637, "h2": 2638, "cm": 2639, "x0": 2640, "z5": 2641, "0-9": 2642, "akian": 2643, "ym": 2644, "12.</w>": 2645, "9-8": 2646, "4k": 2647, "rj": 2648, "4g": 2649, "r8": 2650, "w0": 2651, "http://redis-6": 2652, "http://redis-6.staging.helix.bio/admin/users</w>": 2653, "11.2;</w>": 2654, "http://redis-8": 2655, "http://redis-8.staging.helix.bio/admin/users</w>": 2656, "6.6;</w>": 2657, "08/19": 2658, "/21/19": 2659, "http://redis-2": 2660, "http://redis-2.staging.helix.bio/admin/users</w>": 2661, "+1-22": 2662, "vault-4": 2663, "vault-4.prod.acme.co</w>": 2664, "4v": 2665, "0b": 2666, "nj": 2667, "-x": 2668, "9-9": 2669, "ho": 2670, "vault-2": 2671, "vault-2.prod.acme.co</w>": 2672, "3m": 2673, "7.3;</w>": 2674, "0-6": 2675, "http://redis-5": 2676, "http://redis-5.staging.helix.bio/admin/users</w>": 2677, "+1-44": 2678, "tp": 2679, "79,</w>": 2680, "c.</w>": 2681, "+1-54": 2682, "hg": 2683, "ns": 2684, "5-6": 2685, "e7": 2686, "54.</w>": 2687, "7.1;</w>": 2688, "+1-57": 2689, "nk": 2690, "redis-7": 2691, "redis-7.staging.helix.bio</w>": 2692, "akiag": 2693, "9a": 2694, "7p": 2695, "hd": 2696, "0g": 2697, "yv": 2698, ".17": 2699, "e6": 2700, "6.9;</w>": 2701, "redis-8": 2702, "redis-8.staging.helix.bio</w>": 2703, "9v": 2704, "up": 2705, "wf": 2706, "s_": 2707, "2b": 2708, "u2": 2709, "337": 2710, "qk": 2711, "+1-39": 2712, "11.1;</w>": 2713, "uj": 2714, "5d": 2715, "cb": 2716, "i.</w>": 2717, "8v": 2718, "35</w>": 2719, "w9": 2720, "05/19": 2721, "8.8;</w>": 2722, "0k": 2723, "xp": 2724, "rv": 2725, "7b": 2726, "openai_api_key=sk-u": 2727, "hp": 2728, "7v": 2729, "76,</w>": 2730, "yd": 2731, "11.0;</w>": 2732, "+1-50": 2733, "78,</w>": 2734, "xk": 2735, "redis-4": 2736, "redis-4.staging.helix.bio</w>": 2737, "rg": 2738, "8.4;</w>": 2739, "58.</w>": 2740, "+1-32": 2741, "98,</w>": 2742, "http://redis-7": 2743, "http://redis-7.staging.helix.bio/admin/users</w>": 2744, "1e": 2745, "ghp": 2746, "akiar": 2747, "9-7": 2748, "31,</w>": 2749, "/23/19": 2750, "cf": 2751, "password=s": 2752, "ws": 2753, "3j": 2754, "2o": 2755, "xd": 2756, "94,</w>": 2757, "zg": 2758, "z2": 2759, "34,</w>": 2760, "password=t": 2761, "4e": 2762, "http://redis-1": 2763, "http://redis-1.staging.helix.bio/admin/users</w>": 2764, "yf": 2765, "uf": 2766, "3k": 2767, "rm": 2768, "/1980,</w>": 2769, "1v": 2770, "6d": 2771, "7.0;</w>": 2772, "10.5;</w>": 2773, "10.2;</w>": 2774, "57.</w>": 2775, "_.": 2776, "8.0;</w>": 2777, "t.</w>": 2778, "z0": 2779, "4p": 2780, "nd": 2781, "4m": 2782, "6k": 2783, "f-": 2784, "18</w>": 2785, "y6": 2786, "7.2;</w>": 2787, "4b": 2788, "15,</w>": 2789, "56.</w>": 2790, "tb": 2791, "11.4;</w>": 2792, "8b": 2793, "4s": 2794, "vault-9": 2795, "vault-9.prod.acme.co</w>": 2796, "barc1": 2797, "52.</w>": 2798, "9-4": 2799, "akiaq": 2800, "15.</w>": 2801, "38.</w>": 2802, "qs": 2803, "1s": 2804, "xo": 2805, "7.4;</w>": 2806, "im": 2807, "x6": 2808, "_q": 2809, "1k": 2810, "ze": 2811, "9.1;</w>": 2812, "15/19": 2813, "td": 2814, "_l": 2815, "0j": 2816, "+1-34": 2817, "8m": 2818, "+1-68": 2819, "ne": 2820, "9.2;</w>": 2821, "2k": 2822, "akias": 2823, "35,</w>": 2824, "ug": 2825, "00.</w>": 2826, "316": 2827, "y.": 2828, "w.</w>": 2829, "3p": 2830, "9p": 2831, "akial": 2832, "qg": 2833, "/1943,</w>": 2834, "50</w>": 2835, "3g": 2836, "8.5;</w>": 2837, "http://vault-9": 2838, "http://vault-9.prod.acme.co/admin/users</w>": 2839, "redis-6": 2840, "redis-6.staging.helix.bio</w>": 2841, "akiad": 2842, "2v": 2843, "tg": 2844, "7.6;</w>": 2845, "wp": 2846, "9f": 2847, "1p": 2848, "9-2": 2849, "39.</w>": 2850, "7g": 2851, "5b": 2852, "5k": 2853, "537": 2854, "qj": 2855, "-87": 2856, "1-2": 2857, "6.7;</w>": 2858, "8g": 2859, "5f": 2860, "ca": 2861, "39,</w>": 2862, "9o": 2863, "36</w>": 2864, "/1963,</w>": 2865, "10.7;</w>": 2866, "3s": 2867, "8j": 2868, "i1": 2869, "o-": 2870, "h.</w>": 2871, "-14": 2872, "ua": 2873, "postgresql://admin:h": 2874, "9.7;</w>": 2875, "40</w>": 2876, "6p": 2877, "8d": 2878, "8.9;</w>": 2879, "x.</w>": 2880, "+1-28": 2881, "cj": 2882, "_x": 2883, "hs": 2884, "qf": 2885, "1d": 2886, "9.3;</w>": 2887, "8.6;</w>": 2888, "uv": 2889, "97,</w>": 2890, "40.</w>": 2891, "/1970,</w>": 2892, "10.</w>": 2893, "openai_api_key=sk-z": 2894, "+1-77": 2895, "59.</w>": 2896, "$67": 2897, "/1941,</w>": 2898, "-17": 2899, "xf": 2900, "/25/19": 2901, "14,</w>": 2902, "-.": 2903, "ghp_i": 2904, "akiap": 2905, "lp": 2906, "akiaw": 2907, "tm": 2908, "/1951,</w>": 2909, "xb": 2910, "58</w>": 2911, "2g": 2912, "qv": 2913, "cp": 2914, "lk": 2915, "r6": 2916, "19</w>": 2917, "/22/19": 2918, "18,</w>": 2919, "y5": 2920, "$11": 2921, "h3": 2922, "59</w>": 2923, "9m": 2924, "tk": 2925, "7.9;</w>": 2926, "9.6;</w>": 2927, "i3": 2928, "akiai": 2929, "92,</w>": 2930, "c7": 2931, "317": 2932, "9.4;</w>": 2933, "c3": 2934, "lg": 2935, "10.0.11": 2936, "um": 2937, "tf": 2938, "9s": 2939, "z3": 2940, "209": 2941, "-16": 2942, "5s": 2943, "7d": 2944, "hf": 2945, "akiak": 2946, "38</w>": 2947, "/1965,</w>": 2948, "0o": 2949, "/1973,</w>": 2950, ".x": 2951, ".16": 2952, "+1-30": 2953, "+1-89": 2954, "10.1;</w>": 2955, "akiac": 2956, "c5": 2957, "cs": 2958, "9.8;</w>": 2959, "01-": 2960, "416": 2961, "zp": 2962, "np": 2963, "/1981,</w>": 2964, "postgresql://admin:l": 2965, "/1960,</w>": 2966, "340": 2967, "qa": 2968, "qe": 2969, "19.</w>": 2970, "b_": 2971, "32,</w>": 2972, "akiau": 2973, "429": 2974, "0e": 2975, "84,</w>": 2976, "1m": 2977, "4j": 2978, "57</w>": 2979, "/1940,</w>": 2980, "0m": 2981, "14</w>": 2982, "n.</w>": 2983, "xj": 2984, "6s": 2985, "c9": 2986, "$42": 2987, "0p": 2988, "39</w>": 2989, "5p": 2990, "postgresql://admin:@": 2991, "i2": 2992, "309": 2993, "4a": 2994, "10,</w>": 2995, "n3": 2996, "/1991,</w>": 2997, "password=r": 2998, "336": 2999, "z.</w>": 3000, "postgresql://admin:#": 3001, "12/30.</w>": 3002, "5g": 3003, "8s": 3004, "19,</w>": 3005, "u1": 3006, "-79": 3007, "1f": 3008, "18.</w>": 3009, "t1": 3010, "zj": 3011, "10.4;</w>": 3012, "ya": 3013, "y9": 3014, "_n": 3015, "+1-46": 3016, "597": 3017, "hv": 3018, "7a": 3019, "517": 3020, "rf": 3021, "io": 3022, "327": 3023, "136": 3024, "qm": 3025, "if": 3026, "w6": 3027, "__": 3028, "y2": 3029, "-35": 3030, "n2": 3031, "189": 3032, "tj": 3033, "u0": 3034, "04/26.</w>": 3035, "12,</w>": 3036, "+1-42": 3037, "-n": 3038, "17,</w>": 3039, "password=k": 3040, "/1950,</w>": 3041, "h0": 3042, "7.7;</w>": 3043, "$56": 3044, "9j": 3045, "-26": 3046, "254": 3047, "xa": 3048, "qb": 3049, "11.</w>": 3050, "w8": 3051, "/1985,</w>": 3052, "37</w>": 3053, "526": 3054, "c0": 3055, "openai_api_key=sk-2": 3056, "lj": 3057, "rk": 3058, "_z": 3059, "password=h": 3060, "akia1": 3061, "h7": 3062, "9e": 3063, "gb10": 3064, "1a": 3065, "134": 3066, "u7": 3067, "500": 3068, "538": 3069, "7.5;</w>": 3070, "_y": 3071, "akiaz": 3072, "w1": 3073, "5v": 3074, "postgresql://admin:!": 3075, "5m": 3076, "ghp_z": 3077, "37.</w>": 3078, "-77": 3079, "+1-86": 3080, "c2": 3081, "/1971,</w>": 3082, "u.</w>": 3083, "31-": 3084, "10.3;</w>": 3085, "r7": 3086, "6o": 3087, "2p": 3088, "539": 3089, "267": 3090, "/1983,</w>": 3091, "128": 3092, "557": 3093, "xm": 3094, "e2": 3095, ".18": 3096, "l0": 3097, "239": 3098, "_c": 3099, "10.0;</w>": 3100, "01/29.</w>": 3101, "$57": 3102, "6b": 3103, "357": 3104, "nf": 3105, "gb19": 3106, "postgresql://admin:z": 3107, "-88": 3108, "7.8;</w>": 3109, "tv": 3110, "06/26.</w>": 3111, "469": 3112, "354": 3113, "$59": 3114, "password=!": 3115, "536": 3116, "w3": 3117, "e4": 3118, "y4": 3119, "11.3;</w>": 3120, "9.0;</w>": 3121, "26.</w>": 3122, "+1-87": 3123, "8p": 3124, "y0": 3125, "208": 3126, "669": 3127, "qo": 3128, "6j": 3129, "password=%": 3130, "047": 3131, "q3": 3132, "8.1;</w>": 3133, "26</w>": 3134, "i7": 3135, "330": 3136, "2j": 3137, "2m": 3138, "to": 3139, "319": 3140, "ld": 3141, "629": 3142, "46</w>": 3143, "-62": 3144, "05/29.</w>": 3145, ".22": 3146, "49</w>": 3147, "54</w>": 3148, "132": 3149, "347": 3150, "v-": 3151, "6a": 3152, "_r": 3153, "12/31.</w>": 3154, "314": 3155, "-49": 3156, "is": 3157, "3v": 3158, "i9": 3159, "i0": 3160, "t4": 3161, "5j": 3162, "110": 3163, "zm": 3164, "q.</w>": 3165, "552": 3166, "16.</w>": 3167, "qp": 3168, "9.9;</w>": 3169, "356": 3170, "password=u": 3171, "+1-26": 3172, "157": 3173, "-w": 3174, "wo": 3175, "eyjq": 3176, "yo": 3177, "668": 3178, "1o": 3179, "468": 3180, "gb52": 3181, "i8": 3182, "lf": 3183, "x3": 3184, "t5": 3185, "akiat": 3186, "17.</w>": 3187, "01/30.</w>": 3188, "46.</w>": 3189, "lm": 3190, "338": 3191, "password=#": 3192, "11/31.</w>": 3193, "427": 3194, "$58": 3195, "e.": 3196, "12/26.</w>": 3197, "379": 3198, "h8": 3199, "hj": 3200, "644": 3201, "n9": 3202, "598": 3203, "password=@": 3204, "17</w>": 3205, "lb": 3206, "l.</w>": 3207, "7s": 3208, ".14": 3209, "08/32.</w>": 3210, "u6": 3211, "x7": 3212, "/1953,</w>": 3213, "gb12": 3214, "xs": 3215, "u4": 3216, "ghp_q": 3217, "352": 3218, "y1": 3219, ".9": 3220, "/1995,</w>": 3221, "647": 3222, ".11": 3223, "u9": 3224, "667": 3225, "42.</w>": 3226, "l8": 3227, "10/30.</w>": 3228, "599": 3229, "u3": 3230, "55.</w>": 3231, "a-": 3232, "-67": 3233, "e9": 3234, "456": 3235, "7m": 3236, "e8": 3237, "gb74": 3238, "-t": 3239, "436": 3240, "-28": 3241, "829": 3242, "67.</w>": 3243, "gb61": 3244, "45.</w>": 3245, "05.</w>": 3246, "openai_api_key=sk-y": 3247, "c1": 3248, "n1": 3249, "l2": 3250, "04/31.</w>": 3251, "7f": 3252, "r0": 3253, "04/30.</w>": 3254, "35m</w>": 3255, ".19": 3256, "gb78": 3257, "49.</w>": 3258, "4o": 3259, "zf": 3260, "334": 3261, "l5": 3262, "09.</w>": 3263, "z.": 3264, "33,</w>": 3265, "l9": 3266, "439": 3267, "/1975,</w>": 3268, "-29": 3269, "ghp_c": 3270, "akiah": 3271, "r.": 3272, "n0": 3273, "gb30": 3274, "744": 3275, "05/28.</w>": 3276, "816": 3277, "01.</w>": 3278, "6g": 3279, "barc17": 3280, "06/29.</w>": 3281, "u8": 3282, "t2": 3283, "307": 3284, "618": 3285, "05/27.</w>": 3286, "567": 3287, "04/27.</w>": 3288, "2f": 3289, "658": 3290, "/1990,</w>": 3291, "password=y": 3292, "08/31.</w>": 3293, "0v": 3294, "akiay": 3295, "13,</w>": 3296, "28,</w>": 3297, "password=$": 3298, "nb": 3299, "07/28.</w>": 3300, "gb63": 3301, "/1993,</w>": 3302, "559": 3303, "03/26.</w>": 3304, "postgresql://admin:%": 3305, "x5": 3306, "-98": 3307, ".5": 3308, "11/32.</w>": 3309, "-48": 3310, "t8": 3311, "2d": 3312, "lv": 3313, "8o": 3314, "22,</w>": 3315, "532": 3316, "barc22": 3317, "207": 3318, "$69": 3319, "gb59": 3320, "openai_api_key=sk-x": 3321, "_w": 3322, "a4": 3323, "c4": 3324, "6m": 3325, "ts": 3326, "140": 3327, "eyjy": 3328, "-97": 3329, "519": 3330, "z7": 3331, "h4": 3332, "zb": 3333, "t7": 3334, "07/26.</w>": 3335, "openai_api_key=sk-t": 3336, "12/32.</w>": 3337, "password=n": 3338, "+1-76": 3339, "3-5": 3340, "149": 3341, "e5": 3342, "56</w>": 3343, "16</w>": 3344, "_h": 3345, "508": 3346, "12/27.</w>": 3347, "q.": 3348, "112": 3349, "barc48": 3350, "gb49": 3351, "$88": 3352, "09/28.</w>": 3353, "01/28.</w>": 3354, "x1": 3355, "312": 3356, "gb13": 3357, "152": 3358, "e0": 3359, "postgresql://admin:c": 3360, "gb50": 3361, "310": 3362, "postgresql://admin:w": 3363, "380": 3364, "07/27.</w>": 3365, "gb72": 3366, "zs": 3367, "29.</w>": 3368, "n.": 3369, "339": 3370, "-h": 3371, "q2": 3372, "barc69": 3373, "37,</w>": 3374, "10/32.</w>": 3375, "268": 3376, "barc37": 3377, "k_": 3378, "zv": 3379, "06/30.</w>": 3380, "password=c": 3381, "02/26.</w>": 3382, "gb41": 3383, "+1-66": 3384, "z9": 3385, "948": 3386, "0f": 3387, "gb32": 3388, "05/32.</w>": 3389, "410": 3390, "openai_api_key=sk-c": 3391, "807": 3392, "x9": 3393, "w4": 3394, "3o": 3395, "_u": 3396, "gb29": 3397, "779": 3398, "47.</w>": 3399, "gb45": 3400, "9b": 3401, "00</w>": 3402, "gb37": 3403, "510": 3404, "14.</w>": 3405, "ghp_r": 3406, "09,</w>": 3407, "432": 3408, "gb82": 3409, "48.</w>": 3410, "7o": 3411, "5-5": 3412, "2a": 3413, "postgresql://admin:j": 3414, "44</w>": 3415, "$66": 3416, "_p": 3417, "e_": 3418, ".6": 3419, "10/29.</w>": 3420, "gb80": 3421, "154": 3422, "-76": 3423, "gb83": 3424, "x4": 3425, "454": 3426, "l1": 3427, "549": 3428, "5o": 3429, "gb79": 3430, "159": 3431, "-y": 3432, ".12": 3433, "gb35": 3434, "15</w>": 3435, "t0": 3436, "234": 3437, "zo": 3438, "eyjl": 3439, "e3": 3440, "832": 3441, "02/28.</w>": 3442, "250": 3443, "556": 3444, "r4": 3445, "38,000</w>": 3446, "$77": 3447, "z4": 3448, "512": 3449, "08/26.</w>": 3450, "postgresql://admin:n": 3451, "256": 3452, "12/29.</w>": 3453, "210": 3454, "08/30.</w>": 3455, "27.</w>": 3456, "-27": 3457, "01/32.</w>": 3458, "28</w>": 3459, "639": 3460, "eyjh": 3461, "/1961,</w>": 3462, "11,</w>": 3463, "_m": 3464, "gb67": 3465, "gb70": 3466, "516": 3467, "postgresql://admin:r": 3468, "11/27.</w>": 3469, "06/27.</w>": 3470, "06.</w>": 3471, "barc27": 3472, "h9": 3473, "11/26.</w>": 3474, "z1": 3475, "450": 3476, "02/29.</w>": 3477, "barc19": 3478, "y7": 3479, "_d": 3480, "za": 3481, "gb42": 3482, "08/29.</w>": 3483, "318": 3484, "n4": 3485, "5a": 3486, "uo": 3487, "350": 3488, "q8": 3489, "7j": 3490, "f@": 3491, "gb31": 3492, "password=l": 3493, ".10": 3494, "00,</w>": 3495, "v%": 3496, "t3": 3497, "a!": 3498, "z8": 3499, "819": 3500, "postgresql://admin:p": 3501, "03/27.</w>": 3502, "g-": 3503, "130": 3504, "39,000</w>": 3505, "gb60": 3506, "607": 3507, "158": 3508, "332": 3509, "632": 3510, "069": 3511, "gb16": 3512, "258": 3513, "barc78": 3514, "v@": 3515, "62.</w>": 3516, "gb48": 3517, "40,000</w>": 3518, "457": 3519, "openai_api_key=sk-i": 3520, "-22": 3521, "10,000</w>": 3522, "t6": 3523, "622": 3524, "627": 3525, "gb93": 3526, "gb18": 3527, "u.": 3528, "ghp_w": 3529, "02.</w>": 3530, "09/29.</w>": 3531, "postgresql://admin:i": 3532, "05/31.</w>": 3533, "password=d": 3534, "-r": 3535, "mendoza1": 3536, "gb20": 3537, "$52": 3538, "44.</w>": 3539, "11/28.</w>": 3540, "438": 3541, "528": 3542, "gb66": 3543, "09/27.</w>": 3544, "gb26": 3545, "35,000</w>": 3546, "eyju": 3547, "gb56": 3548, "m!": 3549, "01/27.</w>": 3550, "358": 3551, "postgresql://admin:k": 3552, "$15": 3553, ".l": 3554, "barc29": 3555, "gb47": 3556, "barc99": 3557, "428": 3558, "6f": 3559, "gb40": 3560, "y8": 3561, "79</w>": 3562, "-78": 3563, "26,</w>": 3564, "gb88": 3565, "138": 3566, "78.</w>": 3567, "68.</w>": 3568, "#y": 3569, "q5": 3570, "649": 3571, "232": 3572, "postgresql://admin:m": 3573, "736": 3574, "05/30.</w>": 3575, "07/30.</w>": 3576, "barc26": 3577, "g_": 3578, "gb27": 3579, "137": 3580, "10/31.</w>": 3581, "259": 3582, "+1-62": 3583, "$54": 3584, "419": 3585, "ghp_k": 3586, "389": 3587, "gb62": 3588, "openai_api_key=sk-g": 3589, "04,</w>": 3590, "577": 3591, "699": 3592, "06/28.</w>": 3593, "gb84": 3594, ".c": 3595, "09/31.</w>": 3596, "730": 3597, "759": 3598, "barc67": 3599, "-42": 3600, "eyjr": 3601, "568": 3602, "68</w>": 3603, "452": 3604, "03/28.</w>": 3605, "o_": 3606, "postgresql://admin:s": 3607, "558": 3608, "password=x": 3609, "z6": 3610, "_v": 3611, "216": 3612, "11/30.</w>": 3613, "openai_api_key=sk-b": 3614, "gb38": 3615, "05</w>": 3616, "akia0": 3617, "gb55": 3618, "728": 3619, "gb14": 3620, "gb43": 3621, "q0": 3622, "openai_api_key=sk-r": 3623, "518": 3624, "eyjn": 3625, "554": 3626, "12/28.</w>": 3627, "534": 3628, "-90": 3629, "$z": 3630, "27</w>": 3631, "password=j": 3632, "$45": 3633, "d_": 3634, "03/31.</w>": 3635, "gb96": 3636, "252": 3637, "689": 3638, "822": 3639, "i6": 3640, "$k": 3641, "756": 3642, "t-": 3643, "ghp_y": 3644, "h6": 3645, "+1-31": 3646, "eyjx": 3647, "04/28.</w>": 3648, "barc28": 3649, "gb75": 3650, "gb54": 3651, "06,</w>": 3652, "2i": 3653, "748": 3654, "g+": 3655, "password=e": 3656, "-92": 3657, "t9": 3658, "05,</w>": 3659, "ghp_x": 3660, "4-5": 3661, "q9": 3662, "gb23": 3663, "password=b": 3664, "119": 3665, "gb99": 3666, "barc52": 3667, "w.": 3668, "610": 3669, "10/27.</w>": 3670, "gb81": 3671, "$35": 3672, "109": 3673, "02/27.</w>": 3674, "gb69": 3675, "$h": 3676, "412": 3677, "gb24": 3678, "11,000</w>": 3679, "$31": 3680, "61-": 3681, "76</w>": 3682, "39m</w>": 3683, "04.</w>": 3684, "tanaka1": 3685, "550": 3686, "openai_api_key=sk-n": 3687, "608": 3688, "698": 3689, "51.</w>": 3690, "58,000</w>": 3691, "139": 3692, "l7": 3693, "i-": 3694, "248": 3695, "postgresql://admin:b": 3696, "3a": 3697, "10/26.</w>": 3698, "15,000</w>": 3699, "408": 3700, "gb76": 3701, "akia9": 3702, "10.0.15": 3703, "2-5": 3704, "430": 3705, "c8": 3706, "25.</w>": 3707, "36m</w>": 3708, "69</w>": 3709, "gb53": 3710, "gb28": 3711, "eyj-": 3712, "11)</w>": 3713, "709": 3714, "gb87": 3715, "/y": 3716, "306": 3717, "07,</w>": 3718, "00,000</w>": 3719, "07/29.</w>": 3720, "password=i": 3721, "$68": 3722, "16,</w>": 3723, "gb68": 3724, "11/29.</w>": 3725, "password=g": 3726, "gb57": 3727, "569": 3728, "la": 3729, "p%": 3730, "41-": 3731, "f%": 3732, "%u": 3733, "_e": 3734, "36,000</w>": 3735, "m@": 3736, "u5": 3737, "41</w>": 3738, "$87": 3739, "barc36": 3740, "52,000</w>": 3741, "$78": 3742, "47</w>": 3743, "30,000</w>": 3744, "ghp_u": 3745, "gb77": 3746, "652": 3747, "gb71": 3748, "04/29.</w>": 3749, "578": 3750, "y_": 3751, "1j": 3752, "710": 3753, "m-": 3754, "169": 3755, "56,000</w>": 3756, "-31-": 3757, "737": 3758, "17,000</w>": 3759, "eyjd": 3760, "y3": 3761, "06/32.</w>": 3762, "94.</w>": 3763, ".8": 3764, "+n": 3765, "038": 3766, "!%": 3767, "$79": 3768, "/z": 3769, "07/32.</w>": 3770, "03/29.</w>": 3771, "gb46": 3772, "609": 3773, "-89": 3774, "179": 3775, "59m</w>": 3776, "gb22": 3777, "28.</w>": 3778, "eyjg": 3779, "10/28.</w>": 3780, "ghp_o": 3781, "212": 3782, "q1": 3783, "09/30.</w>": 3784, "l.": 3785, "akia7": 3786, "-13": 3787, "eyjc": 3788, "j-": 3789, "k-": 3790, "244": 3791, "gb44": 3792, "$89": 3793, "openai_api_key=sk-v": 3794, "v+": 3795, "03/32.</w>": 3796, "t_": 3797, "barc56": 3798, "640": 3799, "54,000</w>": 3800, "barc49": 3801, "-72": 3802, ".7": 3803, "-11": 3804, "022": 3805, "600": 3806, "200": 3807, "13.</w>": 3808, "-15": 3809, "$y": 3810, "32,000</w>": 3811, "348": 3812, "07/31.</w>": 3813, "akia4": 3814, "637": 3815, "/</w>": 3816, "openai_api_key=sk-k": 3817, "156": 3818, "30</w>": 3819, "35)</w>": 3820, "79.</w>": 3821, "02/30.</w>": 3822, "password=o": 3823, "-82": 3824, "$$": 3825, "188": 3826, "217": 3827, "788": 3828, "59,000</w>": 3829, "754": 3830, "589": 3831, "762": 3832, "588": 3833, "ia1": 3834, "700": 3835, "barc47": 3836, "x2": 3837, "c6": 3838, "barc44": 3839, "#i": 3840, "h1": 3841, "722": 3842, "66.</w>": 3843, "eyj_": 3844, "57,000</w>": 3845, "08.</w>": 3846, "gb51": 3847, "20,</w>": 3848, "08/27.</w>": 3849, "14,000</w>": 3850, "gb65": 3851, "619": 3852, "gb58": 3853, "barc88": 3854, "24.</w>": 3855, "x8": 3856, "67</w>": 3857, "gb94": 3858, "257": 3859, "n8": 3860, "0a": 3861, "636": 3862, "@t": 3863, "422": 3864, "-33": 3865, "h_": 3866, "07</w>": 3867, "$t": 3868, "509": 3869, "10.0.9": 3870, "ghp_l": 3871, "206": 3872, "656": 3873, "openai_api_key=sk-d": 3874, "440": 3875, "729": 3876, "barc77": 3877, "barc87": 3878, ".y": 3879, "$!": 3880, "ghp_h": 3881, "55</w>": 3882, "12m</w>": 3883, "246": 3884, "311": 3885, "044": 3886, "gb89": 3887, "postgresql://admin:y": 3888, "749": 3889, "530": 3890, "t.": 3891, "712": 3892, "barc39": 3893, "barc18": 3894, "718": 3895, "b!": 3896, "646": 3897, "03/30.</w>": 3898, "844": 3899, "p-": 3900, "237": 3901, "@%": 3902, "gb11": 3903, "#!": 3904, "31,000</w>": 3905, "37m</w>": 3906, "278": 3907, "@z": 3908, "gb17": 3909, "gb91": 3910, "19,000</w>": 3911, "236": 3912, "gb33": 3913, "postgresql://admin:$": 3914, "eyjv": 3915, "akia3": 3916, "657": 3917, "329": 3918, "01/31.</w>": 3919, "eyjw": 3920, "ghp_0": 3921, "akiae": 3922, "269": 3923, "r1": 3924, "a_": 3925, "r9": 3926, "34,000</w>": 3927, "gb97": 3928, "016": 3929, ".q": 3930, "openai_api_key=sk-w": 3931, "(jordan.nguyen": 3932, "_-": 3933, "38m</w>": 3934, "_j": 3935, "37,000</w>": 3936, "650": 3937, "gb34": 3938, "33.</w>": 3939, "$55": 3940, "p#": 3941, "76.</w>": 3942, "##": 3943, "ghp_m": 3944, "password=w": 3945, "01/26.</w>": 3946, "638": 3947, "199": 3948, "$d": 3949, "barc38": 3950, "#r": 3951, "418": 3952, "(olivia.nguyen": 3953, "(samira.petrov": 3954, "postgresql://admin:3": 3955, "postgresql://admin:f": 3956, "barc14": 3957, "400": 3958, "06/31.</w>": 3959, "openai_api_key=sk-h": 3960, "72.</w>": 3961, "tom\u00e1s.okafor": 3962, "11.5;</w>": 3963, "(marcus.patel": 3964, "77</w>": 3965, "openai_api_key=sk-p": 3966, "barc12": 3967, "q4": 3968, "ghp_g": 3969, "+z": 3970, "859": 3971, "359": 3972, "n-": 3973, "-47": 3974, "51,</w>": 3975, "42,000</w>": 3976, "ghp_d": 3977, "j%": 3978, "ghp_n": 3979, "33)</w>": 3980, "33,000</w>": 3981, "_t": 3982, "708": 3983, "05/26.</w>": 3984, "barc40": 3985, "q7": 3986, "459": 3987, "23.</w>": 3988, "09/26.</w>": 3989, "@x": 3990, "(priya.brown": 3991, "gb39": 3992, "wei.kim": 3993, "+1-84": 3994, "$76": 3995, "(diego.lee": 3996, "!l": 3997, "707": 3998, "04/32.</w>": 3999, "030": 4000, "150": 4001, "369": 4002, "+l": 4003, "password=a": 4004, "$u": 4005, "/+": 4006, "postgresql://admin:v": 4007, "gb86": 4008, "-c": 4009, "postgresql://admin:e": 4010, "734": 4011, "ghp_e": 4012, "03,</w>": 4013, "e-": 4014, "gb95": 4015, "247": 4016, "f#": 4017, "barc59": 4018, ".z": 4019, "45)</w>": 4020, "24,</w>": 4021, "614": 4022, "chris.brown": 4023, "#z": 4024, "02)</w>": 4025, "011": 4026, "#q": 4027, "029": 4028, "616": 4029, "garcia1": 4030, "654": 4031, "barc68": 4032, "612": 4033, "barc10": 4034, "(aisha.brown": 4035, "02/32.</w>": 4036, "ghp_t": 4037, "ghp_p": 4038, "8a": 4039, "jordan.tanaka": 4040, "04</w>": 4041, "746": 4042, "010": 4043, "399": 4044, "d-": 4045, ".u": 4046, "j+": 4047, "65.</w>": 4048, "postgresql://admin:g": 4049, "09/32.</w>": 4050, "740": 4051, "25,</w>": 4052, "/r": 4053, "732": 4054, "85.</w>": 4055, "678": 4056, "757": 4057, "r-": 4058, "95.</w>": 4059, "eyjz": 4060, "778": 4061, "-53": 4062, "028": 4063, "02/31.</w>": 4064, "41,</w>": 4065, "61.</w>": 4066, "gb36": 4067, "yuki.brown": 4068, "barc66": 4069, "openai_api_key=sk-e": 4070, "o!": 4071, "514": 4072, "-86": 4073, "!k": 4074, "27,</w>": 4075, "57)</w>": 4076, "43</w>": 4077, "+1-35": 4078, "634": 4079, ".3": 4080, "6.5;</w>": 4081, "gb90": 4082, "$24": 4083, "j!": 4084, "barc16": 4085, "@q": 4086, "31m</w>": 4087, "10m</w>": 4088, "@l": 4089, "_s": 4090, "01,</w>": 4091, "-96": 4092, "027": 4093, "/u": 4094, "password=m": 4095, "f/": 4096, "tc</w>": 4097, "48</w>": 4098, "barc50": 4099, "14)</w>": 4100, "53</w>": 4101, "-q": 4102, "489": 4103, "postgresql://admin:7": 4104, "08/28.</w>": 4105, "77.</w>": 4106, "barc89": 4107, "barc54": 4108, "858": 4109, "barc82": 4110, "66)</w>": 4111, "437": 4112, "r5": 4113, "%t": 4114, "-358": 4115, "!h": 4116, "218": 4117, "5_": 4118, "41.</w>": 4119, "$c": 4120, "password=p": 4121, "33-2": 4122, "(priya.okafor": 4123, "eyjt": 4124, "50)</w>": 4125, "barc76": 4126, "716": 4127, "58m</w>": 4128, "gb15": 4129, "034": 4130, "300": 4131, "81-": 4132, "@n": 4133, "99</w>": 4134, "priya.okafor": 4135, "$q": 4136, "758": 4137, "068": 4138, "jordan.m\u00fcller": 4139, "40,</w>": 4140, "password=8": 4141, "@$": 4142, "g!": 4143, "postgresql://admin:8": 4144, "ghp_7": 4145, "postgresql://admin:a": 4146, "129": 4147, "postgresql://admin:2": 4148, "c_": 4149, "akia8": 4150, "gb64": 4151, "!!": 4152, "barc34": 4153, "659": 4154, "230": 4155, "%q": 4156, "18m</w>": 4157, "$r": 4158, "(yuki.m\u00fcller": 4159, "857": 4160, "yuki.smith": 4161, "60,</w>": 4162, "alex.petrov": 4163, "86</w>": 4164, "#u": 4165, "v!": 4166, "13</w>": 4167, "40)</w>": 4168, "19-4": 4169, "#n": 4170, "eyji": 4171, "31)</w>": 4172, "postgresql://admin:0": 4173, "02,</w>": 4174, "(yuki.okafor": 4175, "56m</w>": 4176, "v$": 4177, "617": 4178, "tom\u00e1s.patel": 4179, "032": 4180, "49)</w>": 4181, "mei.smith": 4182, "(aisha.clarke": 4183, "06</w>": 4184, ".s": 4185, "60.</w>": 4186, "%x": 4187, "g#": 4188, "67,000</w>": 4189, "gb25": 4190, "(wei.petrov": 4191, "69)</w>": 4192, "29</w>": 4193, "45</w>": 4194, "olivia.brown": 4195, "65</w>": 4196, "(aisha.tanaka": 4197, "y#": 4198, "135": 4199, "%z": 4200, "458": 4201, "426": 4202, "m/": 4203, "810": 4204, "69.</w>": 4205, "eyj8": 4206, "747": 4207, ".r": 4208, "-80": 4209, "279": 4210, "(chris.brown": 4211, "jon": 4212, "-60": 4213, "07.</w>": 4214, "akia2": 4215, "gb85": 4216, "50,000</w>": 4217, "/x": 4218, "$62": 4219, "-d": 4220, "@k": 4221, "219": 4222, "40m</w>": 4223, "#l": 4224, "_b": 4225, "%c": 4226, "+s": 4227, "414": 4228, "(yuki.garcia": 4229, "+k": 4230, "gb73": 4231, "867": 4232, "(tom\u00e1s.nguyen": 4233, "99.</w>": 4234, "ghp_b": 4235, "058": 4236, "openai_api_key=sk-9": 4237, "13m</w>": 4238, "ghp_2": 4239, "v#": 4240, "barc79": 4241, "36.</w>": 4242, ".p": 4243, "50-9": 4244, "335": 4245, "767": 4246, "+h": 4247, "barc58": 4248, "(samira.kim": 4249, "hannah.m\u00fcller": 4250, "mei.m\u00fcller": 4251, "@i": 4252, "c@": 4253, "barc11": 4254, "66</w>": 4255, "i_": 4256, "017": 4257, ".h": 4258, "!t": 4259, "jhz": 4260, "-g": 4261, "89</w>": 4262, "16m</w>": 4263, "l6": 4264, "chris.smith": 4265, "054": 4266, "password=6": 4267, "50m</w>": 4268, "-352": 4269, "6-5": 4270, "postgresql://admin:9": 4271, "tom\u00e1s.clarke": 4272, "!z": 4273, "barc42": 4274, "910": 4275, "$74": 4276, "768": 4277, "648": 4278, "53.</w>": 4279, "m#": 4280, "21.</w>": 4281, "32-9": 4282, "049": 4283, "299": 4284, "697": 4285, "(hannah.clarke": 4286, "417": 4287, "%w": 4288, "(olivia.smith": 4289, "039": 4290, "(diego.brown": 4291, "chris.nguyen": 4292, "16,000</w>": 4293, "b#": 4294, "13,000</w>": 4295, "018": 4296, ".15": 4297, "818": 4298, "628": 4299, "eyjj": 4300, "!u": 4301, "827": 4302, "eyje": 4303, "1-44": 4304, "eyjp": 4305, ".e": 4306, "/q": 4307, "20.</w>": 4308, "-536": 4309, "1-68": 4310, "32)</w>": 4311, "priya.garcia": 4312, "727": 4313, "0_": 4314, "password=9": 4315, "88</w>": 4316, "olivia.m\u00fcller": 4317, "(wei.clarke": 4318, "ghp_4": 4319, "ghp_s": 4320, ".n": 4321, "aisha.johansson": 4322, "eyj7": 4323, "l3": 4324, "87</w>": 4325, "0-5": 4326, "10.0.24": 4327, "postgresql://admin:o": 4328, "gb92": 4329, "$86": 4330, "+d": 4331, "eyj2": 4332, "mei.clarke": 4333, "88.</w>": 4334, "052": 4335, "#s": 4336, "(alex.petrov": 4337, "eyjk": 4338, "27,000</w>": 4339, "79)</w>": 4340, "-46": 4341, "diego.lee": 4342, "l4": 4343, "(yuki.brown": 4344, "(chris.johansson": 4345, "++": 4346, "@w": 4347, "alex.clarke": 4348, "57m</w>": 4349, "50,</w>": 4350, "(chris.petrov": 4351, "@e": 4352, "samira.smith": 4353, "852": 4354, "plw": 4355, "849": 4356, "+u": 4357, "b/": 4358, "40-9": 4359, "$72": 4360, "/i": 4361, "a@": 4362, "24</w>": 4363, "aisha.nguyen": 4364, "(marcus.nguyen": 4365, "133": 4366, "30,</w>": 4367, "password=1": 4368, "1-56": 4369, "barc97": 4370, "09</w>": 4371, "511": 4372, "h-": 4373, "55)</w>": 4374, "_9": 4375, "marcus.smith": 4376, ".23": 4377, "password=7": 4378, "1-28": 4379, "password=0": 4380, "61,</w>": 4381, ".w": 4382, "814": 4383, "barc46": 4384, "(jordan.okafor": 4385, "@y": 4386, "048": 4387, "%h": 4388, "40-2": 4389, "-152": 4390, "akiax": 4391, "4_": 4392, "$n": 4393, "22)</w>": 4394, "barc30": 4395, "samira.clarke": 4396, "postgresql://admin:4": 4397, "38)</w>": 4398, "714": 4399, "413": 4400, "+1-72": 4401, "tom\u00e1s.nguyen": 4402, "19m</w>": 4403, "wei.okafor": 4404, "70.</w>": 4405, "s!": 4406, "%r": 4407, "+1-82": 4408, "alex.brown": 4409, "82)</w>": 4410, "diego.patel": 4411, "barc32": 4412, "+e": 4413, "39-8": 4414, "b+": 4415, "611": 4416, "52</w>": 4417, "olivia.lee": 4418, ".v": 4419, "!p": 4420, "056": 4421, "911": 4422, "samira.petrov": 4423, "47,000</w>": 4424, "717": 4425, "@h": 4426, "chris.kim": 4427, "samira.lee": 4428, "(mei.kim": 4429, "-44": 4430, "515": 4431, "22</w>": 4432, "937": 4433, "52)</w>": 4434, "$s": 4435, "1-52": 4436, "53,</w>": 4437, "+1-45": 4438, "20</w>": 4439, "54m</w>": 4440, "29,</w>": 4441, "marcus.brown": 4442, "-20": 4443, "ueq": 4444, "(priya.garcia": 4445, "808": 4446, "014": 4447, "%y": 4448, "63.</w>": 4449, "aisha.brown": 4450, "diego.tanaka": 4451, "marcus.clarke": 4452, "jordan.clarke": 4453, "59-8": 4454, "g/": 4455, "(yuki.mendoza": 4456, "password=3": 4457, "(chris.okafor": 4458, "-228": 4459, "(mei.smith": 4460, "922": 4461, "fgh": 4462, "067": 4463, "(tom\u00e1s.m\u00fcller": 4464, "$33": 4465, "789": 4466, "postgresql://admin:5": 4467, "10.0.34": 4468, "22,000</w>": 4469, "(jordan.kim": 4470, "a+": 4471, "olivia.nguyen": 4472, "chris.johansson": 4473, "-11-": 4474, "30)</w>": 4475, "726": 4476, "y%": 4477, "23,</w>": 4478, "1-38": 4479, "8_": 4480, "409": 4481, "gcq": 4482, "s#": 4483, "467": 4484, "15-4": 4485, "18,000</w>": 4486, "c!": 4487, "/b": 4488, "@u": 4489, "82.</w>": 4490, "-300": 4491, "password=4": 4492, "847": 4493, "samira.nguyen": 4494, "(marcus.lee": 4495, "vln": 4496, "(jordan.smith": 4497, "!#": 4498, "(alex.kim": 4499, "057": 4500, "19-8": 4501, "65,</w>": 4502, "45,000</w>": 4503, "yuki.tanaka": 4504, "(olivia.patel": 4505, "478": 4506, "fty": 4507, "368": 4508, "604": 4509, "00m</w>": 4510, "i+": 4511, "$l": 4512, "719": 4513, "977": 4514, "-m": 4515, "ghp_1": 4516, "-338": 4517, "postgresql://admin:d": 4518, "w_": 4519, "766": 4520, "-339": 4521, "scq": 4522, "479": 4523, "!x": 4524, "21,</w>": 4525, "jordan.kim": 4526, "742": 4527, "openai_api_key=sk-0": 4528, "wei.mendoza": 4529, "81,</w>": 4530, "12,000</w>": 4531, "-500": 4532, "samira.kim": 4533, "026": 4534, "z_": 4535, "(tom\u00e1s.kim": 4536, "password=2": 4537, "akiab": 4538, "m%": 4539, "postgresql://admin:6": 4540, "13-6": 4541, "sfh": 4542, "$%": 4543, "$x": 4544, "ou</w>": 4545, "jcz": 4546, "33-6": 4547, "/l": 4548, "diego.clarke": 4549, "-o": 4550, "$84": 4551, "e!": 4552, "06,000</w>": 4553, "69,000</w>": 4554, "$p": 4555, "(samira.tanaka": 4556, "211": 4557, "73@outlook.com</w>": 4558, "+1-25": 4559, "(samira.smith": 4560, "949": 4561, "1-47": 4562, "-74": 4563, "eyj1": 4564, "499": 4565, "barc98": 4566, "13-2": 4567, "_6": 4568, "899": 4569, "fxx": 4570, "eyjm": 4571, "(priya.clarke": 4572, "529": 4573, "gxq": 4574, "653": 4575, "645": 4576, "barc80": 4577, "blx": 4578, "samira.patel": 4579, "chris.m\u00fcller": 4580, "priya.smith": 4581, "877": 4582, "openai_api_key=sk-o": 4583, "yuz": 4584, "535": 4585, "57-9": 4586, "mvn": 4587, "(alex.smith": 4588, "aisha.garcia": 4589, "jw</w>": 4590, "gz</w>": 4591, "(chris.lee": 4592, "password=f": 4593, "mei.lee": 4594, "(wei.lee": 4595, "(wei.patel": 4596, "mei.nguyen": 4597, "w-": 4598, "71-": 4599, "5-3": 4600, "ghp_8": 4601, "(diego.m\u00fcller": 4602, "y/": 4603, "yuki.m\u00fcller": 4604, "o+": 4605, "(chris.nguyen": 4606, "(marcus.petrov": 4607, "630": 4608, "@j": 4609, "43.</w>": 4610, "wax": 4611, "mei.okafor": 4612, "(wei.smith": 4613, "fdi": 4614, "eyj4": 4615, "tom\u00e1s.smith": 4616, "gb98": 4617, "(aisha.nguyen": 4618, "54-8": 4619, "59)</w>": 4620, "(hannah.mendoza": 4621, "14m</w>": 4622, "#0": 4623, "ghp_a": 4624, "50-4": 4625, "@#": 4626, "36)</w>": 4627, "alex.tanaka": 4628, "1-48": 4629, "238": 4630, "(hannah.petrov": 4631, "70,</w>": 4632, "p!": 4633, "olivia.clarke": 4634, "olivia.smith": 4635, "pyx": 4636, "#%": 4637, "alex.lee": 4638, "63,</w>": 4639, "9_": 4640, "59-2": 4641, "(priya.m\u00fcller": 4642, "diego.johansson": 4643, "10-2": 4644, "openai_api_key=sk-5": 4645, "marcus.nguyen": 4646, "3-39": 4647, "hannah.kim": 4648, "barc92": 4649, "aisha.lee": 4650, "hannah.garcia": 4651, "52-6": 4652, "(priya.nguyen": 4653, "aisha.petrov": 4654, "barc57": 4655, "fhu": 4656, "u_": 4657, "yuki.kim": 4658, "fjr": 4659, "c-": 4660, "-337": 4661, "jordan.petrov": 4662, "1-67": 4663, "+r": 4664, "fqx": 4665, "$w": 4666, "214": 4667, "29,000</w>": 4668, "@!": 4669, ".g": 4670, "(diego.kim": 4671, "+x": 4672, "eyj6": 4673, "samira.tanaka": 4674, "16-6": 4675, "36-6": 4676, "1-22": 4677, "-422": 4678, "r_": 4679, "u%": 4680, "869": 4681, ".j": 4682, "+1-803": 4683, "$i": 4684, "04,000</w>": 4685, "(tom\u00e1s.patel": 4686, "(hannah.brown": 4687, "pcu": 4688, "jordan.nguyen": 4689, "(mei.patel": 4690, "!r": 4691, "pfn": 4692, "83.</w>": 4693, "(marcus.clarke": 4694, "akiaj": 4695, "26,000</w>": 4696, "a/": 4697, "gbx": 4698, "202": 4699, "1-96": 4700, "(aisha.okafor": 4701, "wei.johansson": 4702, "kih": 4703, "57-6": 4704, "priya.clarke": 4705, "-94": 4706, "jhx": 4707, "(mei.lee": 4708, "#h": 4709, "#w": 4710, "yuki.okafor": 4711, "%!": 4712, "03,000</w>": 4713, "marcus.petrov": 4714, "32</w>": 4715, "olivia.johansson": 4716, "78</w>": 4717, "!n": 4718, "75.</w>": 4719, "chris.lee": 4720, "(diego.nguyen": 4721, "13-8": 4722, "03)</w>": 4723, "fln": 4724, "vbz": 4725, "!d": 4726, "54)</w>": 4727, "openai_api_key=sk-j": 4728, "2_": 4729, "16-2": 4730, "435": 4731, "eyjb": 4732, "chris.mendoza": 4733, "#p": 4734, "$25": 4735, "hannah.mendoza": 4736, "@r": 4737, "812": 4738, "+1-300": 4739, "gzn": 4740, "(alex.clarke": 4741, "15-7": 4742, "fvq": 4743, "q-": 4744, "07,000</w>": 4745, "openai_api_key=sk-6": 4746, "q/": 4747, "vth": 4748, "eyj9": 4749, "68,000</w>": 4750, "samira.brown": 4751, "-856": 4752, "(marcus.m\u00fcller": 4753, "-340": 4754, "ll.</w>": 4755, "fby": 4756, "34m</w>": 4757, "606": 4758, "%m": 4759, "(jordan.clarke": 4760, "whl": 4761, "615": 4762, "22.</w>": 4763, "poy": 4764, "64.</w>": 4765, "$259m</w>": 4766, "48,000</w>": 4767, "akiaf": 4768, "-e": 4769, "26-9": 4770, "%n": 4771, "806": 4772, "samira.m\u00fcller": 4773, "1_": 4774, "68-7": 4775, "(marcus.mendoza": 4776, "diego.mendoza": 4777, "$255": 4778, "240": 4779, "60</w>": 4780, "/w": 4781, "q+": 4782, "aisha.patel": 4783, "7_": 4784, "-319": 4785, "(mei.m\u00fcller": 4786, "(olivia.tanaka": 4787, "foz": 4788, "hannah.lee": 4789, "cll": 4790, "177": 4791, "dzc": 4792, "tom\u00e1s.lee": 4793, "+1-966": 4794, "213": 4795, "jdt": 4796, "priya.lee": 4797, "8.2": 4798, "1-32": 4799, "+p": 4800, "wei.clarke": 4801, "(diego.smith": 4802, "e@": 4803, "-734": 4804, "s@": 4805, "j#": 4806, "barc35": 4807, "tom\u00e1s.johansson": 4808, "priya.patel": 4809, "18-8": 4810, "10.0.219": 4811, "mei.mendoza": 4812, "-43": 4813, "1-69": 4814, "019": 4815, "ghp_f": 4816, "800": 4817, "krn": 4818, "pu</w>": 4819, "olivia.kim": 4820, "dyx": 4821, "+/": 4822, "8%": 4823, "68-8": 4824, "dxq": 4825, "(hannah.johansson": 4826, "gbw": 4827, "vzl": 4828, "036": 4829, "(aisha.kim": 4830, "g@": 4831, "050": 4832, "fnz": 4833, ".k": 4834, "31</w>": 4835, "(hannah.patel": 4836, "inz": 4837, "059": 4838, "+1-64": 4839, "08,000</w>": 4840, "32-8": 4841, "+1-908": 4842, "53)</w>": 4843, "05,000</w>": 4844, "vea": 4845, "854": 4846, "jyz": 4847, "mkt": 4848, "205": 4849, "akia5": 4850, "priya.brown": 4851, "pw</w>": 4852, "1.2": 4853, "alex.smith": 4854, "01,000</w>": 4855, "bfq": 4856, "_o": 4857, "(chris.smith": 4858, "828": 4859, "(hannah.tanaka": 4860, "akiao": 4861, "$85": 4862, "jsh": 4863, "#x": 4864, "#e": 4865, "fsn": 4866, "fvv": 4867, "jtq": 4868, "gzu": 4869, "n$": 4870, "(hannah.m\u00fcller": 4871, "7-5": 4872, "vtn": 4873, "202</w>": 4874, "priya.johansson": 4875, "30m</w>": 4876, "yuki.patel": 4877, "750": 4878, "barc24": 4879, "kxr": 4880, "(mei.tanaka": 4881, "ryq": 4882, "(priya.mendoza": 4883, "openai_api_key=sk-m": 4884, "-350": 4885, "fmh": 4886, "aav": 4887, "33</w>": 4888, "32m</w>": 4889, "alex.mendoza": 4890, "83,</w>": 4891, "bff": 4892, "eyjo": 4893, "08</w>": 4894, "(yuki.patel": 4895, "openai_api_key=sk-1": 4896, "642": 4897, "-f": 4898, "934": 4899, "72@acme.co,</w>": 4900, "a#": 4901, "+1-74": 4902, "barc96": 4903, "bnz": 4904, "vxx": 4905, "52-9": 4906, "-154": 4907, "10.0.43": 4908, "(yuki.nguyen": 4909, "k/": 4910, "vuh": 4911, "diego.smith": 4912, "3-58": 4913, "diego.nguyen": 4914, "v/": 4915, "jux": 4916, "priya.m\u00fcller": 4917, "866": 4918, "j@": 4919, "84</w>": 4920, "lix": 4921, "+i": 4922, "i#": 4923, ".t": 4924, "$366m</w>": 4925, "(diego.garcia": 4926, "olivia.okafor": 4927, ".13": 4928, "owy": 4929, "f+": 4930, "atn": 4931, "+1-24": 4932, "10.0.201": 4933, "(chris.patel": 4934, "/k": 4935, "41@northwind.io,</w>": 4936, "98)</w>": 4937, "openai_api_key=sk-f": 4938, "1-37": 4939, "(tom\u00e1s.lee": 4940, "bq</w>": 4941, "yzw": 4942, "das": 4943, "fcz": 4944, "626": 4945, "hannah.clarke": 4946, "18-7": 4947, "29-9": 4948, "-468": 4949, "yxy": 4950, "889": 4951, "+1-977": 4952, "-_": 4953, "eyj3": 4954, "+1-955": 4955, "(alex.patel": 4956, "10-6": 4957, "(olivia.johansson": 4958, "3-30": 4959, "23)</w>": 4960, "fku": 4961, "cu</w>": 4962, "diego.petrov": 4963, "bhg": 4964, "(tom\u00e1s.tanaka": 4965, "atl": 4966, "sws": 4967, "gb21": 4968, "$90": 4969, "+y": 4970, "jiz": 4971, "jtc": 4972, "10.0.174.": 4973, "openai_api_key=sk-4": 4974, "dhu": 4975, "put": 4976, "-83": 4977, "suz": 4978, "679": 4979, "vwx": 4980, "6-32": 4981, "(olivia.lee": 4982, "ghp_9": 4983, "57-4": 4984, "%e": 4985, "9-58": 4986, "drn": 4987, "(marcus.smith": 4988, "(jordan.patel": 4989, "n_": 4990, "-136": 4991, "5-32": 4992, "jdb": 4993, "11/17/19": 4994, "862": 4995, "ksz": 4996, "+g": 4997, "mzt": 4998, "gem": 4999, "vgz": 5000, "fgu": 5001, "vup": 5002, "vhc": 5003, "barc62": 5004, "802": 5005, "bad": 5006, "60.": 5007, "(samira.patel": 5008, "-210": 5009, "pix": 5010, "tom\u00e1s.brown": 5011, "(mei.johansson": 5012, "postgresql://admin:1": 5013, "jkq": 5014, "l_": 5015, "1-99": 5016, "jordan.brown": 5017, "olq": 5018, "y-": 5019, "#o": 5020, "$282m</w>": 5021, "-936": 5022, "85,</w>": 5023, "olivia.garcia": 5024, "733": 5025, "245": 5026, "vrl": 5027, "45@northwind.io</w>": 5028, "ecq": 5029, "f!": 5030, "411": 5031, "mrz": 5032, "dez": 5033, "fkr": 5034, "25</w>": 5035, "74.</w>": 5036, "meh": 5037, "gqz": 5038, "pl</w>": 5039, "jmy": 5040, "999": 5041, "kxy": 5042, "bvq": 5043, "roz": 5044, "veh": 5045, "(mei.clarke": 5046, "jek": 5047, "$@": 5048, "738": 5049, "44,000</w>": 5050, "1-79": 5051, "liw": 5052, "ctq": 5053, "alex.kim": 5054, "71.</w>": 5055, "655": 5056, "wei.m\u00fcller": 5057, "12-8": 5058, "16)</w>": 5059, "752": 5060, "(olivia.mendoza": 5061, "$307m</w>": 5062, "48)</w>": 5063, "3+": 5064, "19)</w>": 5065, "-516": 5066, "aaz": 5067, ".b": 5068, "(yuki.kim": 5069, "3.2": 5070, "aisha.okafor": 5071, "priya.nguyen": 5072, "037": 5073, "706": 5074, "eyjf": 5075, "gmc": 5076, "15m</w>": 5077, "jft": 5078, "fth": 5079, "+1-204": 5080, "10.0.242": 5081, "1-40": 5082, "fgn": 5083, "$g": 5084, "jzn": 5085, "chris.clarke": 5086, "50@outlook.com</w>": 5087, "#4": 5088, "pih": 5089, "(alex.tanaka": 5090, "fwh": 5091, "fpn": 5092, "92.</w>": 5093, "228": 5094, "10.0.204": 5095, "wqq": 5096, "02,000</w>": 5097, "15-9": 5098, "vwd": 5099, "(tom\u00e1s.garcia": 5100, "15-6": 5101, "17m</w>": 5102, "tyk": 5103, "j/": 5104, "vdq": 5105, "oux": 5106, "pkc": 5107, "jsm": 5108, "edq": 5109, "94)</w>": 5110, "msx": 5111, "(chris.m\u00fcller": 5112, "(priya.lee": 5113, "(marcus.johansson": 5114, "tyh": 5115, "k$": 5116, "(jordan.johansson": 5117, "h!": 5118, "mjz": 5119, "bok": 5120, "25,000</w>": 5121, "ijz": 5122, "wxd": 5123, "434": 5124, "914": 5125, "(samira.brown": 5126, "ooz": 5127, "(tom\u00e1s.okafor": 5128, "3-54": 5129, "u/": 5130, "830": 5131, "d+": 5132, "@0": 5133, "kav": 5134, "wdx": 5135, "pdq": 5136, "3ou": 5137, "bil": 5138, "(marcus.tanaka": 5139, "81)</w>": 5140, "gb19barc": 5141, "yuki.johansson": 5142, "(tom\u00e1s.clarke": 5143, "!c": 5144, "p+": 5145, "fil": 5146, "-132": 5147, "37-6": 5148, "57-8": 5149, "-j": 5150, "coh": 5151, "(wei.okafor": 5152, "02</w>": 5153, "q6": 5154, "juy": 5155, "-907": 5156, "10.0.48": 5157, "(marcus.kim": 5158, "46-4": 5159, "(samira.nguyen": 5160, "38-4": 5161, "09,000</w>": 5162, "08,</w>": 5163, "dfh": 5164, "26@outlook.com,</w>": 5165, "sxc": 5166, "449": 5167, "56-6": 5168, "kal": 5169, "35-8": 5170, "bfb": 5171, "012": 5172, "yz</w>": 5173, "tet": 5174, "mmq": 5175, "myq": 5176, "!g": 5177, "mdw": 5178, "alex.johansson": 5179, "vso": 5180, "pox": 5181, "wvq": 5182, "86@helix.bio</w>": 5183, "plx": 5184, "ftq": 5185, "(diego.tanaka": 5186, "ppg": 5187, "lln": 5188, "gfn": 5189, "11m</w>": 5190, "wq</w>": 5191, "samira.mendoza": 5192, "28)</w>": 5193, "%v": 5194, "17-7": 5195, "jfc": 5196, "fyu": 5197, "w#": 5198, "izu": 5199, "fry": 5200, "jbq": 5201, "(alex.okafor": 5202, "80.</w>": 5203, "itq": 5204, "44)</w>": 5205, "10.0.59": 5206, "30-2": 5207, "(jordan.m\u00fcller": 5208, "13)</w>": 5209, "-708": 5210, "-112": 5211, "(wei.tanaka": 5212, "kty": 5213, "vre": 5214, "14-2": 5215, "3-36": 5216, "(wei.nguyen": 5217, "10.0.191.": 5218, "497": 5219, "ghc": 5220, "x_": 5221, "ryi": 5222, "2.2": 5223, "(hannah.garcia": 5224, "+1-849": 5225, "47@acme.co,</w>": 5226, "leq": 5227, "10.0.231": 5228, "(hannah.okafor": 5229, "1-78": 5230, "oqz": 5231, "-969": 5232, "wei.brown": 5233, "scr": 5234, "725": 5235, "vwz": 5236, "btz": 5237, "barc83": 5238, "fjy": 5239, "811": 5240, "vlq": 5241, "846": 5242, "809": 5243, "12)</w>": 5244, "jordan.patel": 5245, "mei.patel": 5246, "952": 5247, "vry": 5248, "fow": 5249, "bsz": 5250, "r#": 5251, "71</w>": 5252, "+1-972": 5253, "y$": 5254, "(olivia.m\u00fcller": 5255, "nuz": 5256, "qlx": 5257, "vzy": 5258, "stn": 5259, "lsz": 5260, "579": 5261, "gic": 5262, "password=5": 5263, "56-4": 5264, "xgq": 5265, "81.</w>": 5266, "kii": 5267, "kzn": 5268, "/h": 5269, "242": 5270, "fpu": 5271, "beu": 5272, "jfr": 5273, "40@acme.co,</w>": 5274, "58-9": 5275, "90.</w>": 5276, "12/26/19": 5277, "10.0.60.": 5278, "jku": 5279, "-512": 5280, "be</w>": 5281, "32@gmail.com,</w>": 5282, "dpz": 5283, "(samira.mendoza": 5284, "jiq": 5285, "jfz": 5286, "62)</w>": 5287, "peg": 5288, "03.</w>": 5289, "dcl": 5290, "kgy": 5291, "kz.</w>": 5292, "+2": 5293, "kkl": 5294, "khy": 5295, "ftu": 5296, "-138": 5297, "jte": 5298, "10.0.183.": 5299, "arh": 5300, "711": 5301, "gpc": 5302, "fnh": 5303, "53-7": 5304, "969": 5305, "bmz": 5306, "fgq": 5307, "jdh": 5308, "jbn": 5309, "85</w>": 5310, "3-56": 5311, "89)</w>": 5312, "ped": 5313, "opt": 5314, "50-6": 5315, "mha": 5316, "dkx": 5317, "tcp": 5318, "ply": 5319, "8q</w>": 5320, "grq": 5321, "szs": 5322, "%b": 5323, "bam": 5324, "sow": 5325, "+1-55": 5326, "dbx": 5327, "$270m</w>": 5328, "wei.nguyen": 5329, "-70": 5330, "oaq": 5331, "f$": 5332, "jki": 5333, "priya.mendoza": 5334, "(diego.petrov": 5335, "/c": 5336, "602": 5337, "+1-244": 5338, "irz": 5339, "msm": 5340, "(olivia.clarke": 5341, "958": 5342, "30-8": 5343, "43,</w>": 5344, "(priya.smith": 5345, "10.0.173.": 5346, "(tom\u00e1s.smith": 5347, "1-66": 5348, "(olivia.petrov": 5349, "yuki.nguyen": 5350, "%l": 5351, "(olivia.kim": 5352, "89.</w>": 5353, "39)</w>": 5354, "+q": 5355, "vax": 5356, "fxh": 5357, "(diego.clarke": 5358, "aisha.kim": 5359, "22@acme.co,</w>": 5360, "0%": 5361, "inq": 5362, "pzc": 5363, "izy": 5364, "61</w>": 5365, "tom\u00e1s.m\u00fcller": 5366, "tlu": 5367, "68)</w>": 5368, "17-9": 5369, "password=v": 5370, "41)</w>": 5371, "ael": 5372, "sll": 5373, "drc": 5374, "(wei.johansson": 5375, "ssn": 5376, "%d": 5377, "@5": 5378, "-336": 5379, "51</w>": 5380, "10.0.207": 5381, "rlq": 5382, "pfx": 5383, "30-9": 5384, "29-8": 5385, "samira.garcia": 5386, "/d": 5387, "(diego.okafor": 5388, "yuki.lee": 5389, "pzz": 5390, "barc72": 5391, "vrx": 5392, "91</w>": 5393, "thz": 5394, "openai_api_key=sk-a": 5395, "eyj0": 5396, ".i": 5397, "chris.okafor": 5398, "909": 5399, "uq</w>": 5400, "13-4": 5401, "fuq": 5402, "_k": 5403, "%o": 5404, "10.0.202": 5405, "jxn": 5406, "52m</w>": 5407, "fyz": 5408, "73,</w>": 5409, "jordan.garcia": 5410, "src": 5411, "(yuki.tanaka": 5412, "787": 5413, "bwr": 5414, "-510": 5415, "fav": 5416, "yqr": 5417, "jun": 5418, "47@outlook.com,</w>": 5419, "040": 5420, "fap": 5421, "cux": 5422, "akiaa": 5423, "orc": 5424, "(yuki.clarke": 5425, "d#": 5426, "jordan.lee": 5427, "+t": 5428, "jny": 5429, "gbh": 5430, "marcus.lee": 5431, "(alex.nguyen": 5432, "_f": 5433, "dgi": 5434, "mpu": 5435, "du</w>": 5436, "fu</w>": 5437, "djz": 5438, "jv</w>": 5439, "11/13/19": 5440, "+1-726": 5441, "vix": 5442, "$57m</w>": 5443, "6-50": 5444, "1279": 5445, "gfy": 5446, "mph": 5447, "jkk": 5448, "10.0.135": 5449, "-530": 5450, "jordan.johansson": 5451, "own": 5452, "vtr": 5453, "4-32": 5454, "jrw": 5455, "47-6": 5456, "01/24/19": 5457, "sof": 5458, "415": 5459, "vty": 5460, ".171</w>": 5461, "jmu": 5462, "gen": 5463, "-722": 5464, "urq": 5465, "fkh": 5466, "$75": 5467, "228</w>": 5468, "barc15": 5469, "sex": 5470, "215": 5471, "(jordan.petrov": 5472, "six": 5473, "r+": 5474, "nff": 5475, "dig": 5476, "jaw": 5477, "gzq": 5478, "kch": 5479, "chu": 5480, "vmz": 5481, "fxu": 5482, "pct": 5483, "bzz": 5484, "ooy": 5485, "605": 5486, "83)</w>": 5487, "drz": 5488, "jmn": 5489, "$64": 5490, "(alex.johansson": 5491, "-539": 5492, "h/": 5493, "(chris.garcia": 5494, "-838": 5495, "33m</w>": 5496, "jq</w>": 5497, "wxk": 5498, "61@acme.co,</w>": 5499, "jag": 5500, "54-4": 5501, "$915,000</w>": 5502, "llq": 5503, "jjt": 5504, "kjw": 5505, "li</w>": 5506, "god": 5507, "pgn": 5508, "yxt": 5509, "!i": 5510, "akx": 5511, "vll": 5512, "35@helix.bio</w>": 5513, "bnc": 5514, "skz": 5515, "00)</w>": 5516, "urh": 5517, "/9": 5518, "#k": 5519, "hannah.smith": 5520, "32@acme.co</w>": 5521, "46-6": 5522, ".4": 5523, "-b": 5524, "vqq": 5525, "alex.okafor": 5526, "-119": 5527, "(yuki.smith": 5528, "jxx": 5529, "49,000</w>": 5530, "few": 5531, "pyz": 5532, "pxx": 5533, "2ok": 5534, "atu": 5535, "htn": 5536, "dhc": 5537, "10.0.11.": 5538, "gey": 5539, "eku": 5540, "10.0.54": 5541, "dxl": 5542, "hqy": 5543, "ecz": 5544, "pzy": 5545, "fv</w>": 5546, "jci": 5547, "sbh": 5548, "bea": 5549, "aq</w>": 5550, "13-7": 5551, "+v": 5552, "jam": 5553, "acs": 5554, "y!": 5555, "lol": 5556, "mxz": 5557, "(mei.mendoza": 5558, "irc": 5559, "57-7": 5560, "6@acme.co</w>": 5561, "boz": 5562, "1-64": 5563, "mhs": 5564, "+1-649": 5565, "jbw": 5566, "10.0.98.": 5567, "3wq": 5568, "(olivia.okafor": 5569, "769": 5570, "bsx": 5571, "waq": 5572, "(chris.clarke": 5573, "81@helix.bio,</w>": 5574, "ur</w>": 5575, "502,</w>": 5576, "@1": 5577, "ghp_v": 5578, "i@": 5579, "mfo": 5580, "$82": 5581, "jyt": 5582, "88@gmail.com,</w>": 5583, "vbn": 5584, "10.0.108.": 5585, "diego.okafor": 5586, "39@helix.bio</w>": 5587, "jordan.smith": 5588, "sln": 5589, "$387m</w>": 5590, "ice": 5591, "(wei.brown": 5592, "+1-962": 5593, "ghp_5": 5594, "10.0.164.": 5595, "-359": 5596, "hannah.nguyen": 5597, "979": 5598, "05/20/19": 5599, "95@helix.bio,</w>": 5600, "liy": 5601, "siz": 5602, "kea": 5603, "marcus.garcia": 5604, "$v": 5605, "25-6": 5606, "wrw": 5607, "+1-756": 5608, "aisha.tanaka": 5609, "b%": 5610, "jqq": 5611, "bde": 5612, "clh": 5613, "hac": 5614, "sux": 5615, "(aisha.garcia": 5616, "75</w>": 5617, "%j": 5618, "7-56": 5619, "kuh": 5620, "848": 5621, "$326m</w>": 5622, "fjk": 5623, "ash": 5624, "dsz": 5625, "$402m</w>": 5626, "pjx": 5627, "rfg": 5628, "pte": 5629, "17)</w>": 5630, "!5": 5631, "whh": 5632, "wmc": 5633, "gix": 5634, "4pq": 5635, "marcus.mendoza": 5636, "ent": 5637, "+1-467": 5638, "fvz": 5639, "54-9": 5640, "10.0.30": 5641, "barc90": 5642, "mei.petrov": 5643, "56@helix.bio</w>": 5644, "aln": 5645, "jr8": 5646, "bw</w>": 5647, "bu</w>": 5648, "331": 5649, "openai_api_key=sk-7": 5650, "mpq": 5651, "$65": 5652, "87.</w>": 5653, "10.0.244": 5654, ".24": 5655, "#$": 5656, "jub": 5657, "smu": 5658, "(alex.m\u00fcller": 5659, "$487m</w>": 5660, "fmi": 5661, "907": 5662, "jsq": 5663, "jal": 5664, "fpz": 5665, "._": 5666, "-519": 5667, "(diego.johansson": 5668, "vhz": 5669, "priya.petrov": 5670, "212</w>": 5671, "39-2": 5672, "10@gmail.com,</w>": 5673, "6@gmail.com,</w>": 5674, "35-6": 5675, "(hannah.kim": 5676, "47)</w>": 5677, "myu": 5678, "32@helix.bio,</w>": 5679, "73.</w>": 5680, "mnq": 5681, "yuki.garcia": 5682, "03-2": 5683, "ghp_6": 5684, "5-58": 5685, "jxz": 5686, "(tom\u00e1s.petrov": 5687, "e%": 5688, "fre": 5689, "19-9": 5690, "vph": 5691, "pzb": 5692, "5@northwind.io,</w>": 5693, "shk": 5694, "qlz": 5695, "3627": 5696, "10.0.10.": 5697, "10.0.169.": 5698, "pjc": 5699, "ksm": 5700, "mqq": 5701, "78)</w>": 5702, "$213m</w>": 5703, "tom\u00e1s.tanaka": 5704, "fzn": 5705, "ssc": 5706, "#1": 5707, "8@gmail.com,</w>": 5708, "sag": 5709, "pdz": 5710, "erd": 5711, "10.0.192.": 5712, "(olivia.brown": 5713, "-912": 5714, "705": 5715, "jbu": 5716, "doy": 5717, "flx": 5718, "gzd": 5719, "pns": 5720, "_5": 5721, "gpl": 5722, "+1-816": 5723, "mvi": 5724, "71,</w>": 5725, "bz</w>": 5726, "oql": 5727, "8-57": 5728, "ftw": 5729, "fhh": 5730, "3zq": 5731, "byi": 5732, "#j": 5733, "ffi": 5734, "+1-924": 5735, "703": 5736, "255": 5737, "eow": 5738, "fax": 5739, "wei.patel": 5740, "96-6": 5741, "fbo": 5742, "37-4": 5743, "vjt": 5744, "5-34": 5745, "btx": 5746, "jhl": 5747, "gu</w>": 5748, "pvu": 5749, "6-39": 5750, "548": 5751, "ddn": 5752, "bmu": 5753, "unr": 5754, "dzx": 5755, "hannah.patel": 5756, "4-59": 5757, "amc": 5758, "-318": 5759, "879": 5760, "1-36": 5761, "4-34": 5762, "jcx": 5763, "etu": 5764, "pdr": 5765, "diego.m\u00fcller": 5766, "kwd": 5767, "ewh": 5768, "eib": 5769, "ody": 5770, "vpx": 5771, "jic": 5772, "r/": 5773, "dni": 5774, "18-9": 5775, "+1-205": 5776, "3@outlook.com</w>": 5777, "gnx": 5778, "agu": 5779, "4@helix.bio</w>": 5780, "gjt": 5781, "pzr": 5782, "63@outlook.com,</w>": 5783, "olivia.tanaka": 5784, "sgn": 5785, "ilz": 5786, "jqd": 5787, "mch": 5788, "95@outlook.com,</w>": 5789, "96@northwind.io,</w>": 5790, "1-17": 5791, "jeu": 5792, "uvn": 5793, "dtr": 5794, "ini": 5795, "+1-622": 5796, "bwz": 5797, "miw": 5798, "jkn": 5799, "kny": 5800, "$92": 5801, "exy": 5802, "vvn": 5803, "%@": 5804, "chris.patel": 5805, "vww": 5806, "kil": 5807, "!9": 5808, "q_": 5809, ".52</w>": 5810, "hlu": 5811, "sft": 5812, "k#": 5813, "rpt": 5814, "68-9": 5815, "jcy": 5816, "9z</w>": 5817, "fzy": 5818, "2-32": 5819, "(alex.brown": 5820, "ooo": 5821, "bwh": 5822, "jbh": 5823, "$70": 5824, "dxd": 5825, "kfh": 5826, "openai_api_key=sk-s": 5827, "40@gmail.com</w>": 5828, "pew": 5829, "gpo": 5830, "+8": 5831, "voy": 5832, "46,000</w>": 5833, "61@outlook.com,</w>": 5834, "liq": 5835, "flo": 5836, "mzn": 5837, "4u</w>": 5838, "eeq": 5839, "(samira.lee": 5840, "vfw": 5841, "928": 5842, "(alex.lee": 5843, "suy": 5844, "+1-850": 5845, "wsh": 5846, "bop": 5847, "jzl": 5848, "10.0.146.": 5849, "bxx": 5850, "1oz": 5851, "(yuki.johansson": 5852, "1-49": 5853, "7-50": 5854, "jxh": 5855, "-236": 5856, "mei.garcia": 5857, "acg": 5858, "00-2": 5859, "mnc": 5860, ".o": 5861, "z-": 5862, "eyja": 5863, "jd6": 5864, ".4</w>": 5865, "priya.kim": 5866, "del": 5867, "39-4": 5868, "ig</w>": 5869, "-852": 5870, "(alex.mendoza": 5871, "85)</w>": 5872, "jxd": 5873, "203": 5874, "1-57": 5875, "82@northwind.io</w>": 5876, "syc": 5877, "68-2": 5878, "-534": 5879, "i/": 5880, "sw</w>": 5881, "gau": 5882, "89@northwind.io,</w>": 5883, "yxn": 5884, "dly": 5885, "ban": 5886, "10-4": 5887, "mah": 5888, "38@acme.co</w>": 5889, "vbt": 5890, "pqy": 5891, "kvv": 5892, "gil": 5893, "36@helix.bio</w>": 5894, "dxh": 5895, "(samira.clarke": 5896, "44@acme.co,</w>": 5897, "-158": 5898, "fbr": 5899, "-332": 5900, "826": 5901, "jlz": 5902, "vpq": 5903, "nch": 5904, "wjd": 5905, "psh": 5906, "openai_api_key=sk-3": 5907, "fko": 5908, "65@gmail.com,</w>": 5909, "opl": 5910, "69m</w>": 5911, "prz": 5912, "waz": 5913, "kxg": 5914, "pvi": 5915, "$50": 5916, "$98": 5917, "fql": 5918, "olivia.mendoza": 5919, "(olivia.garcia": 5920, "akn": 5921, "(mei.okafor": 5922, "fyx": 5923, "9ff": 5924, "60)</w>": 5925, "ru</w>": 5926, "-538": 5927, "$105,000</w>": 5928, "fwu": 5929, "704": 5930, "olz": 5931, "$480m</w>": 5932, "jhq": 5933, "ovn": 5934, "mvs": 5935, "v0z": 5936, "dfo": 5937, ".111</w>": 5938, "927": 5939, "5@northwind.io</w>": 5940, "917": 5941, "vw9": 5942, "bma": 5943, "00-4": 5944, "fr</w>": 5945, "fnd": 5946, "ovl": 5947, "fxz": 5948, "929": 5949, "mhx": 5950, "(jordan.tanaka": 5951, "09/12/19": 5952, "kw6": 5953, "10.0.8.": 5954, "$859,000</w>": 5955, "wxv": 5956, "-747": 5957, "+1-242": 5958, "eni": 5959, "fep": 5960, "jkl": 5961, "pyu": 5962, "81@northwind.io</w>": 5963, "foi": 5964, "tom\u00e1s.mendoza": 5965, "fyh": 5966, "wei.tanaka": 5967, "856": 5968, "-553": 5969, "ajz": 5970, "mei.kim": 5971, "+w": 5972, "6/": 5973, "2718": 5974, "priya.tanaka": 5975, "fsz": 5976, "gq</w>": 5977, "bel": 5978, "mfn": 5979, "%1": 5980, "vvx": 5981, "42@acme.co,</w>": 5982, "rd9": 5983, "m9l": 5984, "ked": 5985, "gby": 5986, "alex.garcia": 5987, "fnw": 5988, "52-7": 5989, "blm": 5990, "$#": 5991, "40@gmail.com,</w>": 5992, "-312": 5993, "10.0.58": 5994, "akia6": 5995, "fzc": 5996, "shz": 5997, "1-76": 5998, "08)</w>": 5999}, "merges": [["e", "</w>"], ["i", "n"], ["o", "u"], ["d", "</w>"], ["t", "h"], ["a", "r"], ["a", "</w>"], ["s", "</w>"], [".", "</w>"], ["in", "g"], ["ing", "</w>"], ["n", "</w>"], ["s", "t"], ["r", "a"], ["t", "e"], ["in", "</w>"], ["a", "l"], ["n", "d</w>"], ["o", "w"], ["ou", "l"], ["oul", "d</w>"], ["o", "r"], ["o", "n</w>"], ["d", "e"], ["r", "o"], ["h", "</w>"], ["c", "t"], ["th", "e</w>"], ["p", "l"], ["y", "</w>"], ["s", "e</w>"], ["l", "l"], ["a", "nd</w>"], ["t", "i"], ["p", "ar"], ["e", "n"], ["l", "i"], ["ou", "g"], ["c", "ould</w>"], ["p", "ro"], ["e", "r"], ["f", "o"], ["fo", "ll"], ["foll", "ow"], ["en", "g"], ["o", "</w>"], ["t", "o</w>"], ["c", "o"], ["m", "e</w>"], ["u", "n"], ["m", "</w>"], ["o", "f"], ["e", "a"], ["th", "r"], ["y", "ou"], ["you", "</w>"], ["l", "</w>"], ["a", "g"], ["t", "</w>"], ["m", "m"], ["or", "</w>"], ["e", "s</w>"], [",", "</w>"], ["i", "z"], ["s", "u"], ["w", "a"], ["ea", "se</w>"], ["k", "</w>"], ["pl", "a"], ["ra", "p"], ["rap", "h</w>"], ["pl", "ease</w>"], ["p", "o"], ["er", "</w>"], ["su", "mm"], ["summ", "ar"], ["summar", "iz"], ["thr", "oug"], ["throug", "h</w>"], ["t", "s</w>"], ["pla", "in</w>"], ["h", "ow"], ["wa", "y</w>"], ["par", "ag"], ["parag", "raph</w>"], ["y", ".</w>"], ["how", "</w>"], ["te", "r"], ["e", "ct"], ["i", "</w>"], ["w", "or"], ["i", "s</w>"], ["u", "ct"], ["un", "i"], ["a", "ti"], ["s", "m"], ["j", "ect"], ["wor", "k"], ["s", "o"], ["te", "st"], ["co", "de"], ["l", "y</w>"], ["t", "ra"], ["sm", "al"], ["smal", "l</w>"], ["u", "r"], ["ter", "n"], ["c", "u"], ["st", "r"], ["th", "is</w>"], ["e", "w"], ["ew", "</w>"], ["s", "h"], ["summariz", "e</w>"], ["pro", "ject"], ["project", "</w>"], ["in", "e"], ["follow", "ing</w>"], ["w", "al"], ["work", "ing</w>"], ["wal", "k</w>"], ["l", "ar"], ["str", "uct"], ["struct", "ur"], ["structur", "e</w>"], ["a", "m</w>"], ["follow", ".</w>"], ["j", "uni"], ["juni", "or</w>"], ["f", "ew</w>"], ["th", "oug"], ["thoug", "h"], ["though", "ts</w>"], ["eng", "ine"], ["engine", "er</w>"], ["code", ",</w>"], ["te", "g"], ["pro", "po"], ["propo", "se</w>"], ["st", "ra"], ["stra", "teg"], ["strateg", "y.</w>"], ["test", "ing</w>"], ["v", "es</w>"], ["al", "tern"], ["altern", "ati"], ["alternati", "ves</w>"], ["w", "ould</w>"], ["k", "e</w>"], ["of", "f"], ["par", "ti"], ["parti", "cu"], ["particu", "lar"], ["particular", "ly</w>"], ["tra", "de"], ["trade", "off"], ["tradeoff", "s</w>"], ["so", "me</w>"], ["sh", ".</w>"], ["eng", "li"], ["engli", "sh.</w>"], ["li", "ke</w>"], ["ar", "ou"], ["arou", "nd</w>"], ["a", "n</w>"], ["i", "t"], ["i", "c"], ["r", "e"], ["w", "r"], ["wr", "it"], ["m", "a"], ["p", "</w>"], ["of", "</w>"], ["h", "a"], ["g", "i"], ["f", "or</w>"], ["e", "x"], ["a", "p"], ["i", "on</w>"], ["e", "l"], ["s", ".</w>"], ["e", ".</w>"], ["b", "ou"], ["al", "</w>"], ["a", "c"], ["n", "c"], ["s", "er"], ["b", "e"], ["de", "r"], ["writ", "e</w>"], ["u", "ll"], ["e", "t</w>"], ["-", "-"], ["a", "s"], ["f", "t</w>"], ["w", "ha"], ["co", "n"], ["i", "l</w>"], ["o", "o"], ["po", "in"], ["r", "y"], ["c", "an</w>"], ["i", "'"], ["i'", "m</w>"], ["wha", "t"], ["what", "'"], ["what'", "s</w>"], ["h", "el"], ["hel", "p</w>"], ["t", "ry"], ["d", "ra"], ["try", "ing</w>"], ["dra", "ft</w>"], ["e", "e</w>"], ["g", "oo"], ["goo", "d</w>"], ["th", "in"], ["thin", "k</w>"], ["gi", "v"], ["giv", "e</w>"], ["e", "ma"], ["ema", "il</w>"], ["a", "bou"], ["abou", "t</w>"], ["un", "der"], ["under", "st"], ["underst", "and</w>"], ["summariz", "ing</w>"], ["thr", "ee</w>"], ["ex", "plain</w>"], ["b", "ull"], ["bull", "et</w>"], ["poin", "ts</w>"], [":", "</w>"], ["c", "h"], ["d", "i"], ["writ", "ing</w>"], ["ro", "l"], ["v", "er"], ["o", "n"], ["ic", "al</w>"], ["t", "re"], ["b", "</w>"], ["m", "e"], ["w", "e"], ["i", "g"], ["de", "s"], ["e", "ar"], ["in", "t"], ["t", "y"], ["p", "h"], ["co", "mm"], ["st", "</w>"], ["e", "n</w>"], ["ty", "p"], ["d", "uct"], ["f", "ro"], ["ser", "v"], ["a", "m"], ["l", "o"], ["ic", "s</w>"], ["nc", "e</w>"], ["a", "te"], ["y", "l"], ["p", "y"], ["f", "or"], ["rol", "e</w>"], ["ra", "t"], ["i", "st"], ["al", "l"], ["all", "s</w>"], ["st", "yl"], ["b", "as"], ["e", "s.</w>"], ["en", "c"], ["p", ".</w>"], ["py", "th"], ["pyth", "on</w>"], ["typ", "ical</w>"], ["ap", "p.</w>"], ["te", "am"], ["tre", "e.</w>"], ["fro", "m</w>"], ["g", "e"], ["r", "i"], [".", "."], ["gi", "t</w>"], ["2", "</w>"], [";", "</w>"], ["e", "t"], ["s", "h</w>"], ["a", "u"], ["i", "th"], ["a", "t"], ["f", "un"], ["c", "l"], ["p", "u"], [")", "</w>"], ["n", "t</w>"], ["1", "0"], ["fun", "ct"], ["funct", "ion</w>"], ["li", "m"], ["de", "bou"], ["cl", "ear"], ["des", "c"], ["i", "t</w>"], ["s", "s"], ["u", "ser"], ["e", "d"], ["b", "-"], ["con", "t"], ["s", "s</w>"], ["ct", "</w>"], ["o", "p"], ["t", "("], ["l", "ing</w>"], ["i", "r"], ["duct", "ion</w>"], ["iz", "ati"], ["h", "t"], ["ap", "i"], ["ha", "n"], ["er", ".</w>"], ["be", "g"], ["ht", "t"], ["serv", "ic"], ["e", "y"], ["co", "m"], ["a", "i"], ["a", "d"], ["j", "s"], ["u", "e"], ["x", "</w>"], ["f", "f"], ["w", "h"], ["a", "v"], ["3", ".</w>"], ["t", "c"], ["f", "u"], ["d", "u"], ["c", "h</w>"], ["o", "b"], ["han", "d"], ["hand", "ling</w>"], ["i", "al"], ["int", "ro"], ["intro", "duction</w>"], ["ti", "me</w>"], ["js", "on</w>"], ["uni", "t</w>"], ["l", "s"], ["z", "on"], ["ser", "ial"], ["serial", "izati"], ["serializati", "on</w>"], ["zon", "es</w>"], ["test", "s</w>"], ["p", "er"], ["c", "or"], ["g", "raph</w>"], ["g", "e</w>"], ["rat", "e</w>"], ["cor", "r"], ["corr", "ect"], ["correct", "ly</w>"], ["per", "for"], ["perfor", "ma"], ["performa", "nce</w>"], ["ed", "ge</w>"], ["c", "as"], ["ig", "n"], ["tra", "ver"], ["traver", "s"], ["travers", "al</w>"], ["lim", "it"], ["limit", "ing</w>"], ["cas", "es.</w>"], ["ch", "ar"], ["char", "ac"], ["charac", "ter"], ["character", "ist"], ["characterist", "ics</w>"], ["des", "ign"], ["design", "ing</w>"], ["comm", "on</w>"], ["al", "g"], ["bas", "ics</w>"], ["p", "it"], ["m", "s.</w>"], ["alg", "or"], ["algor", "ith"], ["algorith", "ms.</w>"], ["be", "st</w>"], ["ac", "h"], ["com", "par"], ["compar", "ing</w>"], ["c", "li"], ["pit", "f"], ["pitf", "alls</w>"], ["work", "s</w>"], ["p", "ra"], ["ap", "pro"], ["appro", "ach"], ["approach", "es</w>"], ["cli", "</w>"], ["ct", "ic"], ["pra", "ctic"], ["practic", "es</w>"], ["clear", "</w>"], ["th", "a"], ["p", "en"], ["styl", "es</w>"], ["nc", "y</w>"], ["wh", "en</w>"], ["de", "pen"], ["depen", "de"], ["depende", "ncy</w>"], ["tha", "t</w>"], ["we", "b</w>"], ["tc", "p</w>"], ["con", "te"], ["conte", "nt</w>"], ["m", "ig"], ["b-", "tre"], ["b-tre", "e</w>"], ["p", "ull"], ["pull", "</w>"], ["debou", "nce</w>"], ["mig", "rat"], ["migrat", "ing</w>"], ["ac", "c"], ["i", "te"], ["h", "ist"], ["hist", "or"], ["histor", "y</w>"], ["in", "ject"], ["inject", "ion</w>"], ["c", "alls</w>"], ["ch", "n"], ["con", "ge"], ["conge", "st"], ["congest", "ion</w>"], ["de", "li"], ["deli", "ver"], ["deliver", "y</w>"], ["u", "ra"], ["pro", "duct"], ["product", "</w>"], ["re", "q"], ["de", "v"], ["ar", "ch"], ["arch", "ite"], ["archite", "ct"], ["architect", "ura"], ["architectura", "l</w>"], ["te", "chn"], ["techn", "ical</w>"], ["di", "ff"], ["enc", "e</w>"], ["ex", "pla"], ["expla", "in"], ["explain", "ing</w>"], ["req", "ue"], ["reque", "st</w>"], ["diff", "er"], ["differ", "ence</w>"], ["dev", "el"], ["devel", "op"], ["develop", "er</w>"], ["n", "et"], ["ver", "su"], ["versu", "s</w>"], ["n", "ag"], ["m", "ea"], ["cont", "rol"], ["control", ".</w>"], ["be", "t"], ["p", "ti"], ["ma", "nag"], ["manag", "er</w>"], ["net", "wor"], ["networ", "k</w>"], ["fu", "l</w>"], ["mea", "n"], ["mean", "ing"], ["meaning", "ful</w>"], ["on", ".</w>"], ["bet", "we"], ["betwe", "en</w>"], ["styl", "e</w>"], ["s", "ear"], ["sear", "ch</w>"], ["desc", "ri"], ["descri", "pti"], ["descripti", "on.</w>"], ["htt", "p</w>"], ["au", "di"], ["audi", "enc"], ["audienc", "e.</w>"], ["du", "c"], ["ac", "ro"], ["acro", "ss</w>"], ["re", "duc"], ["reduc", "es</w>"], ["ap", "i</w>"], ["ob", "serv"], ["observ", "er</w>"], ["j", "av"], ["in", "pu"], ["inpu", "t</w>"], ["api", ".</w>"], ["uni", "x</w>"], ["jav", "a</w>"], ["p", "at"], ["l", "ate"], ["late", "nc"], ["latenc", "y.</w>"], ["team", "s.</w>"], ["pat", "ter"], ["patter", "n</w>"], ["comm", "it</w>"], ["ls", "m</w>"], ["ha", "sh</w>"], ["i", "lo"], ["g", "ate"], ["gate", "wa"], ["gatewa", "y.</w>"], ["ph", "ilo"], ["philo", "so"], ["philoso", "ph"], ["philosoph", "y.</w>"], ["code", "bas"], ["codebas", "e.</w>"], ["ma", "p</w>"], ["me", "ss"], ["mess", "ag"], ["messag", "es.</w>"], ["r", "ea"], ["rea", "ct</w>"], ["team", ".</w>"], ["m", "ic"], ["mic", "ro"], ["micro", "servic"], ["microservic", "e.</w>"], ["in", "n"], ["beg", "inn"], ["beginn", "er.</w>"], ["s", "or"], ["sor", "te"], ["sorte", "d</w>"], ["f", "n"], ["k", "ey"], ["_", "i"], ["--", "--"], ["----", "-"], ["m", "s"], ["in", "tern"], ["user", "_i"], ["(", "n"], ["or", "der"], ["b", "y</w>"], ["ra", "n"], ["0", "0"], ["ran", "ge"], [")", ":</w>"], ["a", ",</w>"], ["=", "</w>"], ["{", "</w>"], [".", "a"], ["ms", ")"], ["(", ".."], ["(..", ".a"], ["(...a", ")"], ["=", ">"], ["ti", "me"], ["time", "ou"], ["timeou", "t("], ["re", "t"], ["}", "</w>"], ["ur", "n</w>"], ["ret", "urn</w>"], ["\u2014", "</w>"], ["i", "b"], ["ad", "m"], ["1", "-"], ["at", "e</w>"], ["o", "m"], ["w", "ith"], ["b", "a"], ["3", "</w>"], ["l", "e"], ["=", "s"], ["pu", "sh</w>"], ["au", "th"], ["e", "k"], ["in", "/"], ["s", "c"], ["n", "o"], ["a", "k"], ["p", "as"], ["we", "ek"], ["pas", "s"], ["pass", "wor"], ["p", "ir"], ["+", "1-"], ["ex", "pir"], ["cu", "st"], ["cust", "om"], ["g", "in</w>"], ["acc", "ou"], ["accou", "nt</w>"], ["g", "</w>"], ["p", "ri"], ["e", "c"], ["1", "2"], ["me", "."], ["ac", "me."], ["1", "</w>"], ["3", "2"], ["ing", ":</w>"], ["0", ",</w>"], ["e", "nd</w>"], ["1", "9"], ["f", "</w>"], ["g", "r"], ["r", "s"], ["p", "r"], ["/", "/"], [":", "//"], ["5", "4"], ["intern", "al</w>"], ["a", "n"], ["5", "0"], ["de", "f</w>"], ["f", "ib"], ["fib", "on"], ["fibon", "acc"], ["fibonacc", "i"], ["fibonacci", "(n"], ["fibonacci(n", ":</w>"], ["s", "el"], ["c", "e"], ["ect", "</w>"], ["sel", "ect</w>"], ["int", ")</w>"], ["c", "ou"], ["user_i", "d"], ["user_id", ",</w>"], ["-", ">"], ["->", "</w>"], ["cou", "n"], ["coun", "t("], ["count(", "*"], ["count(*", ")</w>"], ["rs", "a</w>"], ["pri", "v"], ["priv", "ate</w>"], ["key", "-----"], ["key-----", "</w>"], ["int", ":</w>"], ["range", "("], ["range(", "10"], ["range(10", "):</w>"], ["order", "s</w>"], ["gr", "ou"], ["grou", "p</w>"], ["pr", "int"], ["print", "("], ["print(", "i"], ["print(i", "*"], ["print(i*", "i"], ["print(i*i", ")</w>"], ["-", "l"], ["user_i", "d</w>"], ["nc", "e"], ["re", "ba"], ["reba", "se</w>"], ["order", "</w>"], ["debou", "nce"], ["debounce", "("], ["debounce(", "fn"], ["debounce(fn", ",</w>"], ["_", "</w>"], ["-", "i</w>"], ["ms)", "{</w>"], ["or", "ig"], ["orig", "in/"], ["origin/", "ma"], ["origin/ma", "in</w>"], ["l", "et</w>"], ["t", ";</w>"], ["&", "&"], ["&&", "</w>"], ["desc", "</w>"], ["range", "(n"], ["range(n", "):</w>"], ["lim", "it</w>"], ["(...a)", "=>"], ["(...a)=>", "{</w>"], ["ce", "-"], ["--", "for"], ["--for", "ce-"], ["--force-", "with"], ["--force-with", "-l"], ["--force-with-l", "ease</w>"], ["10", ";</w>"], ["clear", "timeout("], ["cleartimeout(", "t"], ["cleartimeout(t", ")"], ["cleartimeout(t)", ";</w>"], ["t", "=s"], ["t=s", "et"], ["t=set", "timeout("], ["t=settimeout(", "("], ["t=settimeout((", ")"], ["t=settimeout(()", "=>"], ["t=settimeout(()=>", "fn"], ["t=settimeout(()=>fn", "(...a)"], ["t=settimeout(()=>fn(...a)", ",</w>"], ["ms)", ";"], ["ms);", "}</w>"], ["al", "."], [".", "intern"], [".intern", "al."], ["pro", "d"], ["b", ",</w>"], ["acme.", "co"], ["+", "</w>"], ["4", "0"], ["auth", "</w>"], ["m", "ar"], ["ar", "c"], ["o", "k"], ["h", "e"], ["st", "ag"], ["q", "l"], ["m", "r"], ["n", "t"], ["p", "d"], ["g", "b"], ["v", "p"], ["s", "i"], ["a", "1"], ["0", "</w>"], ["t", "w"], ["o", "t"], ["b", "i"], ["c", "</w>"], ["-", "u"], ["/", "19"], ["d", ".</w>"], ["d", "re"], ["b", "or"], ["e", "et"], ["12", "3</w>"], ["a", "ct</w>"], ["p", "ati"], ["pati", "en"], ["patien", "t</w>"], ["bor", "n</w>"], ["ad", "dre"], ["addre", "ss</w>"], ["ma", "pl"], ["mapl", "e</w>"], ["str", "eet"], ["street", ",</w>"], ["cont", "act</w>"], ["@", "d"], ["le", "s"], ["s", "ql"], ["st", "g"], ["m", "m</w>"], ["e", "d</w>"], ["d", "b</w>"], ["fro", "nt"], ["mr", "i</w>"], ["s", "how"], ["show", "ed</w>"], ["les", "ion</w>"], ["le", "ft</w>"], ["front", "al</w>"], ["lo", "be"], ["lobe", ";</w>"], ["re", "comm"], ["recomm", "end</w>"], ["follow", "-u"], ["follow-u", "p</w>"], ["week", "s.</w>"], ["p", "an"], [":", "54"], ["n", "ect"], ["32", "/"], ["con", "nect"], ["connect", "ion</w>"], ["str", "ing:</w>"], ["po", "stg"], ["postg", "re"], ["postgre", "sql"], ["postgresql", "://"], ["postgresql://", "adm"], ["postgresql://adm", "in"], ["@d", "b-"], ["@db-", "prod"], ["@db-prod", "-"], [".internal.", "acme.co"], [".internal.acme.co", ":54"], [".internal.acme.co:54", "32/"], [".internal.acme.co:5432/", "custom"], [".internal.acme.co:5432/custom", "er"], [".internal.acme.co:5432/customer", "s</w>"], ["=", "ro"], ["postgresql://admin", ":"], ["lo", "gin</w>"], ["adm", "in</w>"], ["pan", "el"], ["panel", ":</w>"], ["user", "=ro"], ["user=ro", "ot"], ["user=root", ",</w>"], ["passwor", "d"], ["n", "ex"], ["m", "g</w>"], ["te", "s"], ["p", "re"], ["c", "er"], ["di", "a"], ["me", "t"], ["ai", "l"], ["si", "s"], ["tw", "ic"], ["c", "ar"], ["di", "ag"], ["sc", "ri"], ["for", "m"], ["vp", "n</w>"], ["cer", "t</w>"], ["expir", "es</w>"], ["nex", "t</w>"], ["week", ",</w>"], ["passwor", "d</w>"], ["diag", "no"], ["diagno", "sis"], ["diagnosis", ":</w>"], ["typ", "e</w>"], ["dia", "be"], ["diabe", "tes"], ["diabetes", ",</w>"], ["a1", "c</w>"], ["pre", "scri"], ["prescri", "be"], ["prescribe", "d</w>"], ["met", "form"], ["metform", "in</w>"], ["twic", "e</w>"], ["d", "ail"], ["dail", "y.</w>"], ["e", "ir"], ["u", "pd"], ["n", "ew</w>"], ["upd", "ate</w>"], ["th", "eir"], ["their", "</w>"], ["car", "d</w>"], ["expir", "ing</w>"], ["w", "ir"], ["password", "="], ["re", "v"], ["as", "k"], ["00", "0</w>"], ["b", "u"], ["w", "in"], ["n", "or"], ["wir", "e</w>"], [",", "000</w>"], ["ib", "an</w>"], ["b", "arc"], ["lo", "s"], ["en", "u"], ["ec", "a"], ["ph", "on"], ["ss", "n</w>"], ["custom", "er</w>"], ["phon", "e</w>"], ["ask", "ing</w>"], ["re", "fun"], ["refun", "d.</w>"], ["q", "3</w>"], ["y", "et</w>"], ["rev", "enu"], ["revenu", "e</w>"], ["for", "eca"], ["foreca", "st</w>"], ["with", "</w>"], ["mar", "gin</w>"], ["%", "</w>"], ["(", "internal</w>"], ["no", "t</w>"], ["di", "sc"], ["disc", "los"], ["disclos", "ed"], ["disclosed", ")"], ["disclosed)", ".</w>"], ["nor", "th"], ["north", "win"], ["a", "w"], ["he", "li"], ["a", "q"], ["g", "h"], ["en", "d"], ["m", "i"], ["/", "2"], ["e", "p"], ["u", "s"], ["s", "-"], ["d", "."], ["10", "."], ["8", "q"], ["0", "z"], ["x", "."], ["d.", "i"], ["northwin", "d.i"], ["40", "1"], ["heli", "x."], ["helix.", "bi"], ["f", "ai"], ["=s", "k"], ["ai", "_"], ["de", "bu"], ["_", "key"], ["debu", "g</w>"], ["op", "en"], ["open", "ai_"], ["openai_", "api"], ["openai_api", "_key"], ["openai_api_key", "=sk"], ["fai", "ling</w>"], ["401", "s.</w>"], ["s", "ec"], ["u", "st"], ["h", "er"], ["i", "a"], ["p", "_"], ["her", "e</w>"], ["aw", "s</w>"], ["key", ":</w>"], ["sec", "re"], ["secre", "t</w>"], ["pro", "duction</w>"], ["cl", "ust"], ["clust", "er.</w>"], ["th", "u"], ["h", "ea"], ["t", "ok"], ["t", "ag"], ["c", "i</w>"], ["gi", "thu"], ["githu", "b</w>"], ["tok", "en</w>"], ["wha", "t</w>"], ["us", "es</w>"], ["tag", "s.</w>"], ["mi", "i"], ["der", "</w>"], ["hea", "der</w>"], ["stag", "ing:</w>"], ["auth", "or"], ["author", "izati"], ["authorizati", "on"], ["authorization", ":</w>"], ["be", "ar"], ["bear", "er</w>"], ["ak", "c"], ["ai", "ba"], ["aq", "ea"], ["-----", "beg"], ["-----beg", "in</w>"], ["mii", "ep"], ["miiep", "aiba"], ["miiepaiba", "akc"], ["miiepaibaakc", "aqea"], ["miiepaibaakcaqea", "0z"], ["miiepaibaakcaqea0z", "8q"], ["miiepaibaakcaqea0z8q", ".."], ["miiepaibaakcaqea0z8q..", ".</w>"], ["-----", "end</w>"], ["-", "2"], ["1", "1"], ["ey", "j"], ["gh", "p_"], ["3", "0"], ["openai_api_key=sk", "-"], ["t", "a"], ["f", ".</w>"], ["0", "."], ["-", "4"], ["1", "8"], ["g", ".</w>"], ["3", "9"], ["-", "6"], ["50", "3"], ["3", "6"], ["-", "8"], ["3", "8"], ["h", "in"], ["r", "un"], ["-", "9"], ["servic", "e</w>"], ["run", "s</w>"], ["10.", "0."], ["be", "hin"], ["behin", "d</w>"], ["wa", "f.</w>"], ["1", "7"], ["5", "9"], ["3", "7"], ["00", "mg</w>"], ["1", "6"], ["-", "7"], ["end", "poin"], ["endpoin", "t</w>"], ["htt", "p"], ["http", "://"], ["/", "adm"], ["/adm", "in/"], ["/admin/", "user"], ["/admin/user", "s</w>"], ["thr", "ow"], ["throw", "ing</w>"], ["503", "s.</w>"], ["5", "7"], ["3", "4"], ["5", "2"], ["5", "6"], ["s", "sh</w>"], ["in", "to</w>"], ["ta", "il</w>"], ["lo", "g.</w>"], ["5", "8"], ["k", "i"], ["1", "4"], ["l", "t"], ["k", "8"], ["2", "2"], ["y", "u"], ["4", "4"], ["i", "l"], ["t", "l"], ["e", "g"], ["0", "9"], ["4", "7"], ["4", "8"], ["6", "8"], ["2", "7"], ["g", "u"], ["4", "9"], ["0", "7"], ["6", "9"], ["s", "."], ["0", "8"], ["2", "9"], ["2", "8"], ["o", "z"], ["ak", "ia"], ["b", "r"], ["6", "7"], ["n", "a"], ["v", "au"], ["ma", "st"], ["k8", "s-"], ["k8s-", "mast"], ["k8s-mast", "er"], [".internal.", "northwind.i"], ["vau", "lt"], [".", "prod"], [".prod", "."], ["o", "/admin/users</w>"], ["3", "5"], ["k", "."], ["re", "di"], ["redi", "s-"], [".", "stag"], [".stag", "ing"], [".staging", "."], [".staging.", "helix.bi"], ["3", "1"], ["0", "6"], ["c", "o</w>"], ["acme.", "co</w>"], ["@", "g"], ["j", "o"], ["0", "4"], ["@", "northwind.i"], ["il", "."], ["@g", "ma"], ["@gma", "il."], ["2", "6"], ["1", "5"], ["@", "helix.bi"], ["co", "m</w>"], ["o", ",</w>"], ["com", ",</w>"], ["@", "ou"], ["@ou", "tl"], ["@outl", "oo"], ["@outloo", "k."], ["0", "2"], ["0", "5"], ["7", "9"], ["or", "d"], ["4", "6"], ["j", "ord"], ["4", "2"], ["li", "v"], ["i", "a</w>"], ["8", "8"], ["han", "na"], ["mar", "cu"], ["di", "eg"], ["8", "50"], ["o", "liv"], ["ai", "sh"], ["al", "ex"], ["pri", "y"], ["-", "5"], ["s", "am"], ["t", "om"], ["tom", "\u00e1"], ["10", "00mg</w>"], ["6", "6"], ["850", "mg</w>"], ["0", "3"], ["7", "8"], ["ak", "i"], ["5", "00mg</w>"], ["a", "."], ["gu", "y"], ["9", "9"], ["3", "3"], ["0", "1"], ["n", "guy"], ["i", "."], ["ok", "a"], ["7", "7"], ["b", "l"], ["c", "lar"], ["4", "5"], ["1", "3"], ["t", "an"], ["8", "9"], ["6", "2"], ["tan", "ak"], ["br", "ow"], ["m", "end"], ["mend", "oz"], ["sm", "ith"], ["6", ".</w>"], ["ro", "v"], ["g", "arc"], ["p", "ate"], ["p", "et"], ["m", "\u00fc"], ["m\u00fc", "ll"], ["jo", "han"], ["-", "3"], ["5", "5"], ["o", "d"], ["pet", "rov"], ["k", "e"], ["8", "."], ["b", "o"], ["4", "</w>"], ["5", "</w>"], ["7", ".</w>"], ["1", ",</w>"], ["3", ",</w>"], ["8", "7"], ["9", ".</w>"], ["8", ".</w>"], ["7", "."], ["2", "4"], ["2", "5"], ["8", "6"], ["9", "."], ["k", "i</w>"], ["me", "i</w>"], ["http://", "vault"], [".prod.", "acme.co"], [".prod.acme.co", "/admin/users</w>"], ["jord", "an</w>"], ["hanna", "h</w>"], ["yu", "ki</w>"], ["+1-", "9"], ["ch", "r"], ["8", "</w>"], ["7", "</w>"], ["j", "z"], ["7", "6"], ["marcu", "s</w>"], ["http://", "k8s-master"], [".internal.northwind.i", "o/admin/users</w>"], [".internal.northwind.i", "o</w>"], ["chr", "is</w>"], ["9", "</w>"], ["aish", "a</w>"], [".staging.helix.bi", "o</w>"], ["dieg", "o</w>"], [".prod.", "acme.co</w>"], ["alex", "</w>"], ["v", "z"], ["http://", "redis-"], [".staging.helix.bi", "o/admin/users</w>"], ["k", "x"], ["b", "z"], ["j", "x"], ["we", "i</w>"], ["f", "x"], ["7", "2"], ["v", "v"], ["@helix.bi", "o</w>"], ["6", "</w>"], ["oliv", "ia</w>"], ["-", "1"], ["@", "acme.co"], ["@acme.co", ",</w>"], ["g", "z"], ["p", "z"], ["f", "h"], ["8", "2"], ["tom\u00e1", "s</w>"], ["priy", "a</w>"], ["d", "x"], ["k", "z"], ["@northwind.i", "o,</w>"], ["@northwind.i", "o</w>"], ["w", "x"], ["@gmail.", "com,</w>"], ["@", "acme.co</w>"], ["j", "h"], ["v", "h"], ["y", "z"], ["f", "q"], ["ir", "a</w>"], ["sam", "ira</w>"], ["@gmail.", "com</w>"], ["v", "q"], ["@outlook.", "com</w>"], ["j", "q"], ["5", ",</w>"], ["p", "q"], ["d", "z"], ["6", "4"], ["y", "x"], ["f", "z"], ["w", "z"], ["g", "x"], ["m", "x"], ["9", "8"], ["7", "4"], ["9", "6"], ["v", "n"], ["j", "n"], ["@helix.bi", "o,</w>"], ["2", "0"], ["@outlook.", "com,</w>"], ["y", "q"], ["j", "d"], ["g", "q"], ["j", "r"], ["k", "u"], ["2", "3"], ["m", "z"], ["j", "c"], ["k", "n"], ["j", "u"], ["9", "7"], ["k", "q"], ["v", "x"], ["w", "q"], ["b", "x"], ["b", "h"], ["v", "u"], ["b", "q"], ["p", "x"], ["m", "n"], ["8", "4"], ["s", "x"], ["o", "."], ["m", "q"], ["j", "y"], ["k", "h"], ["d", "q"], ["p", "n"], ["m", "y"], ["v", "l"], ["j", "l"], ["m", "h"], ["b", "n"], ["j", "w"], ["30", ".</w>"], ["g", "n"], ["b", "c"], ["f", "c"], ["j", "i"], ["$", "2"], ["1", ".</w>"], ["f", "y"], ["31", ".</w>"], ["g", "l"], ["h", "."], ["k", "w"], ["g", "y"], ["j", "t"], ["v", "y"], ["v", "w"], ["d", "n"], ["5", "3"], ["+1-", "8"], ["v", "r"], ["f", "r"], ["d", "h"], ["k", "r"], ["k", "c"], ["f", "w"], ["f", "l"], ["+1-", "7"], ["v", "c"], ["4", "3"], ["m", "l"], ["m", "u"], ["s", "n"], ["a", "x"], ["oka", "for</w>"], ["nguy", "en</w>"], ["f", "t"], ["s", "z"], ["b", "w"], ["nguy", "en"], ["9", "2"], ["c", "ap"], ["a", "ur"], ["g", "c"], ["p", "w"], ["clar", "ke"], ["d", "r"], ["p", "c"], ["d", "c"], ["k", "t"], ["mendoz", "a</w>"], ["garc", "ia</w>"], ["brow", "n"], ["aur", "or"], ["auror", "a</w>"], ["cap", "it"], ["capit", "al</w>"], ["ki", "."], ["yu", "ki."], ["32", ".</w>"], ["ia", "."], ["s", "l"], ["oliv", "ia."], ["johan", "ss"], ["johanss", "on</w>"], ["a", "z"], ["o", "te"], ["ch", "ri"], ["chri", "s."], ["b", "y"], ["4", "1"], ["b", "t"], ["th", "</w>"], ["/", "30.</w>"], ["s", "y"], ["/2", "6.</w>"], ["i", "ra"], ["p", "i"], ["k", "l"], ["s", "w"], ["s", "q"], ["+1-", "6"], ["f", "i"], ["ti", "c"], ["tanak", "a</w>"], ["/2", "9.</w>"], ["p", "ine"], ["pine", "con"], ["pinecon", "e</w>"], ["he", "al"], ["heal", "th</w>"], ["heli", "x</w>"], ["bi", "ote"], ["biote", "ch</w>"], ["le", "e"], ["priy", "a."], ["o", "x"], ["d", "y"], ["o", "q"], ["m", "c"], ["9", "4"], ["d", "l"], ["an", "."], ["/2", "7.</w>"], ["sam", "ira"], ["samira", "."], ["dieg", "o."], ["jord", "an."], ["ki", "m"], ["8", "5"], ["v", "t"], ["s", "r"], ["j", "g"], ["m\u00fcll", "er"], ["6", "5"], ["oka", "for"], ["m", "t"], ["tom\u00e1", "s."], ["pate", "l"], ["v", "i"], ["petrov", "</w>"], ["/2", "8.</w>"], ["clar", "ke</w>"], ["ac", "me</w>"], ["ro", "bo"], ["robo", "tic"], ["robotic", "s</w>"], ["8", "0"], ["e", "q"], ["m", "w"], ["a", "h"], ["alex", "."], ["/", "31.</w>"], ["pate", "l</w>"], ["7", "0"], ["e", "ll"], ["6", "."], ["b", "ir"], ["ki", "m</w>"], ["o", "h"], ["aish", "a."], ["marcu", "s."], ["me", "i."], ["l", "ee</w>"], ["brow", "n</w>"], ["m\u00fcll", "er</w>"], ["smith", "</w>"], ["g", "w"], ["k", "y"], ["/", "32.</w>"], ["ar", "</w>"], ["we", "i."], ["d", "w"], ["p", "t"], ["bl", "ue"], ["7", "5"], ["5", "mm</w>"], ["st", "ell"], ["stell", "ar</w>"], ["fo", "od"], ["food", "s</w>"], ["hanna", "h."], ["8", "3"], ["in", "su"], ["7", "3"], ["gi", "st"], ["blue", "bir"], ["bluebir", "d</w>"], ["insu", "ra"], ["insura", "nce</w>"], ["4", "mm</w>"], ["northwin", "d</w>"], ["lo", "gist"], ["logist", "ics</w>"], ["o", "y"], ["o", "c"], ["so", "n"], ["6", "0"], ["x", "x"], ["tanak", "a"], ["v", "b"], ["g", "t"], ["2", "mm</w>"], ["2", "1"], ["8", "mm</w>"], ["j", "</w>"], ["6", "3"], ["j", "e"], ["i", "q"], ["r", "q"], ["9", "0"], ["3", "mm</w>"], ["a", "y"], ["johan", "s"], ["johans", "son"], ["9", "mm</w>"], ["9", "5"], ["u", "u"], ["j", "k"], ["@db-prod-", "4"], ["@db-prod-4", ".internal.acme.co:5432/customers</w>"], ["f", "v"], ["x", "q"], ["o", "l"], ["e", "z"], ["j", "p"], ["h", "z"], ["h", "q"], ["r", "z"], ["d", "t"], ["7", "mm</w>"], ["@db-prod-", "3"], ["@db-prod-3", ".internal.acme.co:5432/customers</w>"], ["g", "k"], ["mendoz", "a"], ["x", "z"], ["c", "z"], ["f", "k"], ["11", "."], ["6", "mm</w>"], ["j", "b"], ["+1-", "2"], ["u", "z"], ["10", "</w>"], ["garc", "ia"], ["j", "v"], ["n", "q"], ["10.0.", "2"], ["$", "4"], ["f", "b"], ["j", "m"], ["9", "3"], ["4", ".</w>"], ["f", "g"], ["r", "x"], ["h", "x"], ["u", "q"], ["1", "2</w>"], ["h", "l"], ["@db-prod-", "7"], ["@db-prod-7", ".internal.acme.co:5432/customers</w>"], ["n", "z"], ["@db-prod-", "5"], ["@db-prod-5", ".internal.acme.co:5432/customers</w>"], ["n", "x"], ["f", "d"], ["f", "p"], ["c", "q"], ["@db-prod-", "2"], ["@db-prod-2", ".internal.acme.co:5432/customers</w>"], ["m", "d"], ["i", "x"], ["v", "e"], ["t", "z"], ["f", "e"], ["m", "k"], ["@db-prod-", "9"], ["@db-prod-9", ".internal.acme.co:5432/customers</w>"], ["@db-prod-", "8"], ["@db-prod-8", ".internal.acme.co:5432/customers</w>"], ["g", "g"], ["v", "k"], ["2", ";</w>"], ["5", ".</w>"], ["5", "1"], ["w", "w"], ["@db-prod-", "6"], ["@db-prod-6", ".internal.acme.co:5432/customers</w>"], ["b", "b"], ["j", "5"], ["3", "z"], ["h", "n"], ["r", "n"], ["v", "</w>"], ["6", "1"], ["c", "x"], ["6", ";</w>"], ["p", "p"], ["i", "u"], ["@db-prod-", "1"], ["@db-prod-1", ".internal.acme.co:5432/customers</w>"], ["r", "l"], ["h", "u"], ["f", "s"], ["9", ";</w>"], ["8", ";</w>"], ["7", "z"], ["6", "z"], ["7", ";</w>"], ["f", "9"], ["r", "u"], ["y", "n"], ["d", "k"], ["y", "w"], ["m", "g"], ["p", "k"], ["0", "q"], ["v", "d"], ["r", "h"], ["1", ";</w>"], ["4", ";</w>"], ["3", "-"], ["s", "k"], ["j", "2"], ["5", ";</w>"], ["8", "1"], ["7", "1"], ["6", "q"], ["w", "n"], ["3", ";</w>"], ["v", "s"], ["3", "q"], ["t", "x"], ["b", "d"], ["v", "g"], ["2", ".</w>"], ["f", "m"], ["y", "c"], ["e", "u"], ["b", "s"], ["0", ".</w>"], ["0", ";</w>"], ["9", "q"], ["b", "k"], ["w", "u"], ["t", "q"], ["p", "s"], ["t", "u"], ["1", "1</w>"], ["j", "1"], ["b", "g"], ["t", "n"], ["i", "h"], ["4", "z"], ["y", "y"], ["d", "s"], ["l", "q"], ["p", "g"], ["9", "1"], ["9", "z"], ["4", "q"], ["-", "0"], ["8", "x"], ["u", "x"], ["7", "q"], ["f", "0"], ["o", "i"], ["8", "z"], ["5", "z"], ["c", "n"], ["m", "p"], ["5", "x"], ["4", ",</w>"], ["b", "p"], ["2", "z"], ["e", "h"], ["y", "h"], ["6", "x"], ["j", "a"], ["o", "g"], ["d", "d"], ["$", "3"], ["i", "w"], [".", "2"], ["b", "v"], ["1", "q"], ["2", "q"], ["c", "c"], ["1", "z"], ["j", "8"], ["m", "5"], ["f", "6"], ["2", "x"], ["j", "0"], ["i", "y"], ["j", "9"], ["r", "r"], ["u", "l"], ["f", "4"], ["+1-", "4"], ["h", "h"], ["j", "6"], ["5", "q"], ["b", "m"], ["f", "7"], ["1", "x"], ["a", "e"], ["w", "y"], ["3", "x"], ["w", "c"], ["j", "7"], ["5", "-"], ["n", "u"], ["1", "h"], ["n", "l"], ["k", "d"], ["2", "l"], ["r", "c"], ["4", "-"], ["v", "o"], ["y", "t"], ["4", "x"], ["v", "m"], ["p", "e"], ["3", "l"], ["$", "8"], ["7", "-"], ["1", "n"], ["s", "d"], ["6", "-"], ["0", "x"], ["v", "7"], ["(", "yuki."], ["(", "olivia."], ["2", "u"], ["k", "k"], ["$", "1"], ["f", "3"], ["f", "8"], ["(", "chris."], ["4", "l"], ["$", "6"], ["7", ",</w>"], ["1", "l"], ["f", "5"], ["9", "x"], ["$", "7"], ["g", "s"], ["m", "o"], ["w", "l"], ["i", "k"], ["v", "a"], ["3", "m</w>"], ["(", "marcus."], ["j", "3"], ["2", ",</w>"], ["v", "2"], ["g", "d"], ["4", "u"], ["7", "x"], ["y", "r"], ["p", "m"], ["(", "diego."], ["v", "0"], ["2", "-"], ["h", "c"], ["/19", "8"], ["1", "m</w>"], ["5", "l"], ["(", "priya."], ["6", "l"], ["4", "y"], ["w", "i"], ["b", "8"], ["6", ",</w>"], ["2", "n"], ["9", "l"], ["4", "n"], ["v", "8"], ["q", "z"], ["p", "a"], ["0", "l"], ["3", "n"], ["w", "</w>"], ["d", "m"], ["1", "u"], ["$", "9"], ["(", "jordan."], ["(", "hannah."], ["o", "s"], ["(", "tom\u00e1s."], ["g", "p"], ["7", "u"], ["(", "aisha."], ["/19", "6"], ["(", "wei."], ["k", "m"], ["(", "alex."], ["/19", "7"], ["(", "samira."], ["1", ",000</w>"], ["b", "6"], ["v", "9"], ["w", "t"], ["c", "y"], ["f", "a"], ["barc", "8"], ["k", "s"], ["e", "i"], ["f", "1"], ["(", "mei."], ["j", "j"], ["f", "2"], ["k", "g"], ["q", "q"], ["11", "/"], ["5", "m</w>"], ["9", "-"], ["0", "h"], ["b", "3"], ["v", "5"], ["j", ".</w>"], ["4", "h"], ["6", "n"], ["b", "7"], ["b", "2"], ["6", "u"], ["v", "3"], ["07", "/"], ["e", "s"], ["0", "u"], ["g", "m"], ["8", ",</w>"], ["n", "y"], ["1", "y"], ["6", "h"], ["t", "t"], ["5", ",000</w>"], ["6", "c"], ["7", "l"], ["x", "l"], ["p", "8"], ["+1-", "3"], ["5", "y"], ["g", "o"], ["r", "w"], ["i", "i"], ["3", "u"], ["0", "n"], ["5", "h"], ["p", "9"], ["01", "/"], ["8", "-"], ["9", ",</w>"], ["w", "k"], ["+1-", "5"], ["g", "7"], ["w", "d"], ["2", "c"], ["6", "m</w>"], ["/19", "9"], ["r", "t"], ["3", ")</w>"], ["g", "8"], ["1", "c"], ["0", "y"], ["3", ",000</w>"], ["m", "9"], ["k", "o"], ["10.0.", "1"], ["f", "j"], ["b", "9"], ["r", "d"], ["m", "7"], ["0", "-"], ["09", "/"], ["3", "c"], ["s", "9"], ["n", "h"], ["z", "u"], ["/19", "4"], ["2", "m</w>"], ["s", "e"], ["3", "h"], ["v", "f"], ["r", "</w>"], ["4", "c"], ["p", "b"], ["barc", "7"], ["10", "/"], ["m", "8"], ["k", "b"], ["06", "/"], ["v", "j"], ["3", "t"], ["z", "q"], ["o", "a"], ["7", "c"], ["5", "u"], ["i", "d"], ["k", "p"], ["barc", "9"], ["g", "9"], ["i", "e"], ["5", "n"], ["1", ")</w>"], ["z", "x"], ["5", "c"], ["m", "b"], ["4", "m</w>"], ["7", "m</w>"], ["12", "/"], ["6", "w"], ["7", "h"], ["n", "n"], ["4", "t"], ["3", "w"], ["d", "a"], ["2", "h"], ["4", "w"], ["x", "h"], ["j", "f"], ["03", "/"], ["3", "y"], ["o", "9"], ["p", "v"], ["2", "y"], ["5", "t"], ["02", "/"], ["a", "8"], ["0", "t"], ["p", "7"], ["x", "y"], ["z", "l"], ["0", "c"], ["0", "w"], ["8", "m</w>"], ["o", "e"], ["04", "/"], ["barc", "6"], ["s", "g"], ["05", "/"], ["0", "m</w>"], ["6", "t"], ["9", "h"], ["/19", "5"], ["7", "y"], ["8", "u"], ["4", ",000</w>"], ["b", "1"], ["7", "t"], ["3", "."], ["k", "v"], ["b", "f"], ["z", "z"], ["x", "c"], ["s", "p"], ["6", ",000</w>"], ["8", "l"], ["6", "y"], ["s", "v"], ["6", "r"], ["5", ")</w>"], ["q", "u"], ["08", "/"], ["m", "1"], ["z", "h"], ["1", "."], ["e", "e"], ["k", "a"], ["d", "g"], ["x", "n"], ["3", "r"], ["d", "p"], ["2", ",000</w>"], ["k", "9"], ["m", "2"], ["q", "y"], ["k", ".</w>"], ["d", "j"], ["w", "g"], ["7", "n"], ["h", "y"], ["u", "y"], ["z", "n"], ["a", "b"], ["1", "t"], ["o", "v"], ["0", ",000</w>"], ["d", "9"], ["o", "8"], ["m", "v"], ["z", "c"], ["z", "t"], ["-", "36"], ["4", "r"], ["d", "f"], ["d", "b"], ["u", "h"], ["2", "t"], ["0", "i"], ["s", "a"], ["s", "b"], ["j", "."], ["q", "x"], ["g", "v"], ["8", "y"], ["k", "j"], ["5", "i"], ["s", "7"], ["q", "t"], ["g", "2"], ["n", "w"], ["9", ")</w>"], ["5", "-2"], ["3", "i"], ["2", ")</w>"], ["8", "w"], ["p", "2"], ["s", "2"], ["9", "m</w>"], ["o", "6"], ["d", "7"], ["3", "-9"], ["u", "t"], ["q", "h"], ["p", "j"], ["b", "j"], ["58", ",</w>"], ["0", "r"], ["a", "9"], ["52", ",</w>"], ["q", "c"], ["g", "j"], ["p", "5"], ["y", "i"], ["o", "2"], ["4", "i"], ["8", "c"], ["$", "48"], ["o", ".</w>"], ["z", "w"], ["1", "r"], ["d", "3"], ["x", "w"], ["x", "t"], ["6", "i"], ["/2", "4"], ["8", "h"], ["54", ",</w>"], ["a", "3"], ["d", "1"], ["4", ")</w>"], ["http://k8s-master", "-2"], ["http://k8s-master-2", ".internal.northwind.io/admin/users</w>"], ["/2", "6"], ["p", "f"], ["8", "r"], ["a", "7"], ["p", "4"], ["k", "2"], ["9", "c"], ["z", "r"], ["x", "u"], ["l", "u"], ["k", "7"], ["k8s-master", "-0"], ["k8s-master-0", ".internal.northwind.io</w>"], ["/2", "8"], ["m", "j"], ["35", "%</w>"], ["q", "</w>"], ["h", "r"], ["5", "w"], [".", "1"], ["o", "j"], ["barc", "2"], ["m", ".</w>"], ["n", "r"], ["f", "."], ["o", "5"], ["http://k8s-master", "-0"], ["http://k8s-master-0", ".internal.northwind.io/admin/users</w>"], ["8", ",000</w>"], ["/2", "0"], ["k8s-master", "-3"], ["k8s-master-3", ".internal.northwind.io</w>"], ["20", "%</w>"], ["http://k8s-master", "-3"], ["http://k8s-master-3", ".internal.northwind.io/admin/users</w>"], ["d", "8"], ["q", "w"], ["a", "j"], ["-", "56"], ["$", "39"], ["o", "1"], ["$", "27"], ["d", "v"], ["c", "w"], ["m", "6"], ["o", "4"], ["b", "0"], ["y", "e"], ["m", "4"], ["m", "3"], ["9", "y"], ["$", "47"], ["q", "r"], ["$", "28"], ["s", "8"], ["d", "2"], ["m", "0"], ["3", "-7"], ["-", "59"], ["57", ",</w>"], ["g", "6"], ["k", "0"], ["17", "%</w>"], ["h", "i"], ["g", "3"], ["-", "52"], ["e", "v"], ["1-", "7"], ["k", "6"], ["d", "4"], ["x", "i"], ["k8s-master", "-5"], ["k8s-master-5", ".internal.northwind.io</w>"], ["$", "29"], ["56", ",</w>"], ["b", "5"], ["k", "3"], ["k", "5"], ["k", "1"], ["z", "y"], ["59", ",</w>"], ["3", "-2"], ["2", "w"], ["v", "1"], ["c", "i"], ["s", "0"], ["9", "w"], ["a", "5"], ["-", "58"], ["g", "0"], ["h", "w"], ["d", "6"], ["q", "n"], ["http://k8s-master", "-4"], ["http://k8s-master-4", ".internal.northwind.io/admin/users</w>"], ["g", "5"], ["/2", "7"], ["3", "-6"], ["p", "3"], ["9", "n"], ["a", ".</w>"], ["9", "t"], ["0", ")</w>"], ["2", "r"], ["g", "f"], ["p", "."], ["l", "x"], ["5", "-7"], ["7", "r"], ["k", "f"], ["9", "u"], ["4", "."], ["p", "0"], ["3", "-8"], ["m", "f"], ["k8s-master", "-1"], ["k8s-master-1", ".internal.northwind.io</w>"], ["s", "5"], ["23", "%</w>"], ["/2", "1"], ["b", "."], ["p", "6"], ["k8s-master", "-2"], ["k8s-master-2", ".internal.northwind.io</w>"], ["1-", "9"], ["9", ",000</w>"], ["s", "4"], ["k8s-master", "-4"], ["k8s-master-4", ".internal.northwind.io</w>"], ["1", "w"], ["s", "1"], ["v", "6"], ["http://k8s-master", "-5"], ["http://k8s-master-5", ".internal.northwind.io/admin/users</w>"], ["/2", "3"], ["o", "0"], ["7", "w"], ["6", ")</w>"], ["41", "%</w>"], ["8", "n"], ["-", "54"], ["3", "-4"], ["j", "4"], ["g", "1"], ["p", "1"], ["l", "y"], ["b", "4"], ["s", "3"], ["b", ".</w>"], ["u", "i"], ["g", "a"], ["v", "."], ["s", "f"], ["44", ",</w>"], ["25", "%</w>"], ["$", "5"], ["-", "32"], ["s", "j"], ["g", "4"], ["$", ".</w>"], ["4", "-2"], ["18", "%</w>"], ["28", "%</w>"], ["9", "r"], ["26", "%</w>"], ["-", "39"], ["$", "12"], ["k", "4"], ["o", "7"], ["7", ",000</w>"], ["1-", "8"], ["v", "4"], ["u", "w"], ["5", "."], ["l", "z"], ["c", "r"], ["http://vault", "-4"], ["http://vault-4", ".prod.acme.co/admin/users</w>"], ["2", "."], ["d", "5"], ["l", "n"], ["38", "%</w>"], ["8", "-8"], ["e", "j"], ["37", "%</w>"], ["15", "%</w>"], ["a", "a"], ["42", "%</w>"], ["49", ",</w>"], ["@", ".</w>"], ["%", ".</w>"], ["68", ",</w>"], ["$", "18"], ["+1-", "40"], ["q", "i"], ["8", ")</w>"], ["u", "</w>"], ["barc", "4"], ["http://k8s-master", "-1"], ["http://k8s-master-1", ".internal.northwind.io/admin/users</w>"], ["$", "30"], ["7", "-2"], ["32", "%</w>"], ["n", "i"], ["47", ",</w>"], ["-", "50"], ["-", "34"], ["-", "57"], ["$", "32"], ["31", "%</w>"], ["$", "44"], ["$", "49"], ["-", "37"], ["v", ".</w>"], ["5", "-4"], ["5", "-8"], ["+1-", "56"], ["8", "i"], ["30", "%</w>"], ["l", "h"], ["44", "%</w>"], ["f", "_"], ["39", "%</w>"], ["-", "38"], ["$", "26"], ["$", "10"], ["-", "30"], ["t", "r"], ["-6", "6"], ["0", "-7"], ["e", "m"], ["9", "i"], ["$", "37"], ["10.0.", "16"], ["$", "34"], ["0", "-8"], ["l", "c"], ["$", "40"], ["7", "e"], ["i", "4"], ["a", "o"], ["7", ")</w>"], ["43", "%</w>"], ["$", "36"], ["4", "-9"], ["16", "%</w>"], ["40", "%</w>"], ["/2", "5"], ["+1-", "48"], ["46", ",</w>"], ["s", "6"], ["/24", "/19"], ["7", "i"], ["-6", "8"], ["24", "%</w>"], ["19", "%</w>"], ["67", ",</w>"], ["64", ",</w>"], ["barc", "3"], ["09", "/19"], ["a", "0"], ["-", "40"], ["33", "%</w>"], ["0", "-4"], ["/2", "2"], ["4", "-7"], ["1", "g"], ["8", "t"], ["3", "e"], ["42", ",</w>"], ["48", ",</w>"], ["e", "b"], ["x", "r"], ["1-", "6"], ["l", "w"], ["6", "v"], ["+1-", "37"], ["5", "r"], ["2", "-8"], ["-6", "9"], ["d", "0"], ["6", "-8"], ["10.0.", "18"], ["a", "2"], ["y", "k"], ["10.0.", "17"], ["$", "19"], ["10.0.", "10"], ["barc", "5"], ["o", "3"], ["03", "/19"], ["$", "22"], ["+1-", "79"], ["z", "i"], ["1", "i"], ["34", "%</w>"], ["c", "d"], ["g", "."], ["2", "-7"], ["2", "-2"], ["c", "v"], ["7", "-8"], ["7", "k"], ["89", ",</w>"], ["c", "k"], ["22", "%</w>"], ["4", "-8"], ["/28", "/19"], ["62", ",</w>"], ["66", ",</w>"], ["6", "-4"], ["69", ",</w>"], ["8", "k"], ["+1-", "52"], ["j", "_"], ["6", "-7"], ["86", ",</w>"], ["redis-", "2"], ["redis-2", ".staging.helix.bio</w>"], ["r", ".</w>"], ["96", ",</w>"], ["2", "e"], ["02", "/19"], ["3", "d"], ["10.", "9;</w>"], ["5", "e"], ["-9", "9"], ["29", "%</w>"], ["82", ",</w>"], ["+1-", "88"], ["vault", "-5"], ["vault-5", ".prod.acme.co</w>"], ["10.0.", "19"], ["+1-", "58"], ["2", "-4"], ["6", "e"], ["+1-", "38"], ["8", "-4"], ["$", "38"], ["h", "k"], ["06", "/19"], ["redis-", "5"], ["redis-5", ".staging.helix.bio</w>"], ["$", "14"], ["55", ",</w>"], ["3", "f"], ["10.0.", "22"], ["postgresql://admin:", "x"], ["8", "-6"], ["http://vault", "-1"], ["http://vault-1", ".prod.acme.co/admin/users</w>"], ["http://redis-", "4"], ["http://redis-4", ".staging.helix.bio/admin/users</w>"], ["36", "%</w>"], ["8.", "7;</w>"], ["a", "f"], ["y", "g"], ["0", "d"], ["postgresql://admin:", "q"], ["34", "9"], ["l", "r"], ["!", ".</w>"], ["h", "b"], ["17", "/19"], ["+1-", "67"], ["v", "_"], ["m", "_"], ["e", "1"], ["r", "2"], ["password=", "z"], ["$", "16"], ["04", "/19"], ["07", "/19"], ["m", "."], ["w", "2"], ["12", "/19"], ["-", "z"], ["5", "1-"], ["6", "-6"], ["45", "%</w>"], ["r", "p"], ["35", ".</w>"], ["8", "-2"], ["vault", "-1"], ["vault-1", ".prod.acme.co</w>"], ["21", "%</w>"], ["h", "5"], ["i", "v"], ["http://vault", "-3"], ["http://vault-3", ".prod.acme.co/admin/users</w>"], ["#", ".</w>"], ["8", "e"], ["+1-", "27"], ["-", "12"], ["/26", "/19"], ["5", "-9"], ["d", "o"], ["$", "17"], ["http://redis-", "3"], ["http://redis-3", ".staging.helix.bio/admin/users</w>"], ["n", "m"], ["u", "c"], ["9", "g"], ["6", "-9"], ["16", "/19"], ["redis-", "9"], ["redis-9", ".staging.helix.bio</w>"], ["http://redis-", "9"], ["http://redis-9", ".staging.helix.bio/admin/users</w>"], ["14", "/19"], ["7", "-6"], ["2", "-9"], ["7", "-7"], ["x", "e"], ["4", "-6"], ["w", "v"], ["2", "-6"], ["y", "b"], ["9", "d"], ["+1-", "69"], ["3", "b"], ["-", "10"], ["y", "p"], ["z", "</w>"], ["u", "k"], ["openai_api_key=sk", "-l"], ["x", "v"], ["x", "g"], ["11", "/19"], ["4", "-4"], ["36", ",</w>"], ["45", ",</w>"], ["z", "k"], ["n", "g"], ["w", "b"], ["50", ".</w>"], ["+1-", "49"], ["72", ",</w>"], ["http://vault", "-6"], ["http://vault-6", ".prod.acme.co/admin/users</w>"], ["-", "19"], ["0", "s"], ["y", "s"], ["7", "-4"], ["password=", "q"], ["87", ",</w>"], ["postgresql://admin:", "t"], ["/20", "/19"], ["/27", "/19"], ["a", "6"], ["http://vault", "-2"], ["http://vault-2", ".prod.acme.co/admin/users</w>"], ["0", "-2"], ["y", "j"], ["z", "d"], ["http://vault", "-7"], ["http://vault-7", ".prod.acme.co/admin/users</w>"], ["w", "5"], ["u", "b"], ["openai_api_key=sk-", "q"], ["01", "/19"], ["+1-", "59"], ["http://vault", "-5"], ["http://vault-5", ".prod.acme.co/admin/users</w>"], ["18", "/19"], ["n", "5"], ["$", "46"], ["34", ".</w>"], ["redis-", "1"], ["redis-1", ".staging.helix.bio</w>"], ["+1-", "36"], ["http://vault", "-8"], ["http://vault-8", ".prod.acme.co/admin/users</w>"], ["8", "-9"], ["4", "f"], ["vault", "-6"], ["vault-6", ".prod.acme.co</w>"], ["n", "v"], ["9", "k"], ["13", "/19"], ["88", ",</w>"], ["i", "p"], ["7", "-9"], ["redis-", "3"], ["redis-3", ".staging.helix.bio</w>"], ["10", "/19"], ["w", "j"], ["6", "-2"], ["c", "g"], ["e", "o"], ["+1-", "29"], ["27", "%</w>"], ["vault", "-7"], ["vault-7", ".prod.acme.co</w>"], ["vault", "-8"], ["vault-8", ".prod.acme.co</w>"], ["u", "d"], ["9", "-6"], ["-", "18"], ["r", "b"], ["postgresql://admin:", "u"], ["+1-", "99"], ["74", ",</w>"], ["i", "5"], ["10.0.", "12"], ["w", "m"], ["h", "m"], ["1", "1-"], ["9.", "5;</w>"], ["6.", "8;</w>"], ["2", "s"], ["1", "b"], ["38", ",</w>"], ["aki", "am"], ["10.", "8;</w>"], ["8.", "2;</w>"], ["8", "-7"], ["77", ",</w>"], ["r", "3"], ["w", "7"], ["n", "7"], ["n", "6"], ["99", ",</w>"], ["+1-", "47"], ["i", "j"], ["c", "."], ["10.", "6;</w>"], ["+1-", "78"], ["4", "d"], ["8.", "3;</w>"], ["ey", "js"], ["10.0.", "14"], ["q", "d"], ["aki", "av"], ["vault", "-3"], ["vault-3", ".prod.acme.co</w>"], ["e", "f"], ["34", "</w>"], ["8", "f"], ["h", "2"], ["c", "m"], ["x", "0"], ["z", "5"], ["0", "-9"], ["aki", "an"], ["y", "m"], ["12", ".</w>"], ["9", "-8"], ["4", "k"], ["r", "j"], ["4", "g"], ["r", "8"], ["w", "0"], ["http://redis-", "6"], ["http://redis-6", ".staging.helix.bio/admin/users</w>"], ["11.", "2;</w>"], ["http://redis-", "8"], ["http://redis-8", ".staging.helix.bio/admin/users</w>"], ["6.", "6;</w>"], ["08", "/19"], ["/21", "/19"], ["http://redis-", "2"], ["http://redis-2", ".staging.helix.bio/admin/users</w>"], ["+1-", "22"], ["vault", "-4"], ["vault-4", ".prod.acme.co</w>"], ["4", "v"], ["0", "b"], ["n", "j"], ["-", "x"], ["9", "-9"], ["h", "o"], ["vault", "-2"], ["vault-2", ".prod.acme.co</w>"], ["3", "m"], ["7.", "3;</w>"], ["0", "-6"], ["http://redis-", "5"], ["http://redis-5", ".staging.helix.bio/admin/users</w>"], ["+1-", "44"], ["t", "p"], ["79", ",</w>"], ["c", ".</w>"], ["+1-", "54"], ["h", "g"], ["n", "s"], ["5", "-6"], ["e", "7"], ["54", ".</w>"], ["7.", "1;</w>"], ["+1-", "57"], ["n", "k"], ["redis-", "7"], ["redis-7", ".staging.helix.bio</w>"], ["aki", "ag"], ["9", "a"], ["7", "p"], ["h", "d"], ["0", "g"], ["y", "v"], [".", "17"], ["e", "6"], ["6.", "9;</w>"], ["redis-", "8"], ["redis-8", ".staging.helix.bio</w>"], ["9", "v"], ["u", "p"], ["w", "f"], ["s", "_"], ["2", "b"], ["u", "2"], ["3", "37"], ["q", "k"], ["+1-", "39"], ["11.", "1;</w>"], ["u", "j"], ["5", "d"], ["c", "b"], ["i", ".</w>"], ["8", "v"], ["35", "</w>"], ["w", "9"], ["05", "/19"], ["8.", "8;</w>"], ["0", "k"], ["x", "p"], ["r", "v"], ["7", "b"], ["openai_api_key=sk", "-u"], ["h", "p"], ["7", "v"], ["76", ",</w>"], ["y", "d"], ["11.", "0;</w>"], ["+1-", "50"], ["78", ",</w>"], ["x", "k"], ["redis-", "4"], ["redis-4", ".staging.helix.bio</w>"], ["r", "g"], ["8.", "4;</w>"], ["58", ".</w>"], ["+1-", "32"], ["98", ",</w>"], ["http://redis-", "7"], ["http://redis-7", ".staging.helix.bio/admin/users</w>"], ["1", "e"], ["gh", "p"], ["aki", "ar"], ["9", "-7"], ["31", ",</w>"], ["/23", "/19"], ["c", "f"], ["password", "=s"], ["w", "s"], ["3", "j"], ["2", "o"], ["x", "d"], ["94", ",</w>"], ["z", "g"], ["z", "2"], ["34", ",</w>"], ["password=", "t"], ["4", "e"], ["http://redis-", "1"], ["http://redis-1", ".staging.helix.bio/admin/users</w>"], ["y", "f"], ["u", "f"], ["3", "k"], ["r", "m"], ["/198", "0,</w>"], ["1", "v"], ["6", "d"], ["7.", "0;</w>"], ["10.", "5;</w>"], ["10.", "2;</w>"], ["57", ".</w>"], ["_", "."], ["8.", "0;</w>"], ["t", ".</w>"], ["z", "0"], ["4", "p"], ["n", "d"], ["4", "m"], ["6", "k"], ["f", "-"], ["18", "</w>"], ["y", "6"], ["7.", "2;</w>"], ["4", "b"], ["15", ",</w>"], ["56", ".</w>"], ["t", "b"], ["11.", "4;</w>"], ["8", "b"], ["4", "s"], ["vault", "-9"], ["vault-9", ".prod.acme.co</w>"], ["barc", "1"], ["52", ".</w>"], ["9", "-4"], ["aki", "aq"], ["15", ".</w>"], ["38", ".</w>"], ["q", "s"], ["1", "s"], ["x", "o"], ["7.", "4;</w>"], ["i", "m"], ["x", "6"], ["_", "q"], ["1", "k"], ["z", "e"], ["9.", "1;</w>"], ["15", "/19"], ["t", "d"], ["_", "l"], ["0", "j"], ["+1-", "34"], ["8", "m"], ["+1-", "68"], ["n", "e"], ["9.", "2;</w>"], ["2", "k"], ["aki", "as"], ["35", ",</w>"], ["u", "g"], ["00", ".</w>"], ["3", "16"], ["y", "."], ["w", ".</w>"], ["3", "p"], ["9", "p"], ["ak", "ial"], ["q", "g"], ["/194", "3,</w>"], ["50", "</w>"], ["3", "g"], ["8.", "5;</w>"], ["http://vault", "-9"], ["http://vault-9", ".prod.acme.co/admin/users</w>"], ["redis-", "6"], ["redis-6", ".staging.helix.bio</w>"], ["aki", "ad"], ["2", "v"], ["t", "g"], ["7.", "6;</w>"], ["w", "p"], ["9", "f"], ["1", "p"], ["9", "-2"], ["39", ".</w>"], ["7", "g"], ["5", "b"], ["5", "k"], ["5", "37"], ["q", "j"], ["-8", "7"], ["1-", "2"], ["6.", "7;</w>"], ["8", "g"], ["5", "f"], ["c", "a"], ["39", ",</w>"], ["9", "o"], ["36", "</w>"], ["/196", "3,</w>"], ["10.", "7;</w>"], ["3", "s"], ["8", "j"], ["i", "1"], ["o", "-"], ["h", ".</w>"], ["-", "14"], ["u", "a"], ["postgresql://admin:", "h"], ["9.", "7;</w>"], ["40", "</w>"], ["6", "p"], ["8", "d"], ["8.", "9;</w>"], ["x", ".</w>"], ["+1-", "28"], ["c", "j"], ["_", "x"], ["h", "s"], ["q", "f"], ["1", "d"], ["9.", "3;</w>"], ["8.", "6;</w>"], ["u", "v"], ["97", ",</w>"], ["40", ".</w>"], ["/197", "0,</w>"], ["10", ".</w>"], ["openai_api_key=sk-", "z"], ["+1-", "77"], ["59", ".</w>"], ["$", "67"], ["/194", "1,</w>"], ["-", "17"], ["x", "f"], ["/25", "/19"], ["14", ",</w>"], ["-", "."], ["ghp", "_i"], ["aki", "ap"], ["l", "p"], ["aki", "aw"], ["t", "m"], ["/195", "1,</w>"], ["x", "b"], ["58", "</w>"], ["2", "g"], ["q", "v"], ["c", "p"], ["l", "k"], ["r", "6"], ["19", "</w>"], ["/22", "/19"], ["18", ",</w>"], ["y", "5"], ["$", "11"], ["h", "3"], ["59", "</w>"], ["9", "m"], ["t", "k"], ["7.", "9;</w>"], ["9.", "6;</w>"], ["i", "3"], ["aki", "ai"], ["92", ",</w>"], ["c", "7"], ["3", "17"], ["9.", "4;</w>"], ["c", "3"], ["l", "g"], ["10.0.", "11"], ["u", "m"], ["t", "f"], ["9", "s"], ["z", "3"], ["2", "09"], ["-", "16"], ["5", "s"], ["7", "d"], ["h", "f"], ["aki", "ak"], ["38", "</w>"], ["/196", "5,</w>"], ["0", "o"], ["/197", "3,</w>"], [".", "x"], [".", "16"], ["+1-", "30"], ["+1-", "89"], ["10.", "1;</w>"], ["aki", "ac"], ["c", "5"], ["c", "s"], ["9.", "8;</w>"], ["0", "1-"], ["4", "16"], ["z", "p"], ["n", "p"], ["/198", "1,</w>"], ["postgresql://admin:", "l"], ["/196", "0,</w>"], ["3", "40"], ["q", "a"], ["q", "e"], ["19", ".</w>"], ["b", "_"], ["32", ",</w>"], ["aki", "au"], ["4", "29"], ["0", "e"], ["84", ",</w>"], ["1", "m"], ["4", "j"], ["57", "</w>"], ["/194", "0,</w>"], ["0", "m"], ["14", "</w>"], ["n", ".</w>"], ["x", "j"], ["6", "s"], ["c", "9"], ["$", "42"], ["0", "p"], ["39", "</w>"], ["5", "p"], ["postgresql://admin:", "@"], ["i", "2"], ["30", "9"], ["4", "a"], ["10", ",</w>"], ["n", "3"], ["/199", "1,</w>"], ["password=", "r"], ["3", "36"], ["z", ".</w>"], ["postgresql://admin:", "#"], ["12", "/30.</w>"], ["5", "g"], ["8", "s"], ["19", ",</w>"], ["u", "1"], ["-7", "9"], ["1", "f"], ["18", ".</w>"], ["t", "1"], ["z", "j"], ["10.", "4;</w>"], ["y", "a"], ["y", "9"], ["_", "n"], ["+1-", "46"], ["59", "7"], ["h", "v"], ["7", "a"], ["5", "17"], ["r", "f"], ["i", "o"], ["32", "7"], ["1", "36"], ["q", "m"], ["i", "f"], ["w", "6"], ["_", "_"], ["y", "2"], ["-", "35"], ["n", "2"], ["18", "9"], ["t", "j"], ["u", "0"], ["04", "/26.</w>"], ["12", ",</w>"], ["+1-", "42"], ["-", "n"], ["17", ",</w>"], ["password=", "k"], ["/195", "0,</w>"], ["h", "0"], ["7.", "7;</w>"], ["$", "56"], ["9", "j"], ["-2", "6"], ["2", "54"], ["x", "a"], ["q", "b"], ["11", ".</w>"], ["w", "8"], ["/198", "5,</w>"], ["37", "</w>"], ["52", "6"], ["c", "0"], ["openai_api_key=sk", "-2"], ["l", "j"], ["r", "k"], ["_", "z"], ["password=", "h"], ["aki", "a1"], ["h", "7"], ["9", "e"], ["gb", "10"], ["1", "a"], ["1", "34"], ["u", "7"], ["5", "00"], ["5", "38"], ["7.", "5;</w>"], ["_", "y"], ["akia", "z"], ["w", "1"], ["5", "v"], ["postgresql://admin:", "!"], ["5", "m"], ["ghp_", "z"], ["37", ".</w>"], ["-7", "7"], ["+1-", "86"], ["c", "2"], ["/197", "1,</w>"], ["u", ".</w>"], ["3", "1-"], ["10.", "3;</w>"], ["r", "7"], ["6", "o"], ["2", "p"], ["5", "39"], ["2", "67"], ["/198", "3,</w>"], ["12", "8"], ["5", "57"], ["x", "m"], ["e", "2"], [".", "18"], ["l", "0"], ["2", "39"], ["_", "c"], ["10.", "0;</w>"], ["01", "/29.</w>"], ["$", "57"], ["6", "b"], ["3", "57"], ["n", "f"], ["gb", "19"], ["postgresql://admin:", "z"], ["-8", "8"], ["7.", "8;</w>"], ["t", "v"], ["06", "/26.</w>"], ["4", "69"], ["3", "54"], ["$", "59"], ["password=", "!"], ["5", "36"], ["w", "3"], ["e", "4"], ["y", "4"], ["11.", "3;</w>"], ["9.", "0;</w>"], ["26", ".</w>"], ["+1-", "87"], ["8", "p"], ["y", "0"], ["2", "08"], ["6", "69"], ["q", "o"], ["6", "j"], ["password=", "%"], ["0", "47"], ["q", "3"], ["8.", "1;</w>"], ["26", "</w>"], ["i", "7"], ["3", "30"], ["2", "j"], ["2", "m"], ["t", "o"], ["3", "19"], ["l", "d"], ["6", "29"], ["46", "</w>"], ["-6", "2"], ["05", "/29.</w>"], [".", "22"], ["49", "</w>"], ["54", "</w>"], ["1", "32"], ["34", "7"], ["v", "-"], ["6", "a"], ["_", "r"], ["12", "/31.</w>"], ["3", "14"], ["-4", "9"], ["i", "s"], ["3", "v"], ["i", "9"], ["i", "0"], ["t", "4"], ["5", "j"], ["1", "10"], ["z", "m"], ["q", ".</w>"], ["5", "52"], ["16", ".</w>"], ["q", "p"], ["9.", "9;</w>"], ["3", "56"], ["password=", "u"], ["+1-", "26"], ["1", "57"], ["-", "w"], ["w", "o"], ["eyj", "q"], ["y", "o"], ["6", "68"], ["1", "o"], ["4", "68"], ["gb", "52"], ["i", "8"], ["l", "f"], ["x", "3"], ["t", "5"], ["aki", "at"], ["17", ".</w>"], ["01", "/30.</w>"], ["46", ".</w>"], ["l", "m"], ["3", "38"], ["password=", "#"], ["11", "/31.</w>"], ["4", "27"], ["$", "58"], ["e", "."], ["12", "/26.</w>"], ["37", "9"], ["h", "8"], ["h", "j"], ["6", "44"], ["n", "9"], ["59", "8"], ["password=", "@"], ["17", "</w>"], ["l", "b"], ["l", ".</w>"], ["7", "s"], [".", "14"], ["08", "/32.</w>"], ["u", "6"], ["x", "7"], ["/195", "3,</w>"], ["gb", "12"], ["x", "s"], ["u", "4"], ["ghp_", "q"], ["3", "52"], ["y", "1"], [".", "9"], ["/199", "5,</w>"], ["6", "47"], [".", "11"], ["u", "9"], ["6", "67"], ["42", ".</w>"], ["l", "8"], ["10", "/30.</w>"], ["59", "9"], ["u", "3"], ["55", ".</w>"], ["a", "-"], ["-6", "7"], ["e", "9"], ["4", "56"], ["7", "m"], ["e", "8"], ["gb", "74"], ["-", "t"], ["4", "36"], ["-2", "8"], ["8", "29"], ["67", ".</w>"], ["gb", "61"], ["45", ".</w>"], ["05", ".</w>"], ["openai_api_key=sk-", "y"], ["c", "1"], ["n", "1"], ["l", "2"], ["04", "/31.</w>"], ["7", "f"], ["r", "0"], ["04", "/30.</w>"], ["35", "m</w>"], [".", "19"], ["gb", "78"], ["49", ".</w>"], ["4", "o"], ["z", "f"], ["3", "34"], ["l", "5"], ["09", ".</w>"], ["z", "."], ["33", ",</w>"], ["l", "9"], ["4", "39"], ["/197", "5,</w>"], ["-2", "9"], ["ghp_", "c"], ["akia", "h"], ["r", "."], ["n", "0"], ["gb", "30"], ["7", "44"], ["05", "/28.</w>"], ["8", "16"], ["01", ".</w>"], ["6", "g"], ["barc", "17"], ["06", "/29.</w>"], ["u", "8"], ["t", "2"], ["30", "7"], ["6", "18"], ["05", "/27.</w>"], ["56", "7"], ["04", "/27.</w>"], ["2", "f"], ["6", "58"], ["/199", "0,</w>"], ["password=", "y"], ["08", "/31.</w>"], ["0", "v"], ["akia", "y"], ["13", ",</w>"], ["28", ",</w>"], ["password=", "$"], ["n", "b"], ["07", "/28.</w>"], ["gb", "63"], ["/199", "3,</w>"], ["5", "59"], ["03", "/26.</w>"], ["postgresql://admin:", "%"], ["x", "5"], ["-9", "8"], [".", "5"], ["11", "/32.</w>"], ["-4", "8"], ["t", "8"], ["2", "d"], ["l", "v"], ["8", "o"], ["22", ",</w>"], ["5", "32"], ["barc", "22"], ["2", "07"], ["$", "69"], ["gb", "59"], ["openai_api_key=sk-", "x"], ["_", "w"], ["a", "4"], ["c", "4"], ["6", "m"], ["t", "s"], ["1", "40"], ["eyj", "y"], ["-9", "7"], ["5", "19"], ["z", "7"], ["h", "4"], ["z", "b"], ["t", "7"], ["07", "/26.</w>"], ["openai_api_key=sk-", "t"], ["12", "/32.</w>"], ["password=", "n"], ["+1-", "76"], ["3", "-5"], ["14", "9"], ["e", "5"], ["56", "</w>"], ["16", "</w>"], ["_", "h"], ["50", "8"], ["12", "/27.</w>"], ["q", "."], ["1", "12"], ["barc", "48"], ["gb", "49"], ["$", "88"], ["09", "/28.</w>"], ["01", "/28.</w>"], ["x", "1"], ["3", "12"], ["gb", "13"], ["1", "52"], ["e", "0"], ["postgresql://admin:", "c"], ["gb", "50"], ["3", "10"], ["postgresql://admin:", "w"], ["38", "0"], ["07", "/27.</w>"], ["gb", "72"], ["z", "s"], ["29", ".</w>"], ["n", "."], ["3", "39"], ["-", "h"], ["q", "2"], ["barc", "69"], ["37", ",</w>"], ["10", "/32.</w>"], ["2", "68"], ["barc", "37"], ["k", "_"], ["z", "v"], ["06", "/30.</w>"], ["password=", "c"], ["02", "/26.</w>"], ["gb", "41"], ["+1-", "66"], ["z", "9"], ["9", "48"], ["0", "f"], ["gb", "32"], ["05", "/32.</w>"], ["4", "10"], ["openai_api_key=sk-", "c"], ["8", "07"], ["x", "9"], ["w", "4"], ["3", "o"], ["_", "u"], ["gb", "29"], ["7", "79"], ["47", ".</w>"], ["gb", "45"], ["9", "b"], ["00", "</w>"], ["gb", "37"], ["5", "10"], ["14", ".</w>"], ["ghp_", "r"], ["09", ",</w>"], ["4", "32"], ["gb", "82"], ["48", ".</w>"], ["7", "o"], ["5", "-5"], ["2", "a"], ["postgresql://admin:", "j"], ["44", "</w>"], ["$", "66"], ["_", "p"], ["e", "_"], [".", "6"], ["10", "/29.</w>"], ["gb", "80"], ["1", "54"], ["-7", "6"], ["gb", "83"], ["x", "4"], ["4", "54"], ["l", "1"], ["54", "9"], ["5", "o"], ["gb", "79"], ["1", "59"], ["-", "y"], [".", "12"], ["gb", "35"], ["15", "</w>"], ["t", "0"], ["2", "34"], ["z", "o"], ["eyj", "l"], ["e", "3"], ["8", "32"], ["02", "/28.</w>"], ["2", "50"], ["5", "56"], ["r", "4"], ["38", ",000</w>"], ["$", "77"], ["z", "4"], ["5", "12"], ["08", "/26.</w>"], ["postgresql://admin:", "n"], ["2", "56"], ["12", "/29.</w>"], ["2", "10"], ["08", "/30.</w>"], ["27", ".</w>"], ["-2", "7"], ["01", "/32.</w>"], ["28", "</w>"], ["6", "39"], ["eyj", "h"], ["/196", "1,</w>"], ["11", ",</w>"], ["_", "m"], ["gb", "67"], ["gb", "70"], ["5", "16"], ["postgresql://admin:", "r"], ["11", "/27.</w>"], ["06", "/27.</w>"], ["06", ".</w>"], ["barc", "27"], ["h", "9"], ["11", "/26.</w>"], ["z", "1"], ["4", "50"], ["02", "/29.</w>"], ["barc", "19"], ["y", "7"], ["_", "d"], ["z", "a"], ["gb", "42"], ["08", "/29.</w>"], ["3", "18"], ["n", "4"], ["5", "a"], ["u", "o"], ["3", "50"], ["q", "8"], ["7", "j"], ["f", "@"], ["gb", "31"], ["password=", "l"], [".", "10"], ["00", ",</w>"], ["v", "%"], ["t", "3"], ["a", "!"], ["z", "8"], ["8", "19"], ["postgresql://admin:", "p"], ["03", "/27.</w>"], ["g", "-"], ["1", "30"], ["39", ",000</w>"], ["gb", "60"], ["6", "07"], ["1", "58"], ["3", "32"], ["6", "32"], ["0", "69"], ["gb", "16"], ["2", "58"], ["barc", "78"], ["v", "@"], ["62", ".</w>"], ["gb", "48"], ["40", ",000</w>"], ["4", "57"], ["openai_api_key=sk-", "i"], ["-2", "2"], ["10", ",000</w>"], ["t", "6"], ["6", "22"], ["6", "27"], ["gb", "93"], ["gb", "18"], ["u", "."], ["ghp_", "w"], ["02", ".</w>"], ["09", "/29.</w>"], ["postgresql://admin:", "i"], ["05", "/31.</w>"], ["password=", "d"], ["-", "r"], ["mendoz", "a1"], ["gb", "20"], ["$", "52"], ["44", ".</w>"], ["11", "/28.</w>"], ["4", "38"], ["52", "8"], ["gb", "66"], ["09", "/27.</w>"], ["gb", "26"], ["35", ",000</w>"], ["eyj", "u"], ["gb", "56"], ["m", "!"], ["01", "/27.</w>"], ["3", "58"], ["postgresql://admin:", "k"], ["$", "15"], [".", "l"], ["barc", "29"], ["gb", "47"], ["barc", "99"], ["4", "28"], ["6", "f"], ["gb", "40"], ["y", "8"], ["79", "</w>"], ["-7", "8"], ["26", ",</w>"], ["gb", "88"], ["1", "38"], ["78", ".</w>"], ["68", ".</w>"], ["#", "y"], ["q", "5"], ["6", "49"], ["2", "32"], ["postgresql://admin:", "m"], ["7", "36"], ["05", "/30.</w>"], ["07", "/30.</w>"], ["barc", "26"], ["g", "_"], ["gb", "27"], ["1", "37"], ["10", "/31.</w>"], ["2", "59"], ["+1-", "62"], ["$", "54"], ["4", "19"], ["ghp_", "k"], ["38", "9"], ["gb", "62"], ["openai_api_key=sk-", "g"], ["04", ",</w>"], ["57", "7"], ["69", "9"], ["06", "/28.</w>"], ["gb", "84"], [".", "c"], ["09", "/31.</w>"], ["7", "30"], ["7", "59"], ["barc", "67"], ["-4", "2"], ["eyj", "r"], ["56", "8"], ["68", "</w>"], ["4", "52"], ["03", "/28.</w>"], ["o", "_"], ["postgresql://admin:", "s"], ["5", "58"], ["password=", "x"], ["z", "6"], ["_", "v"], ["2", "16"], ["11", "/30.</w>"], ["openai_api_key=sk-", "b"], ["gb", "38"], ["05", "</w>"], ["akia", "0"], ["gb", "55"], ["7", "28"], ["gb", "14"], ["gb", "43"], ["q", "0"], ["openai_api_key=sk-", "r"], ["5", "18"], ["eyj", "n"], ["5", "54"], ["12", "/28.</w>"], ["5", "34"], ["-9", "0"], ["$", "z"], ["27", "</w>"], ["password=", "j"], ["$", "45"], ["d", "_"], ["03", "/31.</w>"], ["gb", "96"], ["2", "52"], ["68", "9"], ["8", "22"], ["i", "6"], ["$", "k"], ["7", "56"], ["t", "-"], ["ghp_", "y"], ["h", "6"], ["+1-", "31"], ["eyj", "x"], ["04", "/28.</w>"], ["barc", "28"], ["gb", "75"], ["gb", "54"], ["06", ",</w>"], ["2", "i"], ["7", "48"], ["g", "+"], ["password=", "e"], ["-9", "2"], ["t", "9"], ["05", ",</w>"], ["ghp_", "x"], ["4", "-5"], ["q", "9"], ["gb", "23"], ["password=", "b"], ["1", "19"], ["gb", "99"], ["barc", "52"], ["w", "."], ["6", "10"], ["10", "/27.</w>"], ["gb", "81"], ["$", "35"], ["10", "9"], ["02", "/27.</w>"], ["gb", "69"], ["$", "h"], ["4", "12"], ["gb", "24"], ["11", ",000</w>"], ["$", "31"], ["6", "1-"], ["76", "</w>"], ["39", "m</w>"], ["04", ".</w>"], ["tanak", "a1"], ["5", "50"], ["openai_api_key=sk-", "n"], ["6", "08"], ["69", "8"], ["5", "1.</w>"], ["58", ",000</w>"], ["1", "39"], ["l", "7"], ["i", "-"], ["2", "48"], ["postgresql://admin:", "b"], ["3", "a"], ["10", "/26.</w>"], ["15", ",000</w>"], ["40", "8"], ["gb", "76"], ["akia", "9"], ["10.0.", "15"], ["2", "-5"], ["4", "30"], ["c", "8"], ["25", ".</w>"], ["36", "m</w>"], ["69", "</w>"], ["gb", "53"], ["gb", "28"], ["eyj", "-"], ["11", ")</w>"], ["7", "09"], ["gb", "87"], ["/", "y"], ["30", "6"], ["07", ",</w>"], ["00", ",000</w>"], ["07", "/29.</w>"], ["password=", "i"], ["$", "68"], ["16", ",</w>"], ["gb", "68"], ["11", "/29.</w>"], ["password=", "g"], ["gb", "57"], ["56", "9"], ["l", "a"], ["p", "%"], ["4", "1-"], ["f", "%"], ["%", "u"], ["_", "e"], ["36", ",000</w>"], ["m", "@"], ["u", "5"], ["4", "1</w>"], ["$", "87"], ["barc", "36"], ["52", ",000</w>"], ["$", "78"], ["47", "</w>"], ["30", ",000</w>"], ["ghp_", "u"], ["gb", "77"], ["6", "52"], ["gb", "71"], ["04", "/29.</w>"], ["57", "8"], ["y", "_"], ["1", "j"], ["7", "10"], ["m", "-"], ["16", "9"], ["56", ",000</w>"], ["-3", "1-"], ["7", "37"], ["17", ",000</w>"], ["eyj", "d"], ["y", "3"], ["06", "/32.</w>"], ["94", ".</w>"], [".", "8"], ["+", "n"], ["0", "38"], ["!", "%"], ["$", "79"], ["/", "z"], ["07", "/32.</w>"], ["03", "/29.</w>"], ["gb", "46"], ["6", "09"], ["-8", "9"], ["17", "9"], ["59", "m</w>"], ["gb", "22"], ["28", ".</w>"], ["eyj", "g"], ["10", "/28.</w>"], ["ghp_", "o"], ["2", "12"], ["q", "1"], ["09", "/30.</w>"], ["l", "."], ["akia", "7"], ["-", "13"], ["eyj", "c"], ["j", "-"], ["k", "-"], ["2", "44"], ["gb", "44"], ["$", "89"], ["openai_api_key=sk-", "v"], ["v", "+"], ["03", "/32.</w>"], ["t", "_"], ["barc", "56"], ["6", "40"], ["54", ",000</w>"], ["barc", "49"], ["-7", "2"], [".", "7"], ["-", "11"], ["0", "22"], ["6", "00"], ["2", "00"], ["1", "3.</w>"], ["-", "15"], ["$", "y"], ["32", ",000</w>"], ["34", "8"], ["07", "/31.</w>"], ["akia", "4"], ["6", "37"], ["/", "</w>"], ["openai_api_key=sk-", "k"], ["1", "56"], ["3", "0</w>"], ["35", ")</w>"], ["79", ".</w>"], ["02", "/30.</w>"], ["password=", "o"], ["-8", "2"], ["$", "$"], ["18", "8"], ["2", "17"], ["7", "88"], ["59", ",000</w>"], ["7", "54"], ["58", "9"], ["7", "62"], ["58", "8"], ["i", "a1"], ["7", "00"], ["barc", "47"], ["x", "2"], ["c", "6"], ["barc", "44"], ["#", "i"], ["h", "1"], ["7", "22"], ["66", ".</w>"], ["eyj", "_"], ["57", ",000</w>"], ["08", ".</w>"], ["gb", "51"], ["2", "0,</w>"], ["08", "/27.</w>"], ["14", ",000</w>"], ["gb", "65"], ["6", "19"], ["gb", "58"], ["barc", "88"], ["24", ".</w>"], ["x", "8"], ["67", "</w>"], ["gb", "94"], ["2", "57"], ["n", "8"], ["0", "a"], ["6", "36"], ["@", "t"], ["4", "22"], ["-", "33"], ["h", "_"], ["07", "</w>"], ["$", "t"], ["50", "9"], ["10.0.", "9"], ["ghp_", "l"], ["2", "06"], ["6", "56"], ["openai_api_key=sk-", "d"], ["4", "40"], ["7", "29"], ["barc", "77"], ["barc", "87"], [".", "y"], ["$", "!"], ["ghp_", "h"], ["55", "</w>"], ["12", "m</w>"], ["2", "46"], ["3", "11"], ["0", "44"], ["gb", "89"], ["postgresql://admin:", "y"], ["7", "49"], ["5", "30"], ["t", "."], ["7", "12"], ["barc", "39"], ["barc", "18"], ["7", "18"], ["b", "!"], ["6", "46"], ["03", "/30.</w>"], ["8", "44"], ["p", "-"], ["2", "37"], ["@", "%"], ["gb", "11"], ["#", "!"], ["31", ",000</w>"], ["37", "m</w>"], ["27", "8"], ["@", "z"], ["gb", "17"], ["gb", "91"], ["19", ",000</w>"], ["2", "36"], ["gb", "33"], ["postgresql://admin:", "$"], ["eyj", "v"], ["akia", "3"], ["6", "57"], ["32", "9"], ["01", "/31.</w>"], ["eyj", "w"], ["ghp_", "0"], ["akia", "e"], ["2", "69"], ["r", "1"], ["a", "_"], ["r", "9"], ["34", ",000</w>"], ["gb", "97"], ["0", "16"], [".", "q"], ["openai_api_key=sk-", "w"], ["(jordan.", "nguyen"], ["_", "-"], ["38", "m</w>"], ["_", "j"], ["37", ",000</w>"], ["6", "50"], ["gb", "34"], ["3", "3.</w>"], ["$", "55"], ["p", "#"], ["7", "6.</w>"], ["#", "#"], ["ghp_", "m"], ["password=", "w"], ["01", "/26.</w>"], ["6", "38"], ["19", "9"], ["$", "d"], ["barc", "38"], ["#", "r"], ["4", "18"], ["(olivia.", "nguyen"], ["(samira.", "petrov"], ["postgresql://admin:", "3"], ["postgresql://admin:", "f"], ["barc", "14"], ["4", "00"], ["06", "/31.</w>"], ["openai_api_key=sk-", "h"], ["72", ".</w>"], ["tom\u00e1s.", "okafor"], ["11.", "5;</w>"], ["(marcus.", "patel"], ["77", "</w>"], ["openai_api_key=sk-", "p"], ["barc", "12"], ["q", "4"], ["ghp_", "g"], ["+", "z"], ["8", "59"], ["3", "59"], ["n", "-"], ["-4", "7"], ["5", "1,</w>"], ["42", ",000</w>"], ["ghp_", "d"], ["j", "%"], ["ghp_", "n"], ["33", ")</w>"], ["33", ",000</w>"], ["_", "t"], ["7", "08"], ["05", "/26.</w>"], ["barc", "40"], ["q", "7"], ["4", "59"], ["2", "3.</w>"], ["09", "/26.</w>"], ["@", "x"], ["(priya.", "brown"], ["gb", "39"], ["wei.", "kim"], ["+1-", "84"], ["$", "76"], ["(diego.", "lee"], ["!", "l"], ["7", "07"], ["04", "/32.</w>"], ["0", "30"], ["1", "50"], ["36", "9"], ["+", "l"], ["password=", "a"], ["$", "u"], ["/", "+"], ["postgresql://admin:", "v"], ["gb", "86"], ["-", "c"], ["postgresql://admin:", "e"], ["7", "34"], ["ghp_", "e"], ["03", ",</w>"], ["e", "-"], ["gb", "95"], ["2", "47"], ["f", "#"], ["barc", "59"], [".", "z"], ["45", ")</w>"], ["24", ",</w>"], ["6", "14"], ["chris.", "brown"], ["#", "z"], ["02", ")</w>"], ["0", "11"], ["#", "q"], ["0", "29"], ["6", "16"], ["garc", "ia1"], ["6", "54"], ["barc", "68"], ["6", "12"], ["barc", "10"], ["(aisha.", "brown"], ["02", "/32.</w>"], ["ghp_", "t"], ["ghp_", "p"], ["8", "a"], ["jordan.", "tanaka"], ["04", "</w>"], ["7", "46"], ["0", "10"], ["39", "9"], ["d", "-"], [".", "u"], ["j", "+"], ["65", ".</w>"], ["postgresql://admin:", "g"], ["09", "/32.</w>"], ["7", "40"], ["25", ",</w>"], ["/", "r"], ["7", "32"], ["85", ".</w>"], ["67", "8"], ["7", "57"], ["r", "-"], ["95", ".</w>"], ["eyj", "z"], ["7", "78"], ["-5", "3"], ["0", "28"], ["02", "/31.</w>"], ["4", "1,</w>"], ["6", "1.</w>"], ["gb", "36"], ["yuki.", "brown"], ["barc", "66"], ["openai_api_key=sk-", "e"], ["o", "!"], ["5", "14"], ["-8", "6"], ["!", "k"], ["27", ",</w>"], ["57", ")</w>"], ["4", "3</w>"], ["+1-", "35"], ["6", "34"], [".", "3"], ["6.", "5;</w>"], ["gb", "90"], ["$", "24"], ["j", "!"], ["barc", "16"], ["@", "q"], ["31", "m</w>"], ["10", "m</w>"], ["@", "l"], ["_", "s"], ["01", ",</w>"], ["-9", "6"], ["0", "27"], ["/", "u"], ["password=", "m"], ["f", "/"], ["tc", "</w>"], ["48", "</w>"], ["barc", "50"], ["14", ")</w>"], ["5", "3</w>"], ["-", "q"], ["48", "9"], ["postgresql://admin:", "7"], ["08", "/28.</w>"], ["77", ".</w>"], ["barc", "89"], ["barc", "54"], ["8", "58"], ["barc", "82"], ["66", ")</w>"], ["4", "37"], ["r", "5"], ["%", "t"], ["-3", "58"], ["!", "h"], ["2", "18"], ["5", "_"], ["4", "1.</w>"], ["$", "c"], ["password=", "p"], ["33", "-2"], ["(priya.", "okafor"], ["eyj", "t"], ["50", ")</w>"], ["barc", "76"], ["7", "16"], ["58", "m</w>"], ["gb", "15"], ["0", "34"], ["3", "00"], ["8", "1-"], ["@", "n"], ["99", "</w>"], ["priya.", "okafor"], ["$", "q"], ["7", "58"], ["0", "68"], ["jordan.", "m\u00fcller"], ["4", "0,</w>"], ["password=", "8"], ["@", "$"], ["g", "!"], ["postgresql://admin:", "8"], ["ghp_", "7"], ["postgresql://admin:", "a"], ["12", "9"], ["postgresql://admin:", "2"], ["c", "_"], ["akia", "8"], ["gb", "64"], ["!", "!"], ["barc", "34"], ["6", "59"], ["2", "30"], ["%", "q"], ["18", "m</w>"], ["$", "r"], ["(yuki.", "m\u00fcller"], ["8", "57"], ["yuki.", "smith"], ["6", "0,</w>"], ["alex.", "petrov"], ["86", "</w>"], ["#", "u"], ["v", "!"], ["1", "3</w>"], ["40", ")</w>"], ["19", "-4"], ["#", "n"], ["eyj", "i"], ["31", ")</w>"], ["postgresql://admin:", "0"], ["02", ",</w>"], ["(yuki.", "okafor"], ["56", "m</w>"], ["v", "$"], ["6", "17"], ["tom\u00e1s.", "patel"], ["0", "32"], ["49", ")</w>"], ["mei.", "smith"], ["(aisha.", "clarke"], ["06", "</w>"], [".", "s"], ["60", ".</w>"], ["%", "x"], ["g", "#"], ["67", ",000</w>"], ["gb", "25"], ["(wei.", "petrov"], ["69", ")</w>"], ["29", "</w>"], ["45", "</w>"], ["olivia.", "brown"], ["6", "5</w>"], ["(aisha.", "tanaka"], ["y", "#"], ["1", "35"], ["%", "z"], ["4", "58"], ["4", "26"], ["m", "/"], ["8", "10"], ["69", ".</w>"], ["eyj", "8"], ["7", "47"], [".", "r"], ["-8", "0"], ["27", "9"], ["(chris.", "brown"], ["j", "on"], ["-6", "0"], ["07", ".</w>"], ["akia", "2"], ["gb", "85"], ["50", ",000</w>"], ["/", "x"], ["$", "62"], ["-", "d"], ["@", "k"], ["2", "19"], ["40", "m</w>"], ["#", "l"], ["_", "b"], ["%", "c"], ["+", "s"], ["4", "14"], ["(yuki.", "garcia"], ["+", "k"], ["gb", "73"], ["8", "67"], ["(tom\u00e1s.", "nguyen"], ["99", ".</w>"], ["ghp_", "b"], ["0", "58"], ["openai_api_key=sk-", "9"], ["13", "m</w>"], ["ghp_", "2"], ["v", "#"], ["barc", "79"], ["36", ".</w>"], [".", "p"], ["50", "-9"], ["3", "35"], ["7", "67"], ["+", "h"], ["barc", "58"], ["(samira.", "kim"], ["hannah.", "m\u00fcller"], ["mei.", "m\u00fcller"], ["@", "i"], ["c", "@"], ["barc", "11"], ["66", "</w>"], ["i", "_"], ["0", "17"], [".", "h"], ["!", "t"], ["jh", "z"], ["-", "g"], ["89", "</w>"], ["16", "m</w>"], ["l", "6"], ["chris.", "smith"], ["0", "54"], ["password=", "6"], ["50", "m</w>"], ["-3", "52"], ["6", "-5"], ["postgresql://admin:", "9"], ["tom\u00e1s.", "clarke"], ["!", "z"], ["barc", "42"], ["9", "10"], ["$", "74"], ["7", "68"], ["6", "48"], ["5", "3.</w>"], ["m", "#"], ["2", "1.</w>"], ["32", "-9"], ["0", "49"], ["29", "9"], ["69", "7"], ["(hannah.", "clarke"], ["4", "17"], ["%", "w"], ["(olivia.", "smith"], ["0", "39"], ["(diego.", "brown"], ["chris.", "nguyen"], ["16", ",000</w>"], ["b", "#"], ["13", ",000</w>"], ["0", "18"], [".", "15"], ["8", "18"], ["6", "28"], ["eyj", "j"], ["!", "u"], ["8", "27"], ["eyj", "e"], ["1-", "44"], ["eyj", "p"], [".", "e"], ["/", "q"], ["20", ".</w>"], ["-5", "36"], ["1-", "68"], ["32", ")</w>"], ["priya.", "garcia"], ["7", "27"], ["0", "_"], ["password=", "9"], ["88", "</w>"], ["olivia.", "m\u00fcller"], ["(wei.", "clarke"], ["ghp_", "4"], ["ghp_", "s"], [".", "n"], ["aisha.", "johansson"], ["eyj", "7"], ["l", "3"], ["87", "</w>"], ["0", "-5"], ["10.0.", "24"], ["postgresql://admin:", "o"], ["gb", "92"], ["$", "86"], ["+", "d"], ["eyj", "2"], ["mei.", "clarke"], ["88", ".</w>"], ["0", "52"], ["#", "s"], ["(alex.", "petrov"], ["eyj", "k"], ["27", ",000</w>"], ["79", ")</w>"], ["-4", "6"], ["diego.", "lee"], ["l", "4"], ["(yuki.", "brown"], ["(chris.", "johansson"], ["+", "+"], ["@", "w"], ["alex.", "clarke"], ["57", "m</w>"], ["5", "0,</w>"], ["(chris.", "petrov"], ["@", "e"], ["samira.", "smith"], ["8", "52"], ["pl", "w"], ["8", "49"], ["+", "u"], ["b", "/"], ["40", "-9"], ["$", "72"], ["/", "i"], ["a", "@"], ["2", "4</w>"], ["aisha.", "nguyen"], ["(marcus.", "nguyen"], ["1", "33"], ["3", "0,</w>"], ["password=", "1"], ["1-", "56"], ["barc", "97"], ["09", "</w>"], ["5", "11"], ["h", "-"], ["55", ")</w>"], ["_", "9"], ["marcus.", "smith"], [".", "23"], ["password=", "7"], ["1-", "28"], ["password=", "0"], ["6", "1,</w>"], [".", "w"], ["8", "14"], ["barc", "46"], ["(jordan.", "okafor"], ["@", "y"], ["0", "48"], ["%", "h"], ["40", "-2"], ["-1", "52"], ["akia", "x"], ["4", "_"], ["$", "n"], ["22", ")</w>"], ["barc", "30"], ["samira.", "clarke"], ["postgresql://admin:", "4"], ["38", ")</w>"], ["7", "14"], ["4", "13"], ["+1-", "72"], ["tom\u00e1s.", "nguyen"], ["19", "m</w>"], ["wei.", "okafor"], ["70", ".</w>"], ["s", "!"], ["%", "r"], ["+1-", "82"], ["alex.", "brown"], ["82", ")</w>"], ["diego.", "patel"], ["barc", "32"], ["+", "e"], ["39", "-8"], ["b", "+"], ["6", "11"], ["5", "2</w>"], ["olivia.", "lee"], [".", "v"], ["!", "p"], ["0", "56"], ["9", "11"], ["samira.", "petrov"], ["47", ",000</w>"], ["7", "17"], ["@", "h"], ["chris.", "kim"], ["samira.", "lee"], ["(mei.", "kim"], ["-4", "4"], ["5", "15"], ["2", "2</w>"], ["9", "37"], ["52", ")</w>"], ["$", "s"], ["1-", "52"], ["5", "3,</w>"], ["+1-", "45"], ["2", "0</w>"], ["54", "m</w>"], ["29", ",</w>"], ["marcus.", "brown"], ["-2", "0"], ["ue", "q"], ["(priya.", "garcia"], ["8", "08"], ["0", "14"], ["%", "y"], ["6", "3.</w>"], ["aisha.", "brown"], ["diego.", "tanaka"], ["marcus.", "clarke"], ["jordan.", "clarke"], ["59", "-8"], ["g", "/"], ["(yuki.", "mendoza"], ["password=", "3"], ["(chris.", "okafor"], ["-2", "28"], ["(mei.", "smith"], ["9", "22"], ["f", "gh"], ["0", "67"], ["(tom\u00e1s.", "m\u00fcller"], ["$", "33"], ["78", "9"], ["postgresql://admin:", "5"], ["10.0.", "34"], ["22", ",000</w>"], ["(jordan.", "kim"], ["a", "+"], ["olivia.", "nguyen"], ["chris.", "johansson"], ["-1", "1-"], ["30", ")</w>"], ["7", "26"], ["y", "%"], ["2", "3,</w>"], ["1-", "38"], ["8", "_"], ["40", "9"], ["gc", "q"], ["s", "#"], ["4", "67"], ["15", "-4"], ["18", ",000</w>"], ["c", "!"], ["/", "b"], ["@", "u"], ["82", ".</w>"], ["-3", "00"], ["password=", "4"], ["8", "47"], ["samira.", "nguyen"], ["(marcus.", "lee"], ["vl", "n"], ["(jordan.", "smith"], ["!", "#"], ["(alex.", "kim"], ["0", "57"], ["19", "-8"], ["6", "5,</w>"], ["45", ",000</w>"], ["yuki.", "tanaka"], ["(olivia.", "patel"], ["47", "8"], ["f", "ty"], ["36", "8"], ["6", "04"], ["00", "m</w>"], ["i", "+"], ["$", "l"], ["7", "19"], ["9", "77"], ["-", "m"], ["ghp_", "1"], ["-3", "38"], ["postgresql://admin:", "d"], ["w", "_"], ["7", "66"], ["-3", "39"], ["sc", "q"], ["47", "9"], ["!", "x"], ["2", "1,</w>"], ["jordan.", "kim"], ["7", "42"], ["openai_api_key=sk-", "0"], ["wei.", "mendoza"], ["8", "1,</w>"], ["12", ",000</w>"], ["-5", "00"], ["samira.", "kim"], ["0", "26"], ["z", "_"], ["(tom\u00e1s.", "kim"], ["password=", "2"], ["akia", "b"], ["m", "%"], ["postgresql://admin:", "6"], ["13", "-6"], ["s", "fh"], ["$", "%"], ["$", "x"], ["ou", "</w>"], ["jc", "z"], ["33", "-6"], ["/", "l"], ["diego.", "clarke"], ["-", "o"], ["$", "84"], ["e", "!"], ["06", ",000</w>"], ["69", ",000</w>"], ["$", "p"], ["(samira.", "tanaka"], ["2", "11"], ["73", "@outlook.com</w>"], ["+1-", "25"], ["(samira.", "smith"], ["9", "49"], ["1-", "47"], ["-7", "4"], ["eyj", "1"], ["49", "9"], ["barc", "98"], ["13", "-2"], ["_", "6"], ["8", "99"], ["fx", "x"], ["eyj", "m"], ["(priya.", "clarke"], ["52", "9"], ["gx", "q"], ["6", "53"], ["6", "45"], ["barc", "80"], ["bl", "x"], ["samira.", "patel"], ["chris.", "m\u00fcller"], ["priya.", "smith"], ["8", "77"], ["openai_api_key=sk-", "o"], ["yu", "z"], ["5", "35"], ["57", "-9"], ["m", "vn"], ["(alex.", "smith"], ["aisha.", "garcia"], ["jw", "</w>"], ["gz", "</w>"], ["(chris.", "lee"], ["password=", "f"], ["mei.", "lee"], ["(wei.", "lee"], ["(wei.", "patel"], ["mei.", "nguyen"], ["w", "-"], ["7", "1-"], ["5", "-3"], ["ghp_", "8"], ["(diego.", "m\u00fcller"], ["y", "/"], ["yuki.", "m\u00fcller"], ["o", "+"], ["(chris.", "nguyen"], ["(marcus.", "petrov"], ["6", "30"], ["@", "j"], ["4", "3.</w>"], ["wa", "x"], ["mei.", "okafor"], ["(wei.", "smith"], ["f", "di"], ["eyj", "4"], ["tom\u00e1s.", "smith"], ["gb", "98"], ["(aisha.", "nguyen"], ["54", "-8"], ["59", ")</w>"], ["(hannah.", "mendoza"], ["14", "m</w>"], ["#", "0"], ["ghp_", "a"], ["50", "-4"], ["@", "#"], ["36", ")</w>"], ["alex.", "tanaka"], ["1-", "48"], ["2", "38"], ["(hannah.", "petrov"], ["7", "0,</w>"], ["p", "!"], ["olivia.", "clarke"], ["olivia.", "smith"], ["py", "x"], ["#", "%"], ["alex.", "lee"], ["6", "3,</w>"], ["9", "_"], ["59", "-2"], ["(priya.", "m\u00fcller"], ["diego.", "johansson"], ["10", "-2"], ["openai_api_key=sk-", "5"], ["marcus.", "nguyen"], ["3-", "39"], ["hannah.", "kim"], ["barc", "92"], ["aisha.", "lee"], ["hannah.", "garcia"], ["52", "-6"], ["(priya.", "nguyen"], ["aisha.", "petrov"], ["barc", "57"], ["fh", "u"], ["u", "_"], ["yuki.", "kim"], ["f", "jr"], ["c", "-"], ["-3", "37"], ["jordan.", "petrov"], ["1-", "67"], ["+", "r"], ["fq", "x"], ["$", "w"], ["2", "14"], ["29", ",000</w>"], ["@", "!"], [".", "g"], ["(diego.", "kim"], ["+", "x"], ["eyj", "6"], ["samira.", "tanaka"], ["16", "-6"], ["36", "-6"], ["1-", "22"], ["-4", "22"], ["r", "_"], ["u", "%"], ["8", "69"], [".", "j"], ["+1-8", "03"], ["$", "i"], ["04", ",000</w>"], ["(tom\u00e1s.", "patel"], ["(hannah.", "brown"], ["p", "cu"], ["jordan.", "nguyen"], ["(mei.", "patel"], ["!", "r"], ["p", "fn"], ["8", "3.</w>"], ["(marcus.", "clarke"], ["akia", "j"], ["26", ",000</w>"], ["a", "/"], ["gb", "x"], ["2", "02"], ["1-", "96"], ["(aisha.", "okafor"], ["wei.", "johansson"], ["ki", "h"], ["57", "-6"], ["priya.", "clarke"], ["-9", "4"], ["jh", "x"], ["(mei.", "lee"], ["#", "h"], ["#", "w"], ["yuki.", "okafor"], ["%", "!"], ["03", ",000</w>"], ["marcus.", "petrov"], ["3", "2</w>"], ["olivia.", "johansson"], ["78", "</w>"], ["!", "n"], ["75", ".</w>"], ["chris.", "lee"], ["(diego.", "nguyen"], ["13", "-8"], ["03", ")</w>"], ["fl", "n"], ["v", "bz"], ["!", "d"], ["54", ")</w>"], ["openai_api_key=sk-", "j"], ["2", "_"], ["16", "-2"], ["4", "35"], ["eyj", "b"], ["chris.", "mendoza"], ["#", "p"], ["$", "25"], ["hannah.", "mendoza"], ["@", "r"], ["8", "12"], ["+1-3", "00"], ["gz", "n"], ["(alex.", "clarke"], ["15", "-7"], ["f", "vq"], ["q", "-"], ["07", ",000</w>"], ["openai_api_key=sk-", "6"], ["q", "/"], ["v", "th"], ["eyj", "9"], ["68", ",000</w>"], ["samira.", "brown"], ["-8", "56"], ["(marcus.", "m\u00fcller"], ["-3", "40"], ["ll", ".</w>"], ["f", "by"], ["34", "m</w>"], ["6", "06"], ["%", "m"], ["(jordan.", "clarke"], ["wh", "l"], ["6", "15"], ["22", ".</w>"], ["po", "y"], ["64", ".</w>"], ["$2", "59m</w>"], ["48", ",000</w>"], ["akia", "f"], ["-", "e"], ["26", "-9"], ["%", "n"], ["8", "06"], ["samira.", "m\u00fcller"], ["1", "_"], ["68", "-7"], ["(marcus.", "mendoza"], ["diego.", "mendoza"], ["$2", "55"], ["2", "40"], ["6", "0</w>"], ["/", "w"], ["q", "+"], ["aisha.", "patel"], ["7", "_"], ["-3", "19"], ["(mei.", "m\u00fcller"], ["(olivia.", "tanaka"], ["fo", "z"], ["hannah.", "lee"], ["c", "ll"], ["17", "7"], ["dz", "c"], ["tom\u00e1s.", "lee"], ["+1-9", "66"], ["2", "13"], ["jd", "t"], ["priya.", "lee"], ["8.", "2"], ["1-", "32"], ["+", "p"], ["wei.", "clarke"], ["(diego.", "smith"], ["e", "@"], ["-7", "34"], ["s", "@"], ["j", "#"], ["barc", "35"], ["tom\u00e1s.", "johansson"], ["priya.", "patel"], ["18", "-8"], ["10.0.2", "19"], ["mei.", "mendoza"], ["-4", "3"], ["1-", "69"], ["0", "19"], ["ghp_", "f"], ["8", "00"], ["kr", "n"], ["pu", "</w>"], ["olivia.", "kim"], ["d", "yx"], ["+", "/"], ["8", "%"], ["68", "-8"], ["dx", "q"], ["(hannah.", "johansson"], ["gb", "w"], ["vz", "l"], ["0", "36"], ["(aisha.", "kim"], ["g", "@"], ["0", "50"], ["fn", "z"], [".", "k"], ["3", "1</w>"], ["(hannah.", "patel"], ["in", "z"], ["0", "59"], ["+1-", "64"], ["08", ",000</w>"], ["32", "-8"], ["+1-9", "08"], ["53", ")</w>"], ["05", ",000</w>"], ["v", "ea"], ["8", "54"], ["j", "yz"], ["m", "kt"], ["2", "05"], ["akia", "5"], ["priya.", "brown"], ["pw", "</w>"], ["1", ".2"], ["alex.", "smith"], ["01", ",000</w>"], ["b", "fq"], ["_", "o"], ["(chris.", "smith"], ["8", "28"], ["(hannah.", "tanaka"], ["akia", "o"], ["$", "85"], ["j", "sh"], ["#", "x"], ["#", "e"], ["f", "sn"], ["f", "vv"], ["jt", "q"], ["gz", "u"], ["n", "$"], ["(hannah.", "m\u00fcller"], ["7", "-5"], ["vt", "n"], ["20", "2</w>"], ["priya.", "johansson"], ["30", "m</w>"], ["yuki.", "patel"], ["7", "50"], ["barc", "24"], ["kx", "r"], ["(mei.", "tanaka"], ["ry", "q"], ["(priya.", "mendoza"], ["openai_api_key=sk-", "m"], ["-3", "50"], ["f", "mh"], ["a", "av"], ["3", "3</w>"], ["32", "m</w>"], ["alex.", "mendoza"], ["8", "3,</w>"], ["b", "ff"], ["eyj", "o"], ["08", "</w>"], ["(yuki.", "patel"], ["openai_api_key=sk-", "1"], ["6", "42"], ["-", "f"], ["9", "34"], ["72", "@acme.co,</w>"], ["a", "#"], ["+1-", "74"], ["barc", "96"], ["bn", "z"], ["vx", "x"], ["52", "-9"], ["-1", "54"], ["10.0.", "43"], ["(yuki.", "nguyen"], ["k", "/"], ["vu", "h"], ["diego.", "smith"], ["3-", "58"], ["diego.", "nguyen"], ["v", "/"], ["ju", "x"], ["priya.", "m\u00fcller"], ["8", "66"], ["j", "@"], ["8", "4</w>"], ["li", "x"], ["+", "i"], ["i", "#"], [".", "t"], ["$36", "6m</w>"], ["(diego.", "garcia"], ["olivia.", "okafor"], [".", "13"], ["ow", "y"], ["f", "+"], ["at", "n"], ["+1-", "24"], ["10.0.2", "01"], ["(chris.", "patel"], ["/", "k"], ["41", "@northwind.io,</w>"], ["98", ")</w>"], ["openai_api_key=sk-", "f"], ["1-", "37"], ["(tom\u00e1s.", "lee"], ["bq", "</w>"], ["yz", "w"], ["d", "as"], ["fc", "z"], ["6", "26"], ["hannah.", "clarke"], ["18", "-7"], ["29", "-9"], ["-4", "68"], ["yx", "y"], ["88", "9"], ["+1-9", "77"], ["-", "_"], ["eyj", "3"], ["+1-9", "55"], ["(alex.", "patel"], ["10", "-6"], ["(olivia.", "johansson"], ["3-", "30"], ["23", ")</w>"], ["f", "ku"], ["cu", "</w>"], ["diego.", "petrov"], ["bh", "g"], ["(tom\u00e1s.", "tanaka"], ["at", "l"], ["sw", "s"], ["gb", "21"], ["$", "90"], ["+", "y"], ["j", "iz"], ["j", "tc"], ["10.0.17", "4."], ["openai_api_key=sk-", "4"], ["dh", "u"], ["pu", "t"], ["-8", "3"], ["su", "z"], ["67", "9"], ["v", "wx"], ["6-", "32"], ["(olivia.", "lee"], ["ghp_", "9"], ["57", "-4"], ["%", "e"], ["9-", "58"], ["dr", "n"], ["(marcus.", "smith"], ["(jordan.", "patel"], ["n", "_"], ["-1", "36"], ["5-", "32"], ["jd", "b"], ["11/", "17/19"], ["8", "62"], ["k", "sz"], ["+", "g"], ["mz", "t"], ["ge", "m"], ["v", "gz"], ["f", "gu"], ["vu", "p"], ["vh", "c"], ["barc", "62"], ["8", "02"], ["b", "ad"], ["6", "0."], ["(samira.", "patel"], ["-2", "10"], ["pi", "x"], ["tom\u00e1s.", "brown"], ["(mei.", "johansson"], ["postgresql://admin:", "1"], ["j", "kq"], ["l", "_"], ["1-", "99"], ["jordan.", "brown"], ["ol", "q"], ["y", "-"], ["#", "o"], ["$28", "2m</w>"], ["-9", "36"], ["8", "5,</w>"], ["olivia.", "garcia"], ["7", "33"], ["2", "45"], ["vr", "l"], ["45", "@northwind.io</w>"], ["ec", "q"], ["f", "!"], ["4", "11"], ["mr", "z"], ["de", "z"], ["f", "kr"], ["2", "5</w>"], ["74", ".</w>"], ["me", "h"], ["gq", "z"], ["pl", "</w>"], ["j", "my"], ["99", "9"], ["kx", "y"], ["b", "vq"], ["ro", "z"], ["ve", "h"], ["(mei.", "clarke"], ["j", "ek"], ["$", "@"], ["7", "38"], ["44", ",000</w>"], ["1-", "79"], ["li", "w"], ["ct", "q"], ["alex.", "kim"], ["7", "1.</w>"], ["6", "55"], ["wei.", "m\u00fcller"], ["12", "-8"], ["16", ")</w>"], ["7", "52"], ["(olivia.", "mendoza"], ["$30", "7m</w>"], ["48", ")</w>"], ["3", "+"], ["19", ")</w>"], ["-5", "16"], ["a", "az"], [".", "b"], ["(yuki.", "kim"], ["3", ".2"], ["aisha.", "okafor"], ["priya.", "nguyen"], ["0", "37"], ["7", "06"], ["eyj", "f"], ["g", "mc"], ["15", "m</w>"], ["j", "ft"], ["f", "th"], ["+1-2", "04"], ["10.0.2", "42"], ["1-", "40"], ["f", "gn"], ["$", "g"], ["jz", "n"], ["chris.", "clarke"], ["50", "@outlook.com</w>"], ["#", "4"], ["pi", "h"], ["(alex.", "tanaka"], ["f", "wh"], ["f", "pn"], ["92", ".</w>"], ["22", "8"], ["10.0.2", "04"], ["wq", "q"], ["02", ",000</w>"], ["15", "-9"], ["vw", "d"], ["(tom\u00e1s.", "garcia"], ["15", "-6"], ["17", "m</w>"], ["ty", "k"], ["j", "/"], ["v", "dq"], ["ou", "x"], ["p", "kc"], ["j", "sm"], ["ed", "q"], ["94", ")</w>"], ["ms", "x"], ["(chris.", "m\u00fcller"], ["(priya.", "lee"], ["(marcus.", "johansson"], ["ty", "h"], ["k", "$"], ["(jordan.", "johansson"], ["h", "!"], ["m", "jz"], ["b", "ok"], ["25", ",000</w>"], ["i", "jz"], ["wx", "d"], ["4", "34"], ["9", "14"], ["(samira.", "brown"], ["oo", "z"], ["(tom\u00e1s.", "okafor"], ["3-", "54"], ["u", "/"], ["8", "30"], ["d", "+"], ["@", "0"], ["k", "av"], ["w", "dx"], ["pd", "q"], ["3", "ou"], ["bi", "l"], ["(marcus.", "tanaka"], ["81", ")</w>"], ["gb19", "barc"], ["yuki.", "johansson"], ["(tom\u00e1s.", "clarke"], ["!", "c"], ["p", "+"], ["f", "il"], ["-1", "32"], ["37", "-6"], ["57", "-8"], ["-", "j"], ["co", "h"], ["(wei.", "okafor"], ["0", "2</w>"], ["q", "6"], ["ju", "y"], ["-9", "07"], ["10.0.", "48"], ["(marcus.", "kim"], ["46", "-4"], ["(samira.", "nguyen"], ["38", "-4"], ["09", ",000</w>"], ["08", ",</w>"], ["d", "fh"], ["26", "@outlook.com,</w>"], ["sx", "c"], ["44", "9"], ["56", "-6"], ["k", "al"], ["35", "-8"], ["b", "fb"], ["0", "12"], ["yz", "</w>"], ["te", "t"], ["mm", "q"], ["m", "yq"], ["!", "g"], ["m", "dw"], ["alex.", "johansson"], ["v", "so"], ["po", "x"], ["w", "vq"], ["86", "@helix.bio</w>"], ["pl", "x"], ["ft", "q"], ["(diego.", "tanaka"], ["pp", "g"], ["ll", "n"], ["g", "fn"], ["11", "m</w>"], ["wq", "</w>"], ["samira.", "mendoza"], ["28", ")</w>"], ["%", "v"], ["17", "-7"], ["j", "fc"], ["f", "yu"], ["w", "#"], ["iz", "u"], ["f", "ry"], ["j", "bq"], ["(alex.", "okafor"], ["80", ".</w>"], ["it", "q"], ["44", ")</w>"], ["10.0.", "59"], ["30", "-2"], ["(jordan.", "m\u00fcller"], ["13", ")</w>"], ["-7", "08"], ["-1", "12"], ["(wei.", "tanaka"], ["k", "ty"], ["v", "re"], ["14", "-2"], ["3-", "36"], ["(wei.", "nguyen"], ["10.0.19", "1."], ["49", "7"], ["gh", "c"], ["x", "_"], ["ry", "i"], ["2", ".2"], ["(hannah.", "garcia"], ["+1-8", "49"], ["47", "@acme.co,</w>"], ["le", "q"], ["10.0.2", "31"], ["(hannah.", "okafor"], ["1-", "78"], ["oq", "z"], ["-9", "69"], ["wei.", "brown"], ["sc", "r"], ["7", "25"], ["v", "wz"], ["bt", "z"], ["barc", "83"], ["f", "jy"], ["8", "11"], ["vl", "q"], ["8", "46"], ["8", "09"], ["12", ")</w>"], ["jordan.", "patel"], ["mei.", "patel"], ["9", "52"], ["v", "ry"], ["f", "ow"], ["b", "sz"], ["r", "#"], ["7", "1</w>"], ["+1-9", "72"], ["y", "$"], ["(olivia.", "m\u00fcller"], ["n", "uz"], ["ql", "x"], ["vz", "y"], ["st", "n"], ["ls", "z"], ["57", "9"], ["g", "ic"], ["password=", "5"], ["56", "-4"], ["x", "gq"], ["8", "1.</w>"], ["ki", "i"], ["kz", "n"], ["/", "h"], ["2", "42"], ["f", "pu"], ["be", "u"], ["j", "fr"], ["40", "@acme.co,</w>"], ["58", "-9"], ["90", ".</w>"], ["12", "/26/19"], ["10.0.", "60."], ["j", "ku"], ["-5", "12"], ["b", "e</w>"], ["32", "@gmail.com,</w>"], ["d", "pz"], ["(samira.", "mendoza"], ["ji", "q"], ["j", "fz"], ["62", ")</w>"], ["p", "eg"], ["0", "3.</w>"], ["d", "cl"], ["k", "gy"], ["kz", ".</w>"], ["+", "2"], ["k", "kl"], ["kh", "y"], ["ft", "u"], ["-1", "38"], ["j", "te"], ["10.0.18", "3."], ["ar", "h"], ["7", "11"], ["g", "pc"], ["fn", "h"], ["53", "-7"], ["9", "69"], ["b", "mz"], ["f", "gq"], ["jd", "h"], ["j", "bn"], ["8", "5</w>"], ["3-", "56"], ["89", ")</w>"], ["p", "ed"], ["op", "t"], ["50", "-6"], ["m", "ha"], ["d", "kx"], ["tc", "p"], ["pl", "y"], ["8q", "</w>"], ["gr", "q"], ["sz", "s"], ["%", "b"], ["b", "am"], ["s", "ow"], ["+1-", "55"], ["d", "bx"], ["$27", "0m</w>"], ["wei.", "nguyen"], ["-7", "0"], ["o", "aq"], ["f", "$"], ["j", "ki"], ["priya.", "mendoza"], ["(diego.", "petrov"], ["/", "c"], ["6", "02"], ["+1-2", "44"], ["ir", "z"], ["m", "sm"], ["(olivia.", "clarke"], ["9", "58"], ["30", "-8"], ["4", "3,</w>"], ["(priya.", "smith"], ["10.0.17", "3."], ["(tom\u00e1s.", "smith"], ["1-", "66"], ["(olivia.", "petrov"], ["yuki.", "nguyen"], ["%", "l"], ["(olivia.", "kim"], ["89", ".</w>"], ["39", ")</w>"], ["+", "q"], ["v", "ax"], ["fx", "h"], ["(diego.", "clarke"], ["aisha.", "kim"], ["22", "@acme.co,</w>"], ["0", "%"], ["in", "q"], ["pz", "c"], ["iz", "y"], ["6", "1</w>"], ["tom\u00e1s.", "m\u00fcller"], ["tl", "u"], ["68", ")</w>"], ["17", "-9"], ["password=", "v"], ["41", ")</w>"], ["a", "el"], ["s", "ll"], ["dr", "c"], ["(wei.", "johansson"], ["ss", "n"], ["%", "d"], ["@", "5"], ["-3", "36"], ["5", "1</w>"], ["10.0.2", "07"], ["rl", "q"], ["p", "fx"], ["30", "-9"], ["29", "-8"], ["samira.", "garcia"], ["/", "d"], ["(diego.", "okafor"], ["yuki.", "lee"], ["pz", "z"], ["barc", "72"], ["vr", "x"], ["9", "1</w>"], ["th", "z"], ["openai_api_key=sk-", "a"], ["eyj", "0"], [".", "i"], ["chris.", "okafor"], ["9", "09"], ["uq", "</w>"], ["13", "-4"], ["fu", "q"], ["_", "k"], ["%", "o"], ["10.0.2", "02"], ["jx", "n"], ["52", "m</w>"], ["f", "yz"], ["7", "3,</w>"], ["jordan.", "garcia"], ["sr", "c"], ["(yuki.", "tanaka"], ["78", "7"], ["b", "wr"], ["-5", "10"], ["f", "av"], ["yq", "r"], ["j", "un"], ["47", "@outlook.com,</w>"], ["0", "40"], ["f", "ap"], ["cu", "x"], ["akia", "a"], ["or", "c"], ["(yuki.", "clarke"], ["d", "#"], ["jordan.", "lee"], ["+", "t"], ["jn", "y"], ["gb", "h"], ["marcus.", "lee"], ["(alex.", "nguyen"], ["_", "f"], ["d", "gi"], ["m", "pu"], ["du", "</w>"], ["fu", "</w>"], ["d", "jz"], ["jv", "</w>"], ["11/", "13/19"], ["+1-7", "26"], ["vi", "x"], ["$57", "m</w>"], ["6-", "50"], ["12", "79"], ["g", "fy"], ["m", "ph"], ["jk", "k"], ["10.0.1", "35"], ["-5", "30"], ["jordan.", "johansson"], ["ow", "n"], ["vt", "r"], ["4-", "32"], ["jr", "w"], ["47", "-6"], ["01", "/24/19"], ["s", "of"], ["4", "15"], ["v", "ty"], [".17", "1</w>"], ["j", "mu"], ["g", "en"], ["-7", "22"], ["ur", "q"], ["f", "kh"], ["$", "75"], ["22", "8</w>"], ["barc", "15"], ["s", "ex"], ["2", "15"], ["(jordan.", "petrov"], ["si", "x"], ["r", "+"], ["n", "ff"], ["di", "g"], ["j", "aw"], ["gz", "q"], ["k", "ch"], ["ch", "u"], ["v", "mz"], ["fx", "u"], ["p", "ct"], ["bz", "z"], ["oo", "y"], ["6", "05"], ["83", ")</w>"], ["dr", "z"], ["j", "mn"], ["$", "64"], ["(alex.", "johansson"], ["-5", "39"], ["h", "/"], ["(chris.", "garcia"], ["-8", "38"], ["33", "m</w>"], ["jq", "</w>"], ["wx", "k"], ["61", "@acme.co,</w>"], ["j", "ag"], ["54", "-4"], ["$9", "15,000</w>"], ["ll", "q"], ["j", "jt"], ["k", "jw"], ["li", "</w>"], ["g", "od"], ["p", "gn"], ["yx", "t"], ["!", "i"], ["ak", "x"], ["v", "ll"], ["35", "@helix.bio</w>"], ["b", "nc"], ["s", "kz"], ["00", ")</w>"], ["ur", "h"], ["/", "9"], ["#", "k"], ["hannah.", "smith"], ["32", "@acme.co</w>"], ["46", "-6"], [".", "4"], ["-", "b"], ["vq", "q"], ["alex.", "okafor"], ["-1", "19"], ["(yuki.", "smith"], ["jx", "x"], ["49", ",000</w>"], ["f", "ew"], ["py", "z"], ["px", "x"], ["2", "ok"], ["at", "u"], ["ht", "n"], ["dh", "c"], ["10.0.", "11."], ["ge", "y"], ["ek", "u"], ["10.0.", "54"], ["dx", "l"], ["hq", "y"], ["ec", "z"], ["pz", "y"], ["fv", "</w>"], ["jc", "i"], ["s", "bh"], ["b", "ea"], ["aq", "</w>"], ["13", "-7"], ["+", "v"], ["j", "am"], ["ac", "s"], ["y", "!"], ["lo", "l"], ["mx", "z"], ["(mei.", "mendoza"], ["ir", "c"], ["57", "-7"], ["6", "@acme.co</w>"], ["b", "oz"], ["1-", "64"], ["mh", "s"], ["+1-6", "49"], ["j", "bw"], ["10.0.9", "8."], ["3", "wq"], ["(olivia.", "okafor"], ["7", "69"], ["b", "sx"], ["wa", "q"], ["(chris.", "clarke"], ["81", "@helix.bio,</w>"], ["ur", "</w>"], ["50", "2,</w>"], ["@", "1"], ["ghp_", "v"], ["i", "@"], ["m", "fo"], ["$", "82"], ["jy", "t"], ["88", "@gmail.com,</w>"], ["v", "bn"], ["10.0.10", "8."], ["diego.", "okafor"], ["39", "@helix.bio</w>"], ["jordan.", "smith"], ["sl", "n"], ["$38", "7m</w>"], ["ic", "e"], ["(wei.", "brown"], ["+1-9", "62"], ["ghp_", "5"], ["10.0.16", "4."], ["-3", "59"], ["hannah.", "nguyen"], ["9", "79"], ["05", "/20/19"], ["95", "@helix.bio,</w>"], ["li", "y"], ["s", "iz"], ["k", "ea"], ["marcus.", "garcia"], ["$", "v"], ["25", "-6"], ["wr", "w"], ["+1-7", "56"], ["aisha.", "tanaka"], ["b", "%"], ["jq", "q"], ["b", "de"], ["cl", "h"], ["ha", "c"], ["su", "x"], ["(aisha.", "garcia"], ["7", "5</w>"], ["%", "j"], ["7-", "56"], ["ku", "h"], ["8", "48"], ["$32", "6m</w>"], ["f", "jk"], ["a", "sh"], ["d", "sz"], ["$40", "2m</w>"], ["p", "jx"], ["r", "fg"], ["p", "te"], ["17", ")</w>"], ["!", "5"], ["wh", "h"], ["w", "mc"], ["gi", "x"], ["4", "pq"], ["marcus.", "mendoza"], ["en", "t"], ["+1-4", "67"], ["f", "vz"], ["54", "-9"], ["10.0.", "30"], ["barc", "90"], ["mei.", "petrov"], ["56", "@helix.bio</w>"], ["al", "n"], ["jr", "8"], ["bw", "</w>"], ["bu", "</w>"], ["3", "31"], ["openai_api_key=sk-", "7"], ["m", "pq"], ["$", "65"], ["8", "7.</w>"], ["10.0.2", "44"], [".", "24"], ["#", "$"], ["ju", "b"], ["sm", "u"], ["(alex.", "m\u00fcller"], ["$48", "7m</w>"], ["f", "mi"], ["9", "07"], ["js", "q"], ["j", "al"], ["f", "pz"], [".", "_"], ["-5", "19"], ["(diego.", "johansson"], ["vh", "z"], ["priya.", "petrov"], ["21", "2</w>"], ["39", "-2"], ["10", "@gmail.com,</w>"], ["6", "@gmail.com,</w>"], ["35", "-6"], ["(hannah.", "kim"], ["47", ")</w>"], ["m", "yu"], ["32", "@helix.bio,</w>"], ["7", "3.</w>"], ["mn", "q"], ["yuki.", "garcia"], ["03", "-2"], ["ghp_", "6"], ["5-", "58"], ["jx", "z"], ["(tom\u00e1s.", "petrov"], ["e", "%"], ["f", "re"], ["19", "-9"], ["v", "ph"], ["pz", "b"], ["5", "@northwind.io,</w>"], ["sh", "k"], ["ql", "z"], ["36", "27"], ["10.0.", "10."], ["10.0.16", "9."], ["p", "jc"], ["k", "sm"], ["mq", "q"], ["78", ")</w>"], ["$2", "13m</w>"], ["tom\u00e1s.", "tanaka"], ["fz", "n"], ["ss", "c"], ["#", "1"], ["8", "@gmail.com,</w>"], ["s", "ag"], ["pd", "z"], ["er", "d"], ["10.0.19", "2."], ["(olivia.", "brown"], ["-9", "12"], ["7", "05"], ["j", "bu"], ["d", "oy"], ["fl", "x"], ["gz", "d"], ["pn", "s"], ["_", "5"], ["g", "pl"], ["+1-8", "16"], ["m", "vi"], ["7", "1,</w>"], ["bz", "</w>"], ["o", "ql"], ["8-", "57"], ["f", "tw"], ["fh", "h"], ["3z", "q"], ["by", "i"], ["#", "j"], ["ff", "i"], ["+1-9", "24"], ["7", "03"], ["2", "55"], ["e", "ow"], ["f", "ax"], ["wei.", "patel"], ["96", "-6"], ["f", "bo"], ["37", "-4"], ["v", "jt"], ["5-", "34"], ["bt", "x"], ["jh", "l"], ["gu", "</w>"], ["p", "vu"], ["6-", "39"], ["54", "8"], ["d", "dn"], ["b", "mu"], ["un", "r"], ["dz", "x"], ["hannah.", "patel"], ["4-", "59"], ["am", "c"], ["-3", "18"], ["8", "79"], ["1-", "36"], ["4-", "34"], ["jc", "x"], ["et", "u"], ["pd", "r"], ["diego.", "m\u00fcller"], ["kw", "d"], ["ew", "h"], ["e", "ib"], ["od", "y"], ["vp", "x"], ["j", "ic"], ["r", "/"], ["dn", "i"], ["18", "-9"], ["+1-2", "05"], ["3", "@outlook.com</w>"], ["gn", "x"], ["ag", "u"], ["4", "@helix.bio</w>"], ["g", "jt"], ["pz", "r"], ["63", "@outlook.com,</w>"], ["olivia.", "tanaka"], ["s", "gn"], ["il", "z"], ["jq", "d"], ["m", "ch"], ["95", "@outlook.com,</w>"], ["96", "@northwind.io,</w>"], ["1-", "17"], ["je", "u"], ["u", "vn"], ["dt", "r"], ["in", "i"], ["+1-6", "22"], ["b", "wz"], ["mi", "w"], ["j", "kn"], ["kn", "y"], ["$", "92"], ["ex", "y"], ["vv", "n"], ["%", "@"], ["chris.", "patel"], ["vw", "w"], ["ki", "l"], ["!", "9"], ["q", "_"], [".5", "2</w>"], ["hl", "u"], ["s", "ft"], ["k", "#"], ["r", "pt"], ["68", "-9"], ["jc", "y"], ["9z", "</w>"], ["fz", "y"], ["2-", "32"], ["(alex.", "brown"], ["oo", "o"], ["b", "wh"], ["j", "bh"], ["$", "70"], ["dx", "d"], ["k", "fh"], ["openai_api_key=sk-", "s"], ["40", "@gmail.com</w>"], ["p", "ew"], ["g", "po"], ["+", "8"], ["v", "oy"], ["46", ",000</w>"], ["61", "@outlook.com,</w>"], ["li", "q"], ["f", "lo"], ["mz", "n"], ["4u", "</w>"], ["e", "eq"], ["(samira.", "lee"], ["v", "fw"], ["9", "28"], ["(alex.", "lee"], ["su", "y"], ["+1-", "850"], ["w", "sh"], ["b", "op"], ["jz", "l"], ["10.0.14", "6."], ["bx", "x"], ["1", "oz"], ["(yuki.", "johansson"], ["1-", "49"], ["7-", "50"], ["jx", "h"], ["-2", "36"], ["mei.", "garcia"], ["ac", "g"], ["00", "-2"], ["m", "nc"], [".", "o"], ["z", "-"], ["eyj", "a"], ["jd", "6"], [".", "4</w>"], ["priya.", "kim"], ["de", "l"], ["39", "-4"], ["ig", "</w>"], ["-8", "52"], ["(alex.", "mendoza"], ["85", ")</w>"], ["jx", "d"], ["2", "03"], ["1-", "57"], ["82", "@northwind.io</w>"], ["sy", "c"], ["68", "-2"], ["-5", "34"], ["i", "/"], ["sw", "</w>"], ["g", "au"], ["89", "@northwind.io,</w>"], ["yx", "n"], ["dl", "y"], ["ba", "n"], ["10", "-4"], ["ma", "h"], ["38", "@acme.co</w>"], ["v", "bt"], ["pq", "y"], ["k", "vv"], ["gi", "l"], ["36", "@helix.bio</w>"], ["dx", "h"], ["(samira.", "clarke"], ["44", "@acme.co,</w>"], ["-1", "58"], ["f", "br"], ["-3", "32"], ["8", "26"], ["jl", "z"], ["vp", "q"], ["nc", "h"], ["w", "jd"], ["p", "sh"], ["openai_api_key=sk-", "3"], ["fk", "o"], ["65", "@gmail.com,</w>"], ["o", "pl"], ["69", "m</w>"], ["pr", "z"], ["wa", "z"], ["kx", "g"], ["p", "vi"], ["$", "50"], ["$", "98"], ["f", "ql"], ["olivia.", "mendoza"], ["(olivia.", "garcia"], ["ak", "n"], ["(mei.", "okafor"], ["f", "yx"], ["9", "ff"], ["60", ")</w>"], ["ru", "</w>"], ["-5", "38"], ["$10", "5,000</w>"], ["fw", "u"], ["7", "04"], ["ol", "z"], ["$48", "0m</w>"], ["jh", "q"], ["o", "vn"], ["m", "vs"], ["v", "0z"], ["d", "fo"], [".11", "1</w>"], ["9", "27"], ["5", "@northwind.io</w>"], ["9", "17"], ["vw", "9"], ["b", "ma"], ["00", "-4"], ["fr", "</w>"], ["fn", "d"], ["o", "vl"], ["fx", "z"], ["9", "29"], ["mh", "x"], ["(jordan.", "tanaka"], ["09/", "12/19"], ["kw", "6"], ["10.0.", "8."], ["$8", "59,000</w>"], ["wx", "v"], ["-7", "47"], ["+1-2", "42"], ["en", "i"], ["f", "ep"], ["j", "kl"], ["py", "u"], ["81", "@northwind.io</w>"], ["fo", "i"], ["tom\u00e1s.", "mendoza"], ["fy", "h"], ["wei.", "tanaka"], ["8", "56"], ["-5", "53"], ["a", "jz"], ["mei.", "kim"], ["+", "w"], ["6", "/"], ["27", "18"], ["priya.", "tanaka"], ["f", "sz"], ["gq", "</w>"], ["b", "el"], ["m", "fn"], ["%", "1"], ["vv", "x"], ["42", "@acme.co,</w>"], ["rd", "9"], ["m", "9l"], ["k", "ed"], ["gb", "y"], ["alex.", "garcia"], ["fn", "w"], ["52", "-7"], ["bl", "m"], ["$", "#"], ["40", "@gmail.com,</w>"], ["-3", "12"], ["10.0.", "58"], ["akia", "6"], ["fz", "c"], ["sh", "z"], ["1-", "76"], ["08", ")</w>"]]}